▁the	-2.89563
<s>	0
</s>	0
<unk>	0
.	-3.14013
,	-3.18098
▁to	-3.77344
▁of	-3.8189
▁a	-3.82353
▁in	-3.91255
▁and	-3.97718
▁s	-4.53756
s	-4.64044
▁said	-4.77196
▁for	-4.85956
▁that	-4.87383
▁on	-4.87495
ing	-5.06716
▁is	-5.0713
ed	-5.13163
▁was	-5.15391
▁with	-5.27639
▁it	-5.31849
▁at	-5.38617
▁he	-5.40776
▁as	-5.42903
▁from	-5.50008
▁by	-5.51951
▁has	-5.56298
▁be	-5.62294
▁	-5.62765
▁an	-5.64159
▁have	-5.64822
▁his	-5.64826
▁are	-5.77045
▁but	-5.82881
▁were	-5.85416
▁will	-5.87112
▁who	-5.92569
▁not	-5.95428
▁they	-6.00125
▁after	-6.045
▁had	-6.07463
▁been	-6.11974
▁president	-6.13688
▁this	-6.14927
▁u	-6.15121
▁its	-6.19435
▁their	-6.19478
▁people	-6.20431
▁about	-6.22856
▁year	-6.23095
▁more	-6.23483
▁i	-6.26771
▁two	-6.27437
▁we	-6.32477
▁korea	-6.32901
▁new	-6.33539
▁which	-6.34807
▁one	-6.359
▁would	-6.4027
▁up	-6.41269
▁her	-6.41461
ly	-6.41917
▁government	-6.41993
▁or	-6.44646
▁north	-6.47088
▁also	-6.49069
▁she	-6.49509
▁than	-6.50907
n	-6.5126
d	-6.52617
▁out	-6.54672
▁last	-6.57692
▁t	-6.58833
▁cnn	-6.59064
▁over	-6.59978
▁police	-6.61816
▁when	-6.61939
▁first	-6.62225
▁south	-6.65451
▁there	-6.6919
▁into	-6.7276
▁all	-6.75906
▁other	-6.75932
y	-6.79974
▁time	-6.80287
▁no	-6.80547
▁told	-6.81012
▁some	-6.83598
e	-6.83754
▁years	-6.85236
▁korean	-6.86812
▁percent	-6.88795
▁world	-6.89876
▁you	-6.91423
▁state	-6.92256
▁united	-6.92873
▁officials	-6.94738
▁could	-6.9499
▁can	-6.96129
▁if	-6.9628
▁according	-6.96309
▁party	-7.00391
▁country	-7.0063
▁three	-7.00906
▁monday	-7.0175
▁iraq	-7.02386
▁says	-7.02602
▁tuesday	-7.04054
▁military	-7.04108
▁states	-7.08126
▁them	-7.08217
▁national	-7.08408
▁day	-7.09318
▁obama	-7.09858
▁minister	-7.10248
▁wednesday	-7.12654
▁what	-7.13007
▁before	-7.13543
▁against	-7.15474
▁million	-7.15566
▁sunday	-7.15592
▁since	-7.15827
▁week	-7.18205
▁china	-7.1862
▁bush	-7.1881
▁nuclear	-7.18933
▁old	-7.18995
▁so	-7.19732
▁us	-7.20366
▁where	-7.20646
▁now	-7.21101
▁killed	-7.22132
▁most	-7.23348
▁because	-7.24962
▁city	-7.25164
▁thursday	-7.25633
▁say	-7.25716
▁former	-7.25734
▁off	-7.27104
▁may	-7.27407
▁security	-7.27878
▁while	-7.28015
▁reported	-7.28142
▁down	-7.28351
▁him	-7.28361
▁just	-7.28658
▁between	-7.29683
▁only	-7.29901
▁made	-7.30749
▁under	-7.30764
▁near	-7.3209
▁back	-7.33684
▁being	-7.34008
▁official	-7.3404
during	-7.34642
▁news	-7.34948
▁many	-7.36064
▁house	-7.37302
▁group	-7.37824
▁month	-7.38285
▁re	-7.40956
▁al	-7.41692
m	-7.42049
▁like	-7.42711
▁called	-7.42855
▁including	-7.43562
▁do	-7.4518
▁did	-7.4594
▁four	-7.46623
▁war	-7.46934
▁our	-7.47768
▁international	-7.48177
▁through	-7.4834
▁10	-7.48574
▁home	-7.50049
er	-7.51003
▁reports	-7.51475
▁spokesman	-7.52041
▁statement	-7.52524
▁any	-7.52754
▁won	-7.5345
▁man	-7.53576
al	-7.53898
ial	-7.54213
▁next	-7.54704
▁days	-7.5475
▁six	-7.55475
▁take	-7.55752
▁talks	-7.55834
▁foreign	-7.56046
▁five	-7.56157
▁found	-7.56233
▁japan	-7.56701
▁those	-7.5744
▁still	-7.57626
▁get	-7.57794
▁second	-7.58932
▁high	-7.59351
▁part	-7.59423
▁prime	-7.60373
▁court	-7.60952
▁troops	-7.61113
▁make	-7.61389
▁seoul	-7.62368
▁least	-7.63737
▁report	-7.64294
▁american	-7.64341
▁around	-7.64831
▁end	-7.65866
▁another	-7.66028
a	-7.66036
th	-7.67009
▁long	-7.67495
▁such	-7.68167
▁ministry	-7.68269
▁help	-7.69364
▁how	-7.70152
▁top	-7.70213
▁leader	-7.71131
▁clinton	-7.71303
o	-7.71351
▁way	-7.72445
▁washington	-7.72693
▁office	-7.72696
▁company	-7.73994
▁public	-7.74811
▁set	-7.75319
▁agency	-7.75757
▁work	-7.75999
▁expected	-7.76008
▁un	-7.76214
▁saying	-7.76676
▁forces	-7.77854
▁times	-7.78123
▁very	-7.78576
▁even	-7.79063
▁children	-7.79374
▁york	-7.80067
▁well	-7.80091
▁both	-7.80588
▁should	-7.81397
▁died	-7.82241
▁early	-7.82303
▁press	-7.82527
▁authorities	-7.8277
▁attack	-7.82936
▁british	-7.83607
▁members	-7.83715
▁several	-7.83728
▁saturday	-7.83968
▁chief	-7.83995
▁earlier	-7.84331
▁billion	-7.84371
▁1	-7.84652
▁number	-7.84847
▁election	-7.84848
▁white	-7.85059
▁friday	-7.85548
▁go	-7.86034
▁political	-7.86616
▁countries	-7.8678
▁20	-7.87122
▁meeting	-7.87152
▁months	-7.87322
▁iraqi	-7.87324
▁women	-7.87527
▁chinese	-7.87527
▁democratic	-7.88528
▁then	-7.89014
▁my	-7.89059
▁bank	-7.89121
▁nation	-7.89178
▁look	-7.89366
▁among	-7.89547
▁going	-7.89571
▁came	-7.89634
▁3	-7.9035
▁took	-7.90675
▁kim	-7.90741
▁2	-7.90765
▁economic	-7.90795
▁family	-7.90958
▁death	-7.91049
▁think	-7.92026
▁show	-7.92055
▁lee	-7.9313
t	-7.93175
▁later	-7.93521
▁much	-7.93711
▁capital	-7.93861
▁30	-7.94448
▁left	-7.94503
▁night	-7.94513
▁used	-7.94826
▁life	-7.95319
▁fire	-7.95587
▁good	-7.95856
▁ago	-7.96547
▁yesterday	-7.96815
▁campaign	-7.96986
▁general	-7.97395
▁power	-7.97498
▁secretary	-7.98344
▁announced	-7.99761
▁men	-8.00369
▁site	-8.00386
▁pakistan	-8.00552
▁area	-8.01813
▁john	-8.0187
▁held	-8.01887
▁car	-8.01892
▁program	-8.02832
▁head	-8.0294
▁iran	-8.03041
▁health	-8.03073
▁same	-8.03195
▁recent	-8.03313
▁support	-8.0345
▁team	-8.0371
▁oil	-8.04064
▁force	-8.0417
▁major	-8.04499
▁see	-8.04618
▁m	-8.04991
▁de	-8.04993
▁want	-8.05676
▁plan	-8.05744
▁place	-8.05823
▁leaders	-8.05845
▁today	-8.06103
▁university	-8.06448
▁based	-8.0698
▁right	-8.0715
▁deal	-8.07256
▁air	-8.07339
▁department	-8.07645
▁opposition	-8.07816
▁economy	-8.07969
▁don	-8.07989
▁third	-8.08123
▁media	-8.08317
▁released	-8.08557
▁roh	-8.08598
▁use	-8.09194
▁center	-8.09392
▁past	-8.0944
▁morning	-8.09516
▁half	-8.09821
▁until	-8.10767
▁law	-8.10965
▁local	-8.11242
▁know	-8.11264
▁financial	-8.11388
▁me	-8.12123
▁late	-8.12156
▁school	-8.12211
▁london	-8.12355
▁taliban	-8.12355
▁hours	-8.12424
▁defense	-8.12516
▁put	-8.12529
▁case	-8.1275
▁whether	-8.12837
▁without	-8.12884
▁these	-8.1301
▁6	-8.13256
▁market	-8.13532
▁run	-8.13708
▁come	-8.13784
▁hit	-8.14331
c	-8.15067
▁15	-8.15186
▁your	-8.15218
▁5	-8.1544
▁human	-8.1555
▁taken	-8.15552
▁attacks	-8.15763
es	-8.1588
▁beijing	-8.16274
▁workers	-8.16741
▁money	-8.16948
▁nations	-8.17015
▁administration	-8.1711
▁afghanistan	-8.1711
▁visit	-8.17297
▁japanese	-8.17451
i	-8.17897
▁mccain	-8.18123
▁space	-8.18475
▁close	-8.18521
▁does	-8.18524
▁hospital	-8.18706
▁plans	-8.19197
▁led	-8.19721
▁11	-8.19841
▁best	-8.19842
▁4	-8.19859
▁free	-8.20393
▁move	-8.20683
▁central	-8.20701
▁win	-8.20812
▁already	-8.20876
▁water	-8.20957
▁baghdad	-8.2105
▁service	-8.21505
▁others	-8.21749
▁give	-8.21958
▁along	-8.22081
▁system	-8.22307
▁began	-8.22658
▁army	-8.24088
▁rights	-8.24102
▁known	-8.24232
▁big	-8.24244
▁march	-8.24414
▁return	-8.24816
▁province	-8.24952
▁miles	-8.25157
▁few	-8.25279
▁decision	-8.25484
▁away	-8.25535
▁vote	-8.26038
▁ap	-8.26403
▁each	-8.26432
▁p	-8.26576
▁50	-8.26821
▁conference	-8.27172
▁dead	-8.27196
▁become	-8.27359
▁however	-8.27362
▁israel	-8.2759
▁main	-8.278
▁across	-8.28105
▁12	-8.28107
▁release	-8.28322
▁eight	-8.28657
▁southern	-8.28669
▁open	-8.28919
▁issue	-8.28994
▁weeks	-8.29063
▁soldiers	-8.29097
▁barack	-8.29426
▁e	-8.29554
▁french	-8.29603
▁trade	-8.29617
▁food	-8.29624
▁need	-8.29673
▁face	-8.29855
▁region	-8.29955
▁woman	-8.30006
▁business	-8.30334
▁own	-8.30516
▁information	-8.30575
▁far	-8.31156
▁web	-8.31283
▁asked	-8.31502
▁violence	-8.31731
▁agreement	-8.32154
▁co	-8.32159
▁here	-8.32681
▁weapons	-8.32685
▁arrested	-8.33022
▁change	-8.33589
▁russia	-8.33743
se	-8.34006
te	-8.34055
▁control	-8.34131
▁militants	-8.34166
▁d	-8.34233
▁lead	-8.34249
▁making	-8.34297
r	-8.34364
▁european	-8.34557
▁park	-8.34625
▁seven	-8.34643
▁100	-8.3511
▁prices	-8.35284
▁israeli	-8.353
▁star	-8.35399
▁east	-8.35439
▁sen	-8.35441
▁global	-8.35528
▁video	-8.35562
▁students	-8.3562
▁thousands	-8.35799
▁largest	-8.35912
▁ve	-8.3598
▁killing	-8.35992
▁following	-8.36045
▁bill	-8.3605
▁northern	-8.37327
▁federal	-8.3774
▁peace	-8.38147
▁internet	-8.38153
▁town	-8.38345
▁seen	-8.38433
▁agreed	-8.39433
▁40	-8.3944
▁young	-8.3957
▁large	-8.39786
▁per	-8.39942
▁california	-8.40036
▁added	-8.4034
▁committee	-8.4079
▁britain	-8.40884
▁might	-8.41098
▁pyongyang	-8.41954
▁7	-8.42072
▁film	-8.42163
▁points	-8.42197
▁article	-8.42304
▁director	-8.42312
▁trying	-8.42345
▁small	-8.42551
▁start	-8.42567
▁outside	-8.43093
▁ahead	-8.4359
▁final	-8.43765
▁every	-8.4446
▁accused	-8.4447
▁went	-8.44618
▁working	-8.44704
▁border	-8.44734
▁palestinian	-8.44957
▁elections	-8.44963
▁great	-8.45017
▁emergency	-8.45018
▁aid	-8.45219
▁likely	-8.45245
▁research	-8.45836
2	-8.4588
▁senior	-8.45907
▁record	-8.46141
▁must	-8.46163
▁charges	-8.46343
▁never	-8.46353
▁key	-8.46451
▁little	-8.46581
▁investigation	-8.46995
▁body	-8.47073
▁crisis	-8.47259
▁anti	-8.47419
▁possible	-8.47487
▁france	-8.47565
▁clear	-8.4765
▁keep	-8.47747
▁believe	-8.47792
▁energy	-8.47944
▁2006	-8.47948
▁point	-8.48089
▁union	-8.48627
▁congress	-8.49079
▁companies	-8.49092
▁again	-8.49309
▁side	-8.49355
▁associat	-8.49521
▁january	-8.50021
▁west	-8.50189
▁18	-8.50241
▁cut	-8.50266
▁game	-8.50481
▁got	-8.50497
▁red	-8.51201
▁latest	-8.51217
▁total	-8.5127
▁continue	-8.51518
▁groups	-8.51764
▁council	-8.5189
▁qaeda	-8.51906
▁reporters	-8.51924
▁live	-8.52141
▁line	-8.52471
▁22	-8.52601
▁june	-8.52626
▁within	-8.52704
▁july	-8.52876
▁due	-8.53147
▁parliament	-8.53169
▁america	-8.53185
▁gas	-8.53316
▁meet	-8.53449
▁sea	-8.53726
▁less	-8.53799
▁further	-8.53827
▁member	-8.5385
▁candidate	-8.53852
▁building	-8.53872
▁toward	-8.53971
▁policy	-8.54312
▁showed	-8.54417
▁too	-8.54422
▁16	-8.545
▁suspect	-8.5459
▁25	-8.54781
▁george	-8.55053
▁coast	-8.55154
▁once	-8.55322
▁race	-8.55335
▁find	-8.55704
▁weekend	-8.55785
▁england	-8.56033
▁ruling	-8.56033
▁minutes	-8.56359
▁name	-8.56519
▁strong	-8.56561
▁8	-8.56738
▁ban	-8.56895
▁efforts	-8.57182
▁gaza	-8.57281
▁order	-8.57284
▁13	-8.57305
▁allow	-8.57454
▁september	-8.57531
▁television	-8.57531
▁airport	-8.57595
▁w	-8.57763
▁stop	-8.57925
k	-8.58184
▁suicide	-8.58354
▁bring	-8.58586
▁medical	-8.58799
▁lost	-8.58826
▁hundreds	-8.58971
▁term	-8.59387
en	-8.59923
▁14	-8.60061
▁child	-8.60083
▁russian	-8.60096
▁station	-8.60397
▁afghan	-8.60949
▁study	-8.6101
▁future	-8.61214
▁victory	-8.61645
▁travel	-8.61832
▁level	-8.62009
▁series	-8.62205
▁better	-8.62442
able	-8.62513
▁call	-8.62681
▁communist	-8.62695
▁street	-8.62829
▁island	-8.63255
▁sent	-8.63424
▁using	-8.6351
▁round	-8.63615
▁americans	-8.63634
▁full	-8.63648
▁f	-8.63717
▁bomb	-8.63945
▁confirmed	-8.63999
▁real	-8.64005
▁industry	-8.64027
▁action	-8.64167
▁send	-8.64339
▁person	-8.64341
▁shot	-8.64438
▁december	-8.64565
▁lot	-8.64696
▁musharraf	-8.64835
▁april	-8.65106
▁play	-8.65591
▁almost	-8.65655
▁father	-8.65785
▁process	-8.66008
▁injured	-8.66554
▁hour	-8.66632
ic	-8.66796
▁pro	-8.66908
▁wounded	-8.6695
▁able	-8.67054
▁list	-8.67077
▁yet	-8.67312
▁hand	-8.67471
▁really	-8.6749
▁interview	-8.677
▁black	-8.67741
▁europe	-8.67841
▁having	-8.68137
▁enough	-8.68141
▁although	-8.68417
▁history	-8.68417
▁chairman	-8.68419
▁tv	-8.68484
▁ever	-8.68609
▁sex	-8.68632
▁inside	-8.6865
▁result	-8.6888
▁republican	-8.68887
▁started	-8.68892
▁involved	-8.68952
▁november	-8.6898
▁david	-8.6898
▁front	-8.69005
▁behind	-8.69262
▁asia	-8.69426
▁soon	-8.69438
▁coming	-8.69466
l	-8.69814
▁homes	-8.69824
▁sources	-8.6987
an	-8.69932
▁believed	-8.70315
▁wife	-8.70404
▁special	-8.70457
▁fighting	-8.70626
▁given	-8.7064
▁rice	-8.70688
▁turn	-8.7081
▁current	-8.70811
ers	-8.70856
▁nine	-8.70995
▁job	-8.7117
▁san	-8.71346
▁flight	-8.71475
▁amid	-8.71554
▁search	-8.71791
▁leading	-8.71878
▁test	-8.71884
▁heart	-8.71939
▁mother	-8.72346
▁western	-8.72426
▁plane	-8.72524
▁important	-8.72549
▁organization	-8.72648
▁pay	-8.7269
▁9	-8.72848
▁india	-8.72855
est	-8.73124
▁areas	-8.73312
▁role	-8.73537
▁60	-8.7398
▁koreans	-8.74108
▁comes	-8.74138
u	-8.74156
▁grand	-8.74196
▁august	-8.74488
▁hard	-8.7473
▁newspaper	-8.74738
▁fuel	-8.74742
▁problems	-8.7477
▁hyun	-8.74772
▁hold	-8.74953
▁season	-8.74957
▁commission	-8.75017
▁storm	-8.75096
▁victims	-8.75157
▁though	-8.75648
▁evidence	-8.75688
▁2005	-8.757
▁son	-8.75735
▁rate	-8.75828
▁prison	-8.76796
▁voters	-8.76992
▁mission	-8.77186
▁planned	-8.77211
▁19	-8.77288
▁24	-8.77821
▁increase	-8.77954
▁met	-8.78071
1	-8.78086
▁push	-8.78132
▁different	-8.78273
▁scientists	-8.7833
▁australia	-8.786
▁wanted	-8.79031
▁turned	-8.79067
▁mark	-8.79083
▁lower	-8.79133
▁wants	-8.79156
▁middle	-8.79369
▁february	-8.79375
sh	-8.79534
▁gav	-8.7977
▁age	-8.80232
▁post	-8.8025
▁islamic	-8.80324
ary	-8.80335
▁couple	-8.80346
▁summit	-8.80635
▁senate	-8.80638
▁movie	-8.8064
▁results	-8.80747
com	-8.80791
▁spokeswoman	-8.80952
▁fell	-8.80957
▁2004	-8.80958
▁board	-8.80971
▁private	-8.81105
▁incident	-8.81133
taking	-8.81217
▁price	-8.81445
g	-8.81579
▁received	-8.81659
▁calls	-8.81771
▁problem	-8.81928
▁tried	-8.81943
▁heavy	-8.82232
▁appeared	-8.82233
▁step	-8.82272
▁supporters	-8.82691
▁let	-8.82839
▁situation	-8.82897
▁recently	-8.82915
▁tell	-8.82974
▁attempt	-8.82975
▁protest	-8.83223
▁prosecutors	-8.83261
▁thought	-8.8327
▁negotiations	-8.83282
▁deaths	-8.83298
▁judge	-8.83464
▁development	-8.83566
▁markets	-8.83802
▁vice	-8.8386
▁district	-8.83886
▁relations	-8.83901
▁poll	-8.84021
▁october	-8.84183
▁together	-8.84183
▁protesters	-8.84233
▁low	-8.84487
▁intelligence	-8.84513
▁scheduled	-8.84547
▁disease	-8.84553
▁cause	-8.84771
▁road	-8.84782
▁pressure	-8.85211
▁hotel	-8.85226
▁train	-8.85272
▁florida	-8.85506
▁something	-8.85508
▁stay	-8.85554
▁germany	-8.85607
▁tokyo	-8.85839
▁stock	-8.8589
▁ll	-8.85941
▁moo	-8.86175
▁needed	-8.86188
▁los	-8.86342
p	-8.86506
▁short	-8.86638
▁ground	-8.86641
▁include	-8.86756
▁urg	-8.86821
▁hamas	-8.86846
▁operation	-8.86858
▁immediately	-8.86933
▁technology	-8.87184
▁caused	-8.8723
▁decided	-8.8733
▁2008	-8.87533
▁hong	-8.87534
▁growth	-8.87536
st	-8.87649
▁land	-8.87661
▁online	-8.87665
▁aim	-8.8774
▁wall	-8.87747
▁games	-8.87874
▁eastern	-8.88031
▁17	-8.8807
▁tour	-8.88096
▁labor	-8.88189
▁biggest	-8.88204
▁getting	-8.88223
▁services	-8.88335
▁growing	-8.88388
▁issues	-8.88547
▁reached	-8.88664
▁...	-8.88764
▁coalition	-8.8889
▁try	-8.89007
▁hill	-8.89014
▁2003	-8.89245
▁condition	-8.89327
▁phone	-8.89344
▁paris	-8.89363
▁league	-8.89595
▁strike	-8.89611
▁pakistani	-8.89738
▁claimed	-8.89806
▁alleged	-8.89819
▁exchange	-8.89865
▁lawmakers	-8.89914
▁summer	-8.90014
▁missing	-8.90136
▁brown	-8.9017
▁fight	-8.90281
▁saw	-8.90447
▁provide	-8.90602
▁claim	-8.90858
▁officers	-8.90871
▁polls	-8.90938
▁remain	-8.91296
▁church	-8.91301
▁assembly	-8.91328
▁hillary	-8.91345
▁executive	-8.91442
▁girl	-8.91451
▁closed	-8.91652
▁asian	-8.91726
▁officer	-8.92238
▁cup	-8.92276
▁angeles	-8.92397
▁hope	-8.92676
▁speech	-8.9272
▁battle	-8.92908
▁gen	-8.9292
▁warned	-8.93176
▁trip	-8.93453
5	-8.93453
▁kind	-8.93559
▁rise	-8.93624
▁cross	-8.93674
▁feel	-8.93723
▁arrest	-8.93748
▁sarkozy	-8.93829
▁charged	-8.93963
▁effort	-8.9397
▁music	-8.94132
▁tax	-8.94138
▁issued	-8.94182
▁failed	-8.9424
▁protests	-8.94521
▁german	-8.94584
▁serious	-8.95117
▁goal	-8.95231
▁olympic	-8.95443
▁staff	-8.95638
▁jobs	-8.95758
▁texas	-8.96023
came	-8.96028
▁running	-8.96029
▁hostages	-8.96086
▁justice	-8.96187
▁match	-8.96376
▁democracy	-8.96394
▁turkey	-8.96766
▁experts	-8.97042
▁speaking	-8.97074
▁lives	-8.97125
▁majority	-8.97531
▁200	-8.97647
▁threat	-8.97675
▁drug	-8.97695
▁community	-8.97889
▁host	-8.97922
▁interest	-8.98002
or	-8.98161
on	-8.98259
▁opened	-8.9829
▁talk	-8.98393
▁crew	-8.98459
▁event	-8.98577
▁launched	-8.98717
▁higher	-8.98862
▁quot	-8.98942
▁things	-8.98982
man	-8.9901
▁story	-8.99029
▁credit	-8.99221
▁why	-8.99409
▁named	-8.99463
to	-8.99547
▁continued	-8.99684
▁light	-8.99861
▁base	-8.99919
▁senator	-8.99995
in	-9.00134
▁safety	-9.00178
▁bid	-9.00198
▁association	-9.00199
▁23	-9.00346
▁doing	-9.00415
▁bad	-9.00455
▁county	-9.00611
▁civilians	-9.00772
▁sales	-9.0078
▁room	-9.00811
▁b	-9.01088
▁governor	-9.01161
▁leave	-9.01168
▁rule	-9.01378
▁demand	-9.0153
▁robert	-9.01675
▁protect	-9.01719
▁primary	-9.01729
▁resolution	-9.01729
▁damage	-9.01798
▁sign	-9.01876
▁programs	-9.01917
▁joint	-9.01986
▁project	-9.02154
▁arrived	-9.02161
▁parties	-9.02161
▁described	-9.02235
▁address	-9.02294
▁residents	-9.02352
▁offer	-9.02356
▁himself	-9.02909
▁2007	-9.0292
▁concerns	-9.03032
▁average	-9.03101
▁delegates	-9.03116
▁daughter	-9.0315
▁king	-9.03152
▁21	-9.03259
▁earth	-9.03313
▁production	-9.03314
▁daily	-9.03319
▁measures	-9.03388
▁denied	-9.03705
▁bhutto	-9.03705
▁often	-9.03713
▁message	-9.03958
▁watch	-9.04058
▁care	-9.04062
▁stage	-9.04215
▁carrying	-9.04497
▁cost	-9.04512
▁break	-9.04556
▁estimated	-9.04563
▁identified	-9.04598
▁camp	-9.04612
▁boy	-9.04831
▁husband	-9.04909
▁radio	-9.04909
▁deputy	-9.05314
h	-9.0534
▁australian	-9.05362
▁shows	-9.05399
▁survey	-9.05404
▁risk	-9.05471
▁previous	-9.05558
▁africa	-9.0557
▁fired	-9.05781
▁minute	-9.06004
▁kong	-9.06133
▁concern	-9.06241
▁ordered	-9.06255
▁attorney	-9.0641
▁missile	-9.06413
▁michael	-9.06539
▁always	-9.06539
0,000	-9.06629
▁calling	-9.06684
▁parents	-9.06742
▁population	-9.0682
▁cars	-9.0713
▁am	-9.07191
▁done	-9.07313
▁families	-9.07364
▁o	-9.07387
▁scene	-9.07479
▁similar	-9.07609
▁computer	-9.07662
▁meanwhile	-9.07779
▁myanmar	-9.08195
▁r	-9.08223
▁illegal	-9.0845
▁iranian	-9.08516
▁popular	-9.08607
▁river	-9.08869
▁k	-9.08891
▁funds	-9.09104
▁despi	-9.09159
▁included	-9.09228
▁details	-9.09238
▁brought	-9.09456
▁spent	-9.09466
▁cases	-9.09827
▁royal	-9.09879
ion	-9.10245
▁prince	-9.10296
▁sanctions	-9.10388
▁armed	-9.1061
▁embassy	-9.10732
▁expressed	-9.10983
▁terrorist	-9.11079
▁form	-9.11158
▁gold	-9.11235
▁related	-9.11235
▁followed	-9.11451
▁living	-9.11593
▁reach	-9.11698
▁dow	-9.11851
▁candidates	-9.11981
▁afternoon	-9.12025
▁played	-9.1208
▁rest	-9.1217
▁cell	-9.12389
▁trial	-9.12394
▁english	-9.1246
▁nato	-9.12475
▁ready	-9.12561
▁fund	-9.12676
▁worst	-9.12901
▁rally	-9.12903
▁book	-9.13139
▁love	-9.13154
▁prevent	-9.13178
▁nomination	-9.13266
▁st	-9.13297
▁activities	-9.13335
▁cabinet	-9.13336
▁opening	-9.13467
▁fourth	-9.13584
▁begin	-9.1371
ar	-9.13715
▁source	-9.1373
▁rose	-9.13732
▁huge	-9.13831
▁crash	-9.13873
le	-9.13914
▁legal	-9.14043
▁comments	-9.14148
▁position	-9.14164
▁means	-9.14306
▁refused	-9.14331
▁democrats	-9.14739
▁african	-9.14748
▁raised	-9.14779
▁researchers	-9.14825
▁ambassador	-9.15036
▁sexual	-9.15108
▁leaving	-9.15109
▁bodies	-9.15114
▁doctors	-9.15194
▁elect	-9.15383
▁quarter	-9.15502
▁question	-9.15658
▁allowed	-9.15704
carried	-9.15712
▁streets	-9.15786
▁share	-9.15845
▁ended	-9.15896
spite	-9.1598
▁struck	-9.16008
▁dr	-9.16273
▁claims	-9.16321
▁paul	-9.16356
▁period	-9.16383
▁access	-9.1646
▁foot	-9.16468
▁putin	-9.16496
▁sure	-9.16539
▁returned	-9.16548
▁rescue	-9.16777
▁announcement	-9.16921
▁terrorism	-9.16921
▁discuss	-9.17059
▁expect	-9.17067
b	-9.17129
▁matter	-9.17348
▁progress	-9.17364
▁broke	-9.17487
▁27	-9.17574
▁peninsula	-9.17831
▁view	-9.18014
▁fact	-9.18165
▁conditions	-9.18168
▁focus	-9.18171
▁blast	-9.18266
▁debate	-9.18295
▁instead	-9.18334
▁80	-9.18601
▁murder	-9.18612
▁passengers	-9.18687
▁create	-9.18791
um	-9.18815
▁course	-9.19184
▁rival	-9.19206
▁parts	-9.19211
▁cities	-9.19223
▁hopes	-9.19536
▁mexico	-9.19687
▁forward	-9.19781
za	-9.1988
▁operations	-9.20064
▁needs	-9.20137
▁illinois	-9.20156
▁interior	-9.20212
▁published	-9.20214
▁passed	-9.20509
7	-9.20521
▁trading	-9.20628
▁holding	-9.20644
▁500	-9.20657
▁fans	-9.20903
▁fall	-9.20917
▁network	-9.20942
▁accept	-9.21452
▁sites	-9.21503
z	-9.21645
▁millions	-9.21785
▁spending	-9.21905
▁saudi	-9.22053
▁feet	-9.22063
▁inter	-9.22071
▁ship	-9.22122
▁c	-9.22276
▁consider	-9.22285
▁2002	-9.22511
▁available	-9.22537
▁mass	-9.22541
▁nothing	-9.22542
▁warning	-9.22644
ve	-9.22727
▁civil	-9.23008
us	-9.23025
f	-9.23179
▁charge	-9.23516
▁non	-9.23584
▁launch	-9.23729
▁citizens	-9.23797
▁chicago	-9.23994
▁gnp	-9.23994
ies	-9.2408
▁suffered	-9.24127
▁blood	-9.24384
▁data	-9.24486
▁institute	-9.24502
▁treatment	-9.24508
▁investment	-9.24517
▁chance	-9.2452
▁eu	-9.24663
▁banks	-9.247
▁currently	-9.24763
▁annual	-9.24811
▁70	-9.24887
▁education	-9.24922
▁moved	-9.24924
▁rising	-9.24986
▁field	-9.2509
▁ceremony	-9.25471
▁female	-9.25471
▁0	-9.25651
▁poor	-9.25732
▁longer	-9.25733
▁jail	-9.25893
▁winning	-9.25972
▁weather	-9.25975
▁square	-9.25995
▁virginia	-9.26003
▁response	-9.26007
▁snow	-9.26011
▁declared	-9.26015
▁muslim	-9.26019
▁lawyer	-9.26023
▁movement	-9.26034
▁sold	-9.26075
▁either	-9.26469
▁themselves	-9.26469
▁cannot	-9.26473
▁signed	-9.26762
▁thing	-9.26862
▁range	-9.26877
▁enter	-9.26896
▁harry	-9.26972
▁italian	-9.26977
▁professor	-9.27027
▁rebels	-9.27081
▁decades	-9.27086
▁affairs	-9.27147
▁tak	-9.27213
▁difficult	-9.27354
▁social	-9.27375
▁smith	-9.27419
▁diplomatic	-9.27476
▁analysts	-9.27534
▁steps	-9.27535
▁moon	-9.27718
▁increased	-9.27732
▁forc	-9.27736
▁award	-9.27827
▁deliver	-9.27863
▁friends	-9.27879
▁above	-9.27984
▁date	-9.28039
▁discovered	-9.28072
▁worked	-9.28085
▁commander	-9.2809
side	-9.28162
▁players	-9.28257
▁schools	-9.28444
▁gain	-9.28453
▁century	-9.28494
▁injuries	-9.28497
▁probably	-9.28503
▁ki	-9.28535
▁club	-9.28565
▁single	-9.28692
▁employees	-9.28751
▁comment	-9.28857
▁adding	-9.28915
▁kilometers	-9.29162
▁construction	-9.29523
▁italy	-9.2953
▁index	-9.2954
▁mid	-9.29653
▁g	-9.29863
▁toll	-9.30133
▁90	-9.30264
▁investigators	-9.30277
▁helped	-9.3033
▁remains	-9.30395
▁quickly	-9.30638
▁highest	-9.30651
▁turki	-9.30677
▁destroyed	-9.30793
▁join	-9.30874
▁sun	-9.31066
▁nasa	-9.31068
▁personal	-9.31079
▁rare	-9.31091
▁questions	-9.31138
▁manager	-9.31201
▁worth	-9.31539
▁friend	-9.31566
▁spain	-9.31615
8	-9.31682
▁dollar	-9.31722
▁industrial	-9.31735
▁dozens	-9.31772
▁shooting	-9.31905
▁giving	-9.32141
▁supreme	-9.32143
▁jones	-9.3215
▁accident	-9.32191
▁crowd	-9.32204
▁playing	-9.32294
▁threatened	-9.32351
▁dollars	-9.32561
▁code	-9.32582
▁chavez	-9.32674
▁anything	-9.32674
▁act	-9.3269
▁guard	-9.3273
▁letter	-9.32792
▁vehicle	-9.32794
▁mayor	-9.32879
▁26	-9.32919
▁indian	-9.33011
▁especially	-9.33207
▁everything	-9.33208
▁approved	-9.33246
▁request	-9.33283
▁detained	-9.33333
▁blue	-9.33333
▁ice	-9.33416
▁natural	-9.33698
▁hearing	-9.3371
▁paid	-9.33767
▁seeking	-9.33792
▁idea	-9.33858
▁allegedly	-9.33998
▁seat	-9.3414
▁green	-9.34277
▁nearby	-9.34309
▁considered	-9.34398
▁rain	-9.3441
▁environmental	-9.34619
▁common	-9.34693
▁beat	-9.34783
▁moscow	-9.34829
▁prosecution	-9.34829
▁35	-9.34867
▁allegations	-9.34951
▁additional	-9.35246
▁massive	-9.3539
▁sell	-9.35509
▁session	-9.35518
▁hands	-9.3558
▁bus	-9.3589
▁title	-9.35919
▁envoy	-9.35925
▁kept	-9.35925
▁carolina	-9.35928
▁lack	-9.35928
▁relationship	-9.36073
▁evening	-9.36169
▁changes	-9.36357
▁posted	-9.36386
▁kill	-9.364
▁shut	-9.36421
▁attention	-9.36477
▁cancer	-9.36478
▁dropped	-9.36479
▁apparently	-9.36573
el	-9.36591
▁firm	-9.36638
▁821	-9.36678
▁read	-9.3674
▁levels	-9.36806
▁bin	-9.36827
▁45	-9.36903
▁aircraft	-9.37034
▁alliance	-9.37034
▁convicted	-9.37068
▁born	-9.37095
▁pre	-9.3716
▁shiite	-9.37189
▁safe	-9.37389
▁happened	-9.37416
▁potential	-9.37429
▁numbers	-9.37452
▁taiwan	-9.37589
▁driving	-9.37591
▁responsible	-9.37591
▁avoid	-9.37605
▁criticized	-9.3772
▁investors	-9.37751
▁size	-9.3777
▁remarks	-9.37792
▁critical	-9.37996
▁loss	-9.38037
▁success	-9.38079
▁n	-9.38456
▁quit	-9.38478
▁29	-9.38713
▁pennsylvania	-9.38718
▁responsibility	-9.38724
▁sides	-9.38749
▁uk	-9.38806
▁target	-9.38836
▁stand	-9.3886
▁college	-9.38883
3	-9.39098
▁training	-9.39218
▁visitors	-9.39374
▁voice	-9.39469
▁crime	-9.39483
▁il	-9.39531
▁xinhua	-9.39858
▁society	-9.39866
▁admitted	-9.3991
▁conservative	-9.40055
▁uri	-9.40215
▁build	-9.40307
▁makes	-9.40308
▁authority	-9.4044
▁terror	-9.40494
▁appear	-9.40582
▁consumer	-9.40641
▁whom	-9.40646
▁heard	-9.40662
▁indonesia	-9.40841
▁ohio	-9.41012
▁management	-9.41012
▁planning	-9.41014
▁h	-9.41053
▁seek	-9.41061
▁products	-9.41082
ous	-9.41084
▁1,000	-9.41086
▁independence	-9.41135
▁costs	-9.41214
▁fear	-9.41221
▁student	-9.41227
▁animals	-9.41271
▁complete	-9.41293
▁prisoners	-9.41294
▁ex	-9.41502
▁thailand	-9.41594
▁chung	-9.416
▁arms	-9.4169
▁ii	-9.41848
▁buy	-9.42104
▁tibet	-9.4216
▁jump	-9.42179
▁baby	-9.42184
▁serve	-9.42221
ive	-9.42354
▁cho	-9.42398
▁buildings	-9.4271
▁criticism	-9.42766
▁pacific	-9.42766
▁worldwide	-9.42768
co	-9.42776
▁written	-9.42777
▁someone	-9.4278
▁committed	-9.42839
▁31	-9.43034
▁offered	-9.43049
citing	-9.43093
▁beginning	-9.43358
▁mail	-9.43375
▁abbas	-9.43411
▁rejected	-9.4352
▁nominee	-9.43592
▁previously	-9.43595
▁leadership	-9.43961
▁independent	-9.44023
▁drop	-9.4418
▁contact	-9.44204
▁plant	-9.44381
▁constitution	-9.44399
▁raise	-9.44401
▁suspects	-9.44472
▁conduct	-9.4454
▁custody	-9.44553
▁account	-9.44756
▁reactor	-9.44798
▁shortly	-9.44842
less	-9.44867
▁rock	-9.44928
▁defend	-9.45084
▁impact	-9.45153
▁rather	-9.45154
▁herald	-9.45155
▁class	-9.45271
▁insurgents	-9.4537
▁reform	-9.45374
▁ruled	-9.45396
▁earthquake	-9.45408
▁explosion	-9.45413
▁seats	-9.45616
▁vehicles	-9.45621
ia	-9.45622
▁ties	-9.4565
▁actually	-9.45796
▁proposed	-9.4583
▁allies	-9.45905
▁tests	-9.45916
▁career	-9.45996
▁rules	-9.46019
▁satellite	-9.46024
▁giant	-9.46026
▁paper	-9.46038
▁remained	-9.46152
▁includes	-9.46251
▁attacked	-9.46278
▁28	-9.46308
▁seem	-9.46323
▁ran	-9.46331
▁occurred	-9.46369
▁corruption	-9.4637
▁combat	-9.46392
▁300	-9.46393
▁store	-9.46486
▁neighbor	-9.46646
▁prize	-9.46654
▁civilian	-9.46658
▁zone	-9.46677
▁environment	-9.46722
▁georgia	-9.46809
▁reduce	-9.46909
▁everyone	-9.46986
▁figure	-9.47107
▁deep	-9.47365
▁moving	-9.476
▁microsoft	-9.47601
▁regional	-9.47769
▁signs	-9.47855
▁contract	-9.47873
▁linked	-9.47923
▁olympics	-9.47956
▁boost	-9.48166
▁traffic	-9.48219
▁wrote	-9.48222
▁museum	-9.485
▁effect	-9.48514
▁science	-9.48516
▁dae	-9.48554
▁documents	-9.48732
▁conducted	-9.48825
▁spread	-9.48843
▁climate	-9.48846
▁fifth	-9.48847
▁2001	-9.48877
▁shares	-9.48923
▁elected	-9.4903
▁actor	-9.49168
▁figures	-9.49183
▁bak	-9.49225
▁immediate	-9.49312
▁starting	-9.49411
▁reason	-9.49453
▁republic	-9.49459
▁built	-9.49475
▁myung	-9.49495
▁brother	-9.4979
▁events	-9.49807
▁bit	-9.49971
▁queen	-9.50108
▁anyone	-9.50116
▁votes	-9.50198
▁brain	-9.50423
▁domestic	-9.50745
▁spanish	-9.50746
▁james	-9.50749
▁surgery	-9.50752
▁carry	-9.50771
▁sale	-9.50866
▁track	-9.50907
ra	-9.50913
▁regime	-9.51047
6	-9.51206
▁player	-9.51207
▁showing	-9.51239
▁bombing	-9.51277
▁dur	-9.51618
▁commercial	-9.51701
▁finance	-9.51715
x	-9.51778
re	-9.51787
▁marine	-9.51903
▁itself	-9.52031
▁guilty	-9.52044
▁cash	-9.52068
▁marriage	-9.5237
▁girls	-9.52471
▁word	-9.52489
▁prompt	-9.52513
▁spoke	-9.52531
ri	-9.52849
▁mosque	-9.53015
▁criminal	-9.53036
▁animal	-9.53041
▁corp	-9.53057
▁hurt	-9.53172
▁tourists	-9.53218
coming	-9.53224
▁created	-9.53239
▁rates	-9.53428
▁abe	-9.535
▁bombs	-9.53675
tp	-9.53881
▁faces	-9.53959
▁mobile	-9.54007
▁fears	-9.54408
▁bridge	-9.54418
▁colombia	-9.54484
▁peaceful	-9.54506
▁suggested	-9.54548
▁policies	-9.54654
▁operating	-9.54655
▁self	-9.54657
▁shuttle	-9.54665
▁flights	-9.54833
▁dispute	-9.54876
▁gates	-9.54941
▁owner	-9.55224
▁addition	-9.55261
▁telephone	-9.55321
▁provided	-9.55389
▁filed	-9.55407
▁ben	-9.55554
▁concerned	-9.556
▁panel	-9.55694
▁terms	-9.55782
▁apple	-9.55992
▁supply	-9.55992
▁necessary	-9.56006
▁id	-9.56072
▁compared	-9.56105
▁moment	-9.56386
▁patients	-9.56479
ce	-9.56491
▁complex	-9.56636
▁lebanese	-9.56668
▁lebanon	-9.56668
▁correspondent	-9.56668
▁powerful	-9.56694
▁winter	-9.56715
▁shown	-9.56756
cat	-9.56797
▁sentence	-9.56919
▁damaged	-9.56946
▁mostly	-9.56992
▁speed	-9.57106
▁dangerous	-9.57353
▁stopped	-9.57354
▁jong	-9.57371
▁protection	-9.57376
▁promised	-9.57432
▁confirm	-9.57444
ian	-9.57592
ity	-9.57631
▁words	-9.5766
▁football	-9.57709
▁militant	-9.57772
ation	-9.57814
▁involv	-9.58003
▁voting	-9.58033
▁bbc	-9.58033
▁ilbo	-9.58036
▁understand	-9.58092
▁terrorists	-9.58174
9	-9.58265
▁kids	-9.58293
▁suspended	-9.5832
▁works	-9.58344
▁el	-9.5838
▁conflict	-9.58454
▁suggest	-9.58492
▁names	-9.58593
▁affected	-9.58613
▁appeal	-9.58622
▁cover	-9.58655
▁hollywood	-9.58722
▁shin	-9.5894
▁wearing	-9.59044
▁bar	-9.59075
▁village	-9.59132
▁failure	-9.59146
▁performance	-9.59156
▁remaining	-9.59257
▁amount	-9.59269
▁stocks	-9.59299
▁pick	-9.5932
w	-9.5939
▁regard	-9.59409
▁fbi	-9.59422
▁sought	-9.5946
▁affect	-9.59522
▁drugs	-9.59777
▁truck	-9.59848
▁certain	-9.59947
▁van	-9.60037
▁felt	-9.60116
▁territory	-9.60116
▁opportunity	-9.60116
▁confidence	-9.60118
▁navy	-9.6016
▁vow	-9.60169
▁palestinians	-9.60297
▁ongoing	-9.6031
la	-9.60336
▁designed	-9.6039
▁port	-9.60581
▁rocket	-9.60581
▁resume	-9.60663
▁2000	-9.60697
▁voted	-9.60713
▁overseas	-9.6082
▁joined	-9.60895
▁gathered	-9.60989
▁referr	-9.61062
▁activists	-9.61068
▁takes	-9.61087
▁blam	-9.61197
▁laws	-9.61201
▁separate	-9.61207
▁mountain	-9.6127
▁opinion	-9.6128
▁wide	-9.61365
▁beach	-9.615
▁lines	-9.6152
▁cooperation	-9.61531
▁caught	-9.61532
▁journalists	-9.61538
▁ht	-9.61577
▁seized	-9.61592
▁pull	-9.61743
▁drive	-9.61833
▁experience	-9.61854
▁holiday	-9.62003
▁check	-9.62137
▁li	-9.62209
▁brazil	-9.62231
▁wrong	-9.62238
▁fresh	-9.62241
▁crude	-9.62244
▁possibility	-9.62244
▁et	-9.62288
▁placed	-9.62353
▁cold	-9.62375
▁maintain	-9.62377
▁flu	-9.62392
▁command	-9.62433
▁direct	-9.62472
▁ask	-9.6251
▁quake	-9.62708
▁initial	-9.62801
▁premier	-9.62934
▁olmert	-9.62963
▁investigating	-9.62964
▁anniversary	-9.62964
▁peter	-9.62989
▁headquarters	-9.63015
▁images	-9.63032
▁present	-9.6306
▁constitutional	-9.63146
ment	-9.63174
▁defeat	-9.63179
▁considering	-9.63181
▁fine	-9.6333
▁receive	-9.63354
▁dozen	-9.63467
▁ways	-9.63505
4	-9.63545
▁review	-9.63593
▁coach	-9.63658
▁below	-9.63737
▁auto	-9.6374
▁critics	-9.63866
▁customers	-9.63923
,000	-9.64169
▁material	-9.642
▁rich	-9.64204
▁violent	-9.6425
▁double	-9.64279
▁pulled	-9.64282
▁hurricane	-9.64418
▁christmas	-9.64418
▁assistant	-9.64419
▁controversial	-9.64422
▁throughout	-9.64442
▁sentenced	-9.64586
▁type	-9.64714
▁package	-9.6493
▁language	-9.64932
▁reuters	-9.65153
▁yahoo	-9.65153
▁laden	-9.65154
▁art	-9.65166
▁surrounding	-9.65197
▁disaster	-9.65673
▁winner	-9.65694
▁madrid	-9.65894
▁blair	-9.65894
▁famous	-9.65912
▁choice	-9.65941
▁influence	-9.65997
▁ministers	-9.66052
▁directly	-9.66062
▁goes	-9.66071
▁secret	-9.66238
▁blame	-9.66252
▁severe	-9.66329
▁meetings	-9.66336
▁soldier	-9.66449
▁arab	-9.66484
▁collapse	-9.66484
▁facilities	-9.6664
▁christopher	-9.6664
▁gone	-9.66719
▁declined	-9.66742
▁produced	-9.66775
▁appears	-9.6712
▁richard	-9.67158
▁bear	-9.6717
▁barrel	-9.67199
asp	-9.6721
▁speak	-9.67246
▁developing	-9.67256
ro	-9.67258
▁sunni	-9.67376
▁extreme	-9.67392
▁straight	-9.67392
▁kidnapped	-9.67392
▁alone	-9.67403
▁burma	-9.67426
▁true	-9.67477
▁fighters	-9.67721
lew	-9.67768
▁behavior	-9.67937
▁deadline	-9.67945
▁scandal	-9.67954
▁honor	-9.68115
▁twice	-9.6815
joins	-9.68323
▁meters	-9.68586
▁unit	-9.68636
▁magazine	-9.6871
▁victim	-9.68732
▁positive	-9.68744
▁row	-9.68766
▁formal	-9.68826
▁champions	-9.6884
▁winds	-9.68912
▁overall	-9.68939
▁tech	-9.68954
▁selling	-9.69034
▁develop	-9.69163
▁32	-9.69242
▁challenge	-9.69254
▁waters	-9.69358
ist	-9.69389
▁l	-9.69422
▁decade	-9.69507
▁significant	-9.69518
▁broadcast	-9.69562
▁lone	-9.69614
▁happy	-9.69676
▁activity	-9.69682
▁mugabe	-9.69682
▁festival	-9.69683
▁resignation	-9.69687
▁species	-9.69695
▁sudan	-9.69697
▁witnesses	-9.69703
▁pass	-9.70116
▁draw	-9.70275
▁rebel	-9.70305
▁traditional	-9.70317
▁blow	-9.70326
▁flow	-9.70399
▁super	-9.70421
▁assault	-9.70446
▁software	-9.70457
▁recession	-9.7046
▁canada	-9.70477
▁demands	-9.70786
▁attend	-9.70801
▁le	-9.70864
▁song	-9.70919
▁helicopter	-9.71072
▁northeast	-9.71215
▁politics	-9.71239
▁multi	-9.71241
▁married	-9.71252
▁2009	-9.71253
▁require	-9.71271
▁usually	-9.71301
▁bay	-9.71321
▁hu	-9.714
▁missiles	-9.7148
▁ending	-9.71515
▁bombings	-9.71629
▁measure	-9.7172
▁prepared	-9.71739
▁talking	-9.7175
▁williams	-9.71817
▁ocean	-9.71835
▁headed	-9.72008
▁singapore	-9.72008
▁hussein	-9.72026
▁palace	-9.72026
▁pentagon	-9.72026
▁wound	-9.72078
▁mean	-9.72088
▁imposed	-9.72215
▁finish	-9.72237
▁dog	-9.72413
▁demanding	-9.72501
▁card	-9.72525
▁airline	-9.72613
▁birth	-9.72634
▁doctor	-9.72648
▁proposal	-9.72666
▁pound	-9.72683
▁jet	-9.72722
▁door	-9.7279
▁zimbabwe	-9.72802
▁targeted	-9.72838
▁cast	-9.72878
▁seed	-9.73131
▁wild	-9.73188
▁consumers	-9.73331
▁style	-9.73451
▁determine	-9.73474
▁prosecutor	-9.73476
▁male	-9.73493
▁transport	-9.73613
▁smoke	-9.73615
▁gordon	-9.7362
▁knew	-9.7362
▁francisco	-9.73621
ized	-9.73647
▁hair	-9.7365
▁losses	-9.73663
▁setting	-9.73667
▁gay	-9.73673
▁pope	-9.73719
▁foreigners	-9.73767
▁records	-9.73787
▁wa	-9.73941
▁actions	-9.74038
▁improve	-9.74263
▁democrat	-9.74271
▁steve	-9.74275
▁hostage	-9.74296
▁37	-9.7432
▁secure	-9.74324
▁agencies	-9.74426
▁controlled	-9.74446
▁400	-9.74447
▁arm	-9.74491
▁particularly	-9.74522
▁screen	-9.74624
▁required	-9.74676
▁systems	-9.74715
▁author	-9.74841
▁sports	-9.74923
ton	-9.74927
▁waiting	-9.74931
▁syria	-9.74938
▁lived	-9.74957
▁beyond	-9.75239
▁presence	-9.75239
▁thai	-9.75241
▁model	-9.75269
▁contain	-9.75351
▁hot	-9.75442
▁william	-9.7546
tan	-9.75473
▁abuse	-9.75514
it	-9.7558
▁transfer	-9.75597
▁j	-9.75625
eastern	-9.75741
▁abu	-9.75801
▁increasing	-9.75896
▁exile	-9.75904
▁resort	-9.75906
▁display	-9.75913
ally	-9.7592
▁fair	-9.76035
▁condoleez	-9.76059
▁declaration	-9.76059
▁draft	-9.76059
▁relief	-9.7606
▁maliki	-9.76061
▁forecast	-9.7609
▁block	-9.76208
▁airlines	-9.76217
▁du	-9.7627
▁150	-9.7628
▁computers	-9.76289
▁trust	-9.76331
▁tough	-9.76391
▁ali	-9.76404
▁competition	-9.76729
▁spark	-9.76737
▁resolve	-9.76768
▁losing	-9.76774
▁treasury	-9.76885
▁crackdown	-9.76885
▁owned	-9.76901
▁serving	-9.76943
▁served	-9.77106
▁establish	-9.77127
son	-9.77178
▁fully	-9.77232
▁forest	-9.77282
▁sense	-9.77303
▁pictures	-9.77357
▁crimes	-9.77434
▁welcome	-9.7747
▁developed	-9.77523
▁christian	-9.77552
▁adviser	-9.776
▁deadly	-9.77617
▁singer	-9.77642
▁ball	-9.77651
▁egypt	-9.77706
▁soviet	-9.77719
▁various	-9.77719
▁dialogue	-9.77719
▁supplies	-9.77719
▁actress	-9.77725
▁hall	-9.77767
ch	-9.77768
▁scale	-9.77769
▁withdrawal	-9.77771
▁stem	-9.77798
▁cells	-9.77864
▁suffering	-9.77965
▁traveling	-9.78037
▁politicians	-9.78132
▁walk	-9.78142
▁zoo	-9.78166
▁tony	-9.78178
▁stars	-9.78292
▁product	-9.78438
▁neighborhood	-9.78446
▁euro	-9.78457
▁approval	-9.78559
▁demonstrators	-9.78559
▁sharif	-9.7856
▁kosovo	-9.7856
▁1999	-9.78562
▁happen	-9.78573
▁ho	-9.78675
▁god	-9.78786
▁lift	-9.78844
▁isn	-9.78854
▁republicans	-9.78859
▁parliamentar	-9.79108
▁extra	-9.79274
▁floor	-9.79287
▁apartment	-9.793
▁analyst	-9.7931
▁tibetan	-9.79313
▁camera	-9.79339
is	-9.79356
▁charles	-9.79401
▁quality	-9.79406
▁religious	-9.79406
▁kyi	-9.79418
▁bomber	-9.79478
▁sometimes	-9.7959
▁determined	-9.79614
▁places	-9.79654
▁removed	-9.79698
▁finding	-9.79745
ness	-9.79861
▁net	-9.79885
▁withdraw	-9.80058
▁struggle	-9.80133
▁prove	-9.80199
▁sub	-9.80218
▁boycott	-9.80261
▁torch	-9.80262
vez	-9.80272
▁howard	-9.80279
▁fled	-9.80366
▁widely	-9.80458
▁count	-9.80475
▁visited	-9.80644
▁follow	-9.8068
▁whole	-9.80766
▁mine	-9.80862
▁save	-9.80967
▁freedom	-9.81027
ba	-9.81036
▁image	-9.81038
▁historic	-9.81088
▁academy	-9.81123
▁beckham	-9.81123
▁facing	-9.81123
▁kabul	-9.81123
▁property	-9.81125
▁probe	-9.8117
▁changed	-9.81179
▁taxes	-9.81193
▁standing	-9.81225
▁caus	-9.81279
▁delay	-9.81326
▁questioned	-9.81374
▁picture	-9.81499
▁demanded	-9.81545
▁users	-9.81679
▁produce	-9.8172
▁route	-9.81757
▁original	-9.81831
▁partner	-9.81933
▁journal	-9.81981
▁encourage	-9.81993
▁planet	-9.82043
▁pledg	-9.82134
▁normal	-9.82255
▁houses	-9.82334
▁eye	-9.82377
▁becoming	-9.82484
▁tens	-9.82513
▁lawyers	-9.8278
▁rape	-9.82801
ful	-9.8281
▁continues	-9.82863
▁fraud	-9.8287
▁1998	-9.82871
▁diana	-9.82872
▁1980	-9.82875
▁located	-9.82893
▁weight	-9.82908
▁provid	-9.82927
▁businesses	-9.83005
v	-9.83062
▁wing	-9.83074
▁las	-9.83449
as	-9.83586
▁picked	-9.83625
▁division	-9.83676
▁kurdish	-9.83755
▁michigan	-9.83755
▁struggling	-9.83755
▁tehran	-9.83755
▁saddam	-9.83755
▁1997	-9.83757
▁hear	-9.83782
▁increasingly	-9.83931
▁collapsed	-9.8394
▁items	-9.83947
▁accepted	-9.8395
▁wave	-9.84191
▁hop	-9.84243
▁approach	-9.84285
▁demonstrations	-9.84323
▁estimates	-9.84384
▁finally	-9.84418
▁arabia	-9.84494
▁spot	-9.84507
▁38	-9.8452
▁culture	-9.84575
▁replace	-9.84575
▁boat	-9.8462
▁pose	-9.8463
▁highway	-9.84631
▁thaksin	-9.84648
▁virtual	-9.84648
▁housing	-9.84648
▁kennedy	-9.84648
▁1990	-9.84652
▁transportation	-9.84655
▁cuts	-9.8468
▁stake	-9.84697
▁alive	-9.84752
▁sleep	-9.84796
▁pounds	-9.84819
▁organizations	-9.84856
▁raid	-9.84916
▁gun	-9.84959
▁stone	-9.8496
▁tensions	-9.85084
▁explosives	-9.85169
▁discussions	-9.85198
▁highly	-9.85304
▁value	-9.85341
▁alert	-9.85474
▁channel	-9.85493
▁device	-9.85504
▁uranium	-9.85549
▁heavily	-9.85557
▁captured	-9.8567
▁fed	-9.85686
▁lose	-9.85745
▁initially	-9.85754
suu	-9.85909
▁teams	-9.85925
▁rush	-9.8595
▁indicated	-9.85964
▁rank	-9.86029
▁42	-9.86071
▁ra	-9.86143
▁pain	-9.86316
▁kidnapping	-9.86403
▁appearance	-9.8642
▁solution	-9.86422
▁southeast	-9.86424
▁page	-9.86429
▁alcohol	-9.86436
▁virus	-9.86438
▁penalty	-9.86458
▁assistance	-9.86459
▁tourism	-9.86467
▁stood	-9.86468
▁minor	-9.86475
▁islam	-9.86564
▁banned	-9.86569
corporate	-9.86631
▁sky	-9.86707
▁broken	-9.86754
▁mile	-9.86907
▁mind	-9.87031
▁refugees	-9.87165
▁attempted	-9.87181
▁reserve	-9.87181
▁joong	-9.8725
▁cuba	-9.87252
▁attempts	-9.87296
▁telling	-9.87311
▁counter	-9.87329
▁fellow	-9.87347
▁asking	-9.87373
▁possibly	-9.87375
▁junta	-9.87376
▁speculation	-9.87382
▁foundation	-9.87388
ribal	-9.87393
▁exploded	-9.87394
▁sadr	-9.87447
▁scored	-9.87448
▁believes	-9.87504
▁martin	-9.87531
ca	-9.87543
▁decide	-9.87852
▁jose	-9.8787
▁flying	-9.87944
▁keeping	-9.88062
▁75	-9.88121
▁faced	-9.8813
▁kenya	-9.8815
▁spring	-9.88272
▁arizona	-9.88301
▁currency	-9.88301
▁islamabad	-9.88301
▁nicola	-9.88301
▁stadium	-9.88301
▁vegas	-9.88304
▁clashes	-9.88315
▁injury	-9.88352
▁governing	-9.88369
▁photos	-9.88411
▁respect	-9.88596
▁spend	-9.88609
ter	-9.88658
▁threatening	-9.887
▁warming	-9.88782
▁seems	-9.88819
ish	-9.88883
▁cruise	-9.8909
▁band	-9.89232
▁remote	-9.89236
▁journalist	-9.89242
▁personnel	-9.89248
▁greater	-9.89464
▁wind	-9.89511
▁completed	-9.89595
▁troop	-9.89601
▁leg	-9.89725
▁convention	-9.89766
▁heads	-9.89971
▁apparent	-9.90016
▁fast	-9.901
▁budget	-9.90142
▁ships	-9.90157
▁jerusalem	-9.90179
▁massachusetts	-9.90179
▁ceo	-9.90188
▁ensure	-9.9019
▁dna	-9.90202
▁la	-9.90207
▁holds	-9.90328
▁opposed	-9.9042
▁touch	-9.90513
ty	-9.90707
▁51	-9.9084
▁phones	-9.9088
▁finished	-9.90886
▁income	-9.91121
▁connection	-9.91121
▁ethnic	-9.91125
cient	-9.91129
▁crucial	-9.91131
▁trillion	-9.91131
▁equipment	-9.91132
▁nationwide	-9.91133
▁negotiator	-9.91144
▁spears	-9.91191
▁handed	-9.91206
▁commissioner	-9.91354
▁representatives	-9.9177
▁delayed	-9.91776
▁tons	-9.91876
▁36	-9.92045
▁reaction	-9.92089
▁angry	-9.92095
▁wake	-9.92097
▁iowa	-9.92105
▁gov	-9.9212
▁jung	-9.92124
▁driver	-9.92151
▁hoped	-9.92179
ine	-9.92302
▁ally	-9.92329
▁answer	-9.92483
▁projects	-9.92485
▁table	-9.92643
▁goals	-9.9266
▁visiting	-9.92786
▁bailout	-9.93065
▁fatah	-9.93066
▁involvement	-9.93066
▁footage	-9.93071
▁version	-9.93071
▁han	-9.93082
▁downtown	-9.93084
▁eventually	-9.931
▁evacuated	-9.93147
▁tonight	-9.93168
▁heat	-9.93356
na	-9.9353
▁inc	-9.93556
▁sound	-9.93568
▁executives	-9.93729
▁mo	-9.93797
▁entire	-9.93879
▁55	-9.93986
▁mahmoud	-9.94044
▁samsung	-9.94044
▁google	-9.94047
▁carbon	-9.9405
▁estate	-9.94053
▁jury	-9.94057
▁delegation	-9.94059
▁discovery	-9.94077
▁relative	-9.94082
▁lawmaker	-9.94091
▁buying	-9.94112
▁da	-9.94131
▁dismissed	-9.94174
▁intended	-9.94193
▁books	-9.942
▁closer	-9.94208
▁cia	-9.94209
▁dogs	-9.94253
▁smaller	-9.9429
▁supporting	-9.94307
▁box	-9.94351
▁crashed	-9.94356
▁films	-9.94415
▁treated	-9.94484
▁tape	-9.94506
▁ma	-9.94616
▁announce	-9.94872
▁surprise	-9.94893
▁surge	-9.94906
▁modern	-9.94939
▁facility	-9.95034
▁invasion	-9.95034
▁karzai	-9.95034
▁magnitude	-9.95034
▁studies	-9.95035
▁dutch	-9.95036
▁cbs	-9.95037
▁nevada	-9.95038
▁pair	-9.95042
▁orbit	-9.95053
▁promote	-9.95066
▁mike	-9.951
▁piece	-9.9511
▁santa	-9.95161
▁53	-9.95259
▁seriously	-9.95479
▁windows	-9.95613
▁pledge	-9.95745
▁active	-9.95915
▁detention	-9.96034
▁fashion	-9.96034
▁perhaps	-9.96034
▁favor	-9.96051
▁tight	-9.96056
▁maybe	-9.96057
▁nobel	-9.96061
▁simpson	-9.96061
▁audience	-9.96072
▁tournament	-9.96074
▁concert	-9.96081
▁oscar	-9.96082
▁express	-9.96196
▁canceled	-9.9622
▁brief	-9.9625
▁doubt	-9.96257
▁transition	-9.96273
▁condemned	-9.96311
▁th	-9.96312
▁cents	-9.96347
▁fish	-9.96462
▁48	-9.96529
▁reasons	-9.96539
▁threats	-9.96557
atomic	-9.96667
▁provinc	-9.96909
ought	-9.96952
▁goods	-9.96974
▁abroad	-9.97044
▁humanitarian	-9.97044
▁memorial	-9.97044
▁offensive	-9.97044
▁assassination	-9.97045
▁relay	-9.97069
▁content	-9.97086
▁meant	-9.97116
led	-9.97129
▁grant	-9.9714
▁speaker	-9.97167
▁completely	-9.9733
ling	-9.97392
▁indicate	-9.97651
▁lay	-9.97658
▁offices	-9.97782
▁walking	-9.97804
▁fly	-9.97873
▁33	-9.9795
▁sharp	-9.98034
▁freed	-9.98042
▁identify	-9.98065
▁insurance	-9.98065
▁sheriff	-9.98065
▁status	-9.98065
▁milan	-9.98069
▁catch	-9.98107
▁specific	-9.98142
▁treaty	-9.98152
▁2,000	-9.98176
▁ring	-9.98183
▁yes	-9.98244
▁travelers	-9.98252
▁lake	-9.98275
▁looks	-9.98472
▁watched	-9.98529
▁diplomats	-9.98691
at	-9.98698
▁alaska	-9.98902
▁relatives	-9.99057
▁movies	-9.99078
▁advantage	-9.99096
▁presidency	-9.99096
▁strategy	-9.99096
▁dubai	-9.99096
▁babies	-9.99097
▁putting	-9.99119
▁haven	-9.99215
▁gang	-9.99323
▁farmers	-9.99342
▁colombian	-9.99362
time	-9.99533
▁upon	-9.99567
▁extended	-9.99634
▁reporter	-9.99753
▁stations	-9.99772
▁killings	-9.99788
▁forum	-9.99799
▁44	-9.998
▁walked	-9.99816
ie	-9.99897
▁exports	-9.99973
▁regular	-9.99979
▁plot	-10.0011
ne	-10.0012
▁nor	-10.0012
▁daniel	-10.0013
▁berlin	-10.0014
▁manchester	-10.0014
▁casualties	-10.0014
▁gunmen	-10.0014
▁nbc	-10.0016
▁danger	-10.0021
▁choose	-10.0023
▁champion	-10.0024
▁organizers	-10.0028
▁100,000	-10.0031
▁roads	-10.0037
▁seeing	-10.0037
▁miss	-10.0041
▁heading	-10.0044
▁aboard	-10.0053
0	-10.0056
▁limited	-10.0064
▁shift	-10.0075
▁aide	-10.0085
▁ranking	-10.0095
▁represent	-10.0102
▁coup	-10.0111
▁jackson	-10.0119
▁kingdom	-10.0119
▁cheney	-10.0119
▁lady	-10.0119
▁cited	-10.012
▁elector	-10.0123
▁pilot	-10.0131
▁appointed	-10.0133
way	-10.0137
▁attract	-10.0159
▁watching	-10.0179
▁weekly	-10.0184
▁strongly	-10.0189
▁ang	-10.0189
▁founder	-10.0189
rew	-10.0193
▁clearly	-10.0195
▁venezuela	-10.0207
▁covered	-10.0208
▁landing	-10.0208
▁resign	-10.0209
▁dark	-10.0222
▁auction	-10.0225
▁anonymity	-10.0225
▁smoking	-10.0225
▁sydney	-10.0225
▁unemployment	-10.0225
▁diego	-10.0226
▁princess	-10.0228
▁recovery	-10.0231
▁gets	-10.0237
▁commitment	-10.0237
▁standard	-10.0237
▁3,000	-10.0237
▁weapon	-10.0238
▁10,000	-10.0244
▁sister	-10.0247
▁officially	-10.025
ma	-10.0255
▁survivors	-10.0255
▁maker	-10.0274
▁toys	-10.028
▁iraqis	-10.0295
▁worse	-10.0297
▁guards	-10.0309
ur	-10.0316
▁standards	-10.0321
▁52	-10.0328
▁trouble	-10.033
▁mohammed	-10.0333
▁simple	-10.0333
▁entertainment	-10.0333
▁nadal	-10.0334
▁bought	-10.0334
▁hilton	-10.0335
▁johnson	-10.0337
▁example	-10.0343
▁visa	-10.0344
▁electronic	-10.0345
▁agent	-10.0347
▁prepar	-10.0349
ional	-10.035
▁revealed	-10.0365
raising	-10.0385
cal	-10.0411
▁benefits	-10.0412
ha	-10.0427
▁muslims	-10.0431
▁dis	-10.0433
▁tomorrow	-10.0442
▁widespread	-10.0442
▁buried	-10.0442
▁easy	-10.0442
▁destruction	-10.0442
▁else	-10.0446
▁color	-10.0455
▁clean	-10.049
j	-10.0493
▁dong	-10.05
li	-10.05
▁halt	-10.0503
▁contest	-10.0507
ta	-10.0519
▁rome	-10.0521
▁engag	-10.0521
▁throw	-10.0531
▁internal	-10.0534
ier	-10.0537
▁respond	-10.0546
▁agree	-10.0549
▁negative	-10.0552
▁potter	-10.0552
▁delta	-10.0552
▁cutting	-10.0553
▁monks	-10.0558
▁task	-10.0564
▁catholic	-10.0566
▁favorite	-10.0566
▁passenger	-10.0567
▁insisted	-10.0569
▁newspapers	-10.057
▁eyes	-10.0576
▁43	-10.0595
▁governments	-10.0599
▁ten	-10.06
▁witness	-10.0601
▁mount	-10.0612
nless	-10.0621
▁suit	-10.0632
▁link	-10.0636
▁quick	-10.0641
▁physical	-10.0646
▁awards	-10.0648
▁vietnam	-10.0662
▁simply	-10.0663
▁soccer	-10.0663
▁debut	-10.0663
▁agenda	-10.0663
▁tested	-10.0663
▁canadian	-10.0663
▁renew	-10.0663
▁electricity	-10.0663
▁mention	-10.0663
▁creat	-10.0669
▁continuing	-10.067
▁mr	-10.0672
▁purchase	-10.0678
▁medicine	-10.0679
▁resources	-10.0679
▁acknowledged	-10.0686
▁wait	-10.0693
▁tom	-10.0695
rd	-10.0704
nd	-10.0705
▁patrol	-10.071
▁stress	-10.0714
▁extend	-10.0717
▁export	-10.0725
▁tear	-10.0733
rs	-10.0738
▁die	-10.0738
et	-10.0738
▁perfect	-10.0759
▁malaysia	-10.076
▁era	-10.0763
ant	-10.0764
▁basic	-10.0775
▁jersey	-10.0775
▁thomas	-10.0775
▁ukraine	-10.0775
▁begun	-10.0775
▁unclear	-10.0775
▁apology	-10.0776
▁organized	-10.0778
▁percentage	-10.0783
▁trapped	-10.0792
▁generation	-10.0796
▁drinking	-10.0807
▁koreas	-10.0812
▁none	-10.0813
▁triggered	-10.0816
▁km	-10.0817
▁rooms	-10.0825
il	-10.0827
▁loans	-10.0836
▁landed	-10.0856
▁communications	-10.0856
▁investigate	-10.0873
▁judges	-10.0878
▁tank	-10.0882
▁chelsea	-10.0889
▁liverpool	-10.0889
▁plus	-10.0889
▁valley	-10.0889
▁overnight	-10.0889
▁cultural	-10.089
▁2010	-10.089
▁decline	-10.0891
▁restrictions	-10.09
▁via	-10.0907
▁dream	-10.0908
▁ba	-10.0911
▁certainly	-10.0915
▁returning	-10.094
▁learned	-10.0945
ak	-10.0951
▁trail	-10.0972
▁attended	-10.0974
▁birds	-10.0976
▁bo	-10.0987
▁en	-10.0994
▁jo	-10.0994
ung	-10.1001
▁conspiracy	-10.1004
▁enemy	-10.1004
▁yongbyon	-10.1004
▁nature	-10.1004
▁basis	-10.1004
▁atlanta	-10.1005
▁46	-10.1009
▁lowest	-10.1011
▁indiana	-10.1016
▁document	-10.1024
▁tourist	-10.1027
▁debt	-10.1029
▁discussed	-10.1035
▁assets	-10.1036
▁burned	-10.1039
▁bureau	-10.1046
▁sit	-10.1052
▁grow	-10.1055
▁explain	-10.108
▁differences	-10.108
▁exist	-10.1081
▁targets	-10.1081
▁humans	-10.1085
▁offering	-10.1091
ad	-10.1092
▁calm	-10.1097
▁successful	-10.1105
▁marked	-10.1105
▁surface	-10.1105
▁legislation	-10.112
▁unusual	-10.112
▁closing	-10.112
▁standoff	-10.112
▁rescuers	-10.1121
▁exit	-10.1139
▁lawsuit	-10.114
▁deployed	-10.1141
▁subject	-10.1142
▁regulations	-10.1144
▁fewer	-10.1155
▁min	-10.1165
ina	-10.1202
▁700	-10.1213
▁sa	-10.1214
▁gains	-10.122
▁learn	-10.1235
▁bangkok	-10.1237
▁maryland	-10.1238
▁kang	-10.1239
▁digital	-10.1241
▁thank	-10.1242
▁khan	-10.1243
▁concluded	-10.1251
▁34	-10.1257
ural	-10.1258
▁acting	-10.1258
▁unveiled	-10.1259
▁vessel	-10.1261
▁ticket	-10.1261
▁driven	-10.1262
▁brand	-10.1264
▁provinces	-10.1264
ious	-10.1267
▁ill	-10.1279
▁filled	-10.129
▁planes	-10.1297
▁interests	-10.1298
▁reduced	-10.13
▁breaking	-10.1303
▁strip	-10.1319
▁lifted	-10.1319
▁leads	-10.1325
▁cat	-10.1332
▁powers	-10.1335
▁permanent	-10.134
▁knows	-10.135
▁herself	-10.1357
▁preliminar	-10.1357
▁bilateral	-10.1357
▁producing	-10.1357
▁federer	-10.1357
▁proud	-10.1357
▁shrine	-10.1358
▁abdullah	-10.1358
▁frozen	-10.1359
▁aides	-10.1361
▁homeland	-10.1361
▁slightly	-10.1362
▁na	-10.1364
▁advance	-10.1366
▁hole	-10.1366
▁repeated	-10.1368
▁liberal	-10.1374
ni	-10.1374
▁album	-10.1379
▁suburb	-10.1379
▁exercise	-10.138
▁location	-10.1381
di	-10.1403
▁questioning	-10.1403
ah	-10.142
▁teachers	-10.144
▁healthy	-10.1448
▁warm	-10.1458
▁ease	-10.1462
▁remove	-10.1468
▁chances	-10.1468
▁narrow	-10.1472
▁controversy	-10.1477
▁tsunami	-10.1477
▁yellow	-10.1477
▁fayed	-10.1477
▁edition	-10.1477
▁hwang	-10.1478
▁inflation	-10.1478
▁pace	-10.1479
▁invited	-10.1481
▁rivals	-10.1481
▁boats	-10.1484
▁edge	-10.1485
▁practice	-10.1487
▁ability	-10.1487
▁follows	-10.1489
▁reading	-10.1492
ory	-10.1494
ey	-10.1503
▁motor	-10.1504
▁entering	-10.1506
▁fate	-10.1507
▁guy	-10.1508
▁inspectors	-10.1509
▁edwards	-10.151
▁opponents	-10.1521
▁rail	-10.1528
▁climb	-10.1528
▁reaching	-10.1532
▁path	-10.1534
▁spy	-10.154
▁effects	-10.154
▁plants	-10.1551
▁nepal	-10.1566
▁strikes	-10.1566
▁limit	-10.1567
▁allows	-10.1569
▁runs	-10.1576
▁darfur	-10.1599
▁hezbollah	-10.1599
▁radical	-10.1599
▁miami	-10.1599
▁unification	-10.1599
▁palin	-10.16
▁solar	-10.1601
▁chrysler	-10.1602
▁tree	-10.1629
▁guns	-10.1629
▁focused	-10.1631
▁falling	-10.1639
▁suggests	-10.1645
azir	-10.1663
▁stores	-10.1667
▁islands	-10.1667
▁recall	-10.1691
▁presented	-10.1698
▁seconds	-10.172
▁strength	-10.1721
▁split	-10.1722
▁southwest	-10.1722
▁journey	-10.1722
▁campus	-10.1723
▁bottom	-10.1724
▁hospitalized	-10.1727
▁centers	-10.173
▁firefighters	-10.1732
▁bird	-10.1734
▁venezuelan	-10.1743
▁profile	-10.1748
▁arrival	-10.175
▁refugee	-10.1757
▁materials	-10.1759
▁col	-10.1783
▁pop	-10.182
▁sean	-10.1832
▁lama	-10.1846
▁convoy	-10.1847
▁pretty	-10.1847
▁yonhap	-10.1847
▁colorado	-10.1847
▁gulf	-10.1848
▁tiny	-10.1849
▁retired	-10.185
▁drew	-10.1851
▁fallen	-10.1852
▁emissions	-10.1859
▁promise	-10.1862
▁failing	-10.1866
▁cleric	-10.1876
▁outbreak	-10.1879
▁indonesian	-10.1884
▁reporting	-10.1887
▁rockets	-10.1891
▁boys	-10.1891
▁wen	-10.1893
▁flooding	-10.1896
▁formed	-10.1899
▁hospitals	-10.1914
da	-10.1924
▁options	-10.1928
▁41	-10.1967
▁supported	-10.1969
ng	-10.197
▁youtube	-10.1974
▁captain	-10.1974
▁shopping	-10.1974
▁deployment	-10.1974
dalai	-10.1974
▁macau	-10.1975
▁tropic	-10.1975
▁gunman	-10.1976
▁inches	-10.1978
▁mph	-10.1978
▁yang	-10.1984
▁lying	-10.1984
▁larger	-10.1989
▁findings	-10.1991
▁repeatedly	-10.1991
▁delivery	-10.2002
▁globe	-10.2006
▁sector	-10.2007
▁restaurant	-10.2007
▁expert	-10.2007
▁celebrate	-10.2007
▁predicted	-10.2013
▁zealand	-10.2021
▁wins	-10.2027
▁sony	-10.2028
▁truth	-10.2036
ul	-10.2038
▁65	-10.2038
▁neighbors	-10.2044
▁resigned	-10.2046
▁featur	-10.2068
▁47	-10.2069
▁trains	-10.2083
▁older	-10.2084
▁staying	-10.2087
▁osam	-10.2089
▁northwest	-10.2097
▁800	-10.2097
▁warnings	-10.2098
▁gasoline	-10.2102
▁hyundai	-10.2102
▁innocent	-10.2102
▁neither	-10.2102
▁inspire	-10.2102
▁immigration	-10.2102
▁girlfriend	-10.2102
▁requested	-10.2113
▁weak	-10.2119
▁professional	-10.2119
▁testing	-10.2123
▁drawn	-10.2127
▁tim	-10.2133
▁corner	-10.2135
▁label	-10.2136
▁gap	-10.2136
▁benefit	-10.2137
▁writing	-10.2137
▁temperatures	-10.2145
▁mars	-10.2174
▁ones	-10.2174
▁64	-10.2175
▁ko	-10.2178
▁treat	-10.2195
▁250	-10.2207
▁escape	-10.2216
▁banking	-10.2223
▁couples	-10.2232
▁iaea	-10.2232
▁vatican	-10.2232
▁vladimir	-10.2232
▁boston	-10.2232
▁drove	-10.2232
▁1994	-10.2232
▁stability	-10.2232
▁atmosphere	-10.2234
▁reality	-10.2235
▁scott	-10.2237
▁erupted	-10.2241
▁add	-10.2247
▁escaped	-10.2248
▁abc	-10.225
itting	-10.2253
▁accus	-10.2265
▁compound	-10.2266
▁aids	-10.2266
▁degree	-10.2268
▁patient	-10.227
▁changing	-10.2271
▁destroy	-10.2285
▁remember	-10.2306
▁offers	-10.2318
▁individuals	-10.2321
▁ideas	-10.2332
▁farm	-10.2345
▁electric	-10.2347
▁fires	-10.2352
▁grave	-10.2353
▁length	-10.2362
▁argentina	-10.2364
▁enforcement	-10.2364
▁sarah	-10.2364
▁grew	-10.2365
▁islamist	-10.2366
▁jailed	-10.2386
▁fill	-10.2392
▁earned	-10.2397
▁survived	-10.2398
▁younger	-10.2398
▁recovered	-10.2399
▁reflect	-10.24
▁astronaut	-10.2402
▁communication	-10.2402
▁friendly	-10.2405
▁producer	-10.2405
▁import	-10.2416
ka	-10.2421
▁funding	-10.2422
▁anger	-10.2462
▁roll	-10.2465
▁thanks	-10.2475
▁frank	-10.2483
no	-10.2485
▁wealth	-10.2486
▁drivers	-10.2495
▁madeleine	-10.2497
▁jesus	-10.2497
▁scotland	-10.2497
▁bigger	-10.2498
▁vast	-10.2498
▁pursu	-10.2499
▁atlantic	-10.2499
▁fox	-10.2501
ehud	-10.2503
▁shock	-10.2509
▁observers	-10.251
▁targeting	-10.2511
▁tied	-10.2519
▁estimate	-10.2522
▁holy	-10.2522
▁knee	-10.2534
▁wedding	-10.2537
▁flames	-10.2551
▁shar	-10.2551
▁signal	-10.2555
▁responded	-10.2568
▁accord	-10.257
▁adults	-10.2579
▁astronauts	-10.2593
▁restaurants	-10.2597
▁closely	-10.2627
▁1970	-10.2633
▁ford	-10.2649
▁expectations	-10.2651
▁pirates	-10.2658
▁managed	-10.2667
▁counterpart	-10.2673
▁reduction	-10.2673
ham	-10.2674
▁mate	-10.2674
▁teacher	-10.2675
▁runner	-10.2676
▁messages	-10.2682
▁publicly	-10.2698
▁gore	-10.2699
▁sixth	-10.2703
▁2.5	-10.2706
▁pack	-10.271
▁briefing	-10.2717
land	-10.2729
▁maxim	-10.2731
▁x	-10.2738
▁broadcasting	-10.2743
▁particular	-10.2753
▁disarmament	-10.2769
▁pregnant	-10.2769
▁plastic	-10.2769
▁delhi	-10.2769
bbed	-10.2775
▁beef	-10.278
▁matches	-10.278
▁introduced	-10.2785
▁license	-10.2795
▁helicopters	-10.2798
▁promot	-10.281
▁affiliate	-10.281
▁hundred	-10.2813
▁philippines	-10.2826
▁lights	-10.2833
▁artist	-10.2843
▁papers	-10.2846
▁reforms	-10.2848
▁suspend	-10.285
▁statements	-10.2856
▁established	-10.2866
▁fit	-10.2866
▁firms	-10.2867
▁orders	-10.2875
▁serbia	-10.2893
ism	-10.2899
▁alexander	-10.2908
▁barcelona	-10.2908
▁jordan	-10.2908
▁petraeus	-10.2908
▁memory	-10.2908
▁boeing	-10.2908
▁birthday	-10.2908
▁drama	-10.2908
▁duty	-10.2909
▁neck	-10.2909
▁palm	-10.2914
▁whatever	-10.2914
▁surrounded	-10.2916
▁divided	-10.2923
age	-10.293
▁unity	-10.2941
▁firing	-10.295
▁describe	-10.2951
▁suspicion	-10.2952
men	-10.2953
▁sort	-10.2953
▁individual	-10.2953
pped	-10.2954
▁ride	-10.2958
▁bond	-10.2965
▁gathering	-10.2986
▁accounts	-10.2989
▁strain	-10.299
ted	-10.2991
▁skin	-10.2994
▁blocked	-10.3007
▁54	-10.3013
▁shared	-10.3019
▁ch	-10.3026
▁contests	-10.3029
ts	-10.3037
▁regions	-10.3041
▁buddhist	-10.3049
▁elizabeth	-10.3049
▁shanghai	-10.3049
▁kevin	-10.3049
▁federation	-10.3049
▁routine	-10.3049
▁stories	-10.3049
▁punishment	-10.3049
▁brazilian	-10.3051
▁direction	-10.3053
▁beaten	-10.3054
io	-10.3054
▁uh	-10.3055
▁feeling	-10.3055
▁bound	-10.3057
▁views	-10.3057
▁bob	-10.3061
▁counts	-10.3063
▁di	-10.3064
▁gop	-10.3066
▁flag	-10.3067
▁positions	-10.3069
▁paying	-10.3069
▁troubled	-10.3069
▁stronger	-10.308
sa	-10.3083
▁adopted	-10.3094
▁representative	-10.3096
▁illegally	-10.3104
▁corps	-10.3106
▁wear	-10.3112
▁moderate	-10.3151
▁farc	-10.3163
▁participate	-10.3177
▁lt	-10.3183
▁civi	-10.319
▁abdul	-10.3191
▁ahmadinejad	-10.3192
▁arsenal	-10.3192
▁ghazni	-10.3192
▁hampshire	-10.3192
▁hawaii	-10.3192
▁rallies	-10.3192
▁wildlife	-10.3192
▁marks	-10.3196
▁veto	-10.3201
▁pa	-10.3204
▁infected	-10.3208
▁30,000	-10.3212
▁stepp	-10.3212
▁character	-10.3222
ga	-10.3223
▁challenges	-10.3226
▁registered	-10.3231
▁sponsor	-10.324
▁championship	-10.3241
▁difference	-10.3241
zo	-10.3242
▁villages	-10.3245
▁lab	-10.3265
▁note	-10.3272
▁beating	-10.3274
▁recorded	-10.3277
▁abandon	-10.3277
▁metal	-10.3299
▁trees	-10.3303
upper	-10.3332
▁survive	-10.3336
▁jakarta	-10.3337
▁reagan	-10.3337
▁watchdog	-10.3337
▁primaries	-10.3337
▁metropoli	-10.3337
▁strict	-10.3337
▁morgan	-10.3337
▁basra	-10.3337
▁enrichment	-10.3337
▁distance	-10.3337
▁2012	-10.3338
▁kerry	-10.3338
▁sensitive	-10.3339
▁successor	-10.3344
▁sharply	-10.336
▁expand	-10.3361
▁striker	-10.3363
▁hail	-10.3364
▁threaten	-10.3369
▁bloody	-10.337
▁colleagues	-10.3378
▁jan	-10.3379
lo	-10.338
ko	-10.3382
ley	-10.3383
▁burning	-10.3386
▁economist	-10.3388
▁scientist	-10.3389
▁monitoring	-10.3389
▁violation	-10.3389
▁highlight	-10.3389
▁engineers	-10.3401
▁cleared	-10.3418
▁enjoy	-10.3423
▁succeed	-10.3424
▁commit	-10.3427
ang	-10.3428
ti	-10.3433
wept	-10.3445
▁crowds	-10.3452
▁bell	-10.3455
▁somali	-10.3462
▁effective	-10.3469
▁noted	-10.3473
▁woo	-10.3475
ting	-10.3482
▁knock	-10.3483
▁text	-10.3483
▁squad	-10.3484
▁cease	-10.3484
▁capacity	-10.3484
▁disappointed	-10.3484
▁manhattan	-10.3484
▁scientific	-10.3484
▁televised	-10.3484
▁midnight	-10.3484
▁lohan	-10.3484
▁stance	-10.3485
▁patrick	-10.3486
▁expensive	-10.3486
▁comedy	-10.3486
▁fortune	-10.3489
▁unlikely	-10.3494
▁abducted	-10.3495
▁stalled	-10.3498
▁hunt	-10.3504
▁20,000	-10.3505
▁deeply	-10.3523
▁option	-10.3532
▁string	-10.3534
▁alternative	-10.3535
▁warrant	-10.3537
▁demonstration	-10.3538
ong	-10.354
▁eating	-10.3542
▁equal	-10.3545
▁sets	-10.3558
▁owners	-10.3561
▁stressed	-10.3561
▁floods	-10.3571
▁acts	-10.36
▁worker	-10.361
▁photo	-10.3615
▁understanding	-10.362
▁fun	-10.3624
▁knowledge	-10.3631
▁boss	-10.3631
▁1996	-10.3633
▁columbia	-10.3633
▁cyclone	-10.3633
▁dispatch	-10.3633
▁manufacturing	-10.3633
▁numerous	-10.3633
▁portugal	-10.3633
▁switch	-10.3633
▁chile	-10.3634
▁caucuses	-10.3634
▁everybody	-10.3634
▁egyptian	-10.3635
ov	-10.3637
▁capable	-10.3637
▁emerged	-10.3639
▁chosen	-10.3644
▁49	-10.3645
▁fame	-10.3654
▁begins	-10.3655
▁nominated	-10.3655
▁apologized	-10.3657
▁grown	-10.3658
▁bombers	-10.366
▁arrive	-10.367
▁sam	-10.3672
▁initiative	-10.3686
▁loved	-10.3687
▁mortgage	-10.3687
▁profit	-10.3687
▁clinic	-10.3687
▁packed	-10.3697
▁lock	-10.3709
▁1.5	-10.371
▁features	-10.3721
▁design	-10.3733
▁letters	-10.3751
▁meaning	-10.3752
▁causes	-10.3769
▁glass	-10.3781
▁comfort	-10.3783
▁coffee	-10.3784
▁funeral	-10.3784
▁jewish	-10.3784
▁pkk	-10.3784
▁surveillance	-10.3784
▁worried	-10.3784
▁intense	-10.3784
▁dinner	-10.3785
▁congo	-10.3785
▁native	-10.3785
▁harsh	-10.3785
▁bitter	-10.3786
▁fta	-10.3787
▁ronaldo	-10.3787
▁deny	-10.3788
▁600	-10.3788
▁detonated	-10.3789
▁circumstances	-10.3791
▁faster	-10.3793
▁factory	-10.3796
de	-10.3814
▁obtained	-10.382
▁oh	-10.3824
▁restore	-10.3827
▁engineering	-10.3828
▁hiv	-10.384
▁pump	-10.384
▁militia	-10.3842
▁machine	-10.3843
▁scores	-10.3859
▁cool	-10.3874
▁invest	-10.3876
▁boom	-10.3878
▁implement	-10.3878
▁stands	-10.3888
id	-10.3889
▁imports	-10.3894
▁airports	-10.3901
▁directed	-10.391
▁120	-10.3919
▁depend	-10.3938
▁commerce	-10.3938
▁kibaki	-10.3938
▁mexican	-10.3938
▁mississippi	-10.3938
▁multiple	-10.3938
▁henry	-10.3938
▁whaling	-10.3938
▁supposed	-10.3939
▁entry	-10.3939
▁crown	-10.394
▁southwestern	-10.3942
▁ages	-10.3943
▁dominated	-10.3949
▁spott	-10.3952
▁unions	-10.3957
▁prepare	-10.3971
ju	-10.3984
▁guests	-10.3987
▁waste	-10.3987
▁camps	-10.3994
▁sport	-10.3994
▁jim	-10.3994
▁rescued	-10.3996
▁mccann	-10.3998
▁diplomat	-10.3998
▁chemical	-10.3998
▁adult	-10.3999
▁theater	-10.3999
▁discussion	-10.4003
▁moves	-10.4004
ck	-10.4008
bo	-10.4008
by	-10.401
▁dealing	-10.4011
▁39	-10.4019
▁teen	-10.4034
▁desert	-10.4035
▁videos	-10.4043
▁bu	-10.4049
▁margin	-10.4061
▁dan	-10.4076
▁urban	-10.4094
▁blagojevich	-10.4095
▁breakthrough	-10.4095
▁debris	-10.4095
▁identity	-10.4095
▁62	-10.4095
▁1995	-10.4095
▁false	-10.4096
▁charity	-10.4096
▁castro	-10.4096
▁superdelegates	-10.4106
▁aware	-10.4106
▁gmt	-10.4106
▁rapidly	-10.4107
▁newly	-10.4108
▁musical	-10.4118
▁gul	-10.412
▁originally	-10.4124
▁accuse	-10.4126
▁joe	-10.4128
▁pc	-10.4128
▁58	-10.4129
▁steven	-10.4142
▁ends	-10.4142
▁replaced	-10.4147
▁citizen	-10.4158
▁section	-10.4158
▁leaves	-10.4163
▁talked	-10.4181
▁kick	-10.4199
▁willing	-10.4203
▁degrees	-10.4209
▁po	-10.4217
▁thinking	-10.4222
▁hotels	-10.423
▁technical	-10.4237
▁recognize	-10.4246
▁chun	-10.4246
▁pursue	-10.425
▁aren	-10.4252
▁disney	-10.4253
▁benedict	-10.4253
▁concrete	-10.4253
▁greece	-10.4253
▁mohamed	-10.4253
▁nasdaq	-10.4253
▁battling	-10.4253
▁gross	-10.4254
▁1950	-10.4254
▁occupation	-10.4254
▁bail	-10.4255
▁alex	-10.4256
▁agriculture	-10.426
▁devices	-10.4261
▁participants	-10.4265
▁exactly	-10.4265
▁partners	-10.4268
ny	-10.4282
▁tend	-10.4293
▁slow	-10.4301
▁factor	-10.4312
▁resident	-10.4314
▁collection	-10.4318
▁roman	-10.4318
▁shop	-10.4331
▁te	-10.4337
▁revolution	-10.4342
▁towns	-10.4343
▁con	-10.4343
▁shops	-10.4348
im	-10.4351
▁trigger	-10.4356
▁flood	-10.436
▁rep	-10.4367
▁hills	-10.4374
▁jon	-10.4375
▁conservation	-10.4397
▁divorce	-10.4399
▁wor	-10.4399
▁capture	-10.4403
▁confident	-10.441
▁faith	-10.4414
▁stephen	-10.4414
▁benchmark	-10.4415
▁depression	-10.4415
▁poverty	-10.4415
▁tobacco	-10.4415
▁verdict	-10.4415
▁apply	-10.4415
▁underground	-10.4415
▁fierce	-10.4415
▁unknown	-10.4415
▁feared	-10.4415
▁mainland	-10.4418
▁balance	-10.442
▁chad	-10.4428
▁chest	-10.443
▁complained	-10.4442
▁mary	-10.4442
▁normally	-10.4445
▁59	-10.4447
▁eat	-10.4452
▁yi	-10.4453
▁fan	-10.4459
▁del	-10.4462
▁welcom	-10.4463
▁schedule	-10.4464
▁pet	-10.4473
▁tradition	-10.4474
▁error	-10.4482
▁explosive	-10.4483
▁window	-10.4483
▁revolutionar	-10.4488
▁tall	-10.4496
▁brothers	-10.4496
▁aged	-10.4497
▁lo	-10.4522
▁nam	-10.4547
che	-10.4549
▁68	-10.456
▁fields	-10.4565
un	-10.4568
▁makers	-10.4568
,200	-10.4572
▁1991	-10.4579
▁category	-10.4579
▁phoenix	-10.4579
▁stimulus	-10.4579
▁communities	-10.4579
▁airbus	-10.4579
▁boyfriend	-10.4579
▁joseph	-10.4579
▁testimony	-10.4579
▁motion	-10.4579
▁chong	-10.4581
▁authorized	-10.4588
▁cameras	-10.4598
▁somalia	-10.4603
▁argued	-10.4622
▁leak	-10.4623
quo	-10.4624
▁sri	-10.4636
▁file	-10.4636
▁corporation	-10.4648
▁diamond	-10.4649
▁shelter	-10.4649
▁write	-10.4649
▁runway	-10.4651
dy	-10.4665
▁peak	-10.4685
▁bills	-10.4687
▁pitt	-10.4688
▁classic	-10.4689
▁listen	-10.4691
ir	-10.4693
gen	-10.4693
▁toxic	-10.4718
▁links	-10.4721
ab	-10.4724
▁austria	-10.4728
▁declare	-10.473
▁handle	-10.4736
▁sung	-10.4739
▁swiss	-10.4745
▁czech	-10.4745
▁easily	-10.4745
▁plutonium	-10.4745
▁striking	-10.4745
▁reconciliation	-10.4745
▁sheikh	-10.4745
▁stern	-10.4746
▁golf	-10.4746
▁cargo	-10.4748
▁sweep	-10.4748
▁chris	-10.4749
▁130	-10.4764
▁denounc	-10.477
▁decisions	-10.4773
▁investigations	-10.4774
▁61	-10.4784
▁performed	-10.4789
▁fix	-10.4792
▁sons	-10.4806
▁violated	-10.4806
▁temple	-10.4817
▁gallon	-10.4818
▁chain	-10.4819
ot	-10.4822
▁pitch	-10.4835
▁bags	-10.4837
▁dick	-10.4853
▁contained	-10.4866
▁beer	-10.4867
ari	-10.4869
▁cha	-10.487
▁ga	-10.4873
▁mar	-10.4875
ut	-10.488
▁attending	-10.4881
ana	-10.4883
▁bed	-10.4903
▁retail	-10.4908
▁lu	-10.4914
▁negotiators	-10.4914
▁outrage	-10.4914
▁dramatic	-10.4914
▁legislative	-10.4915
▁otherwise	-10.4915
▁legend	-10.4915
▁petition	-10.4915
▁typhoon	-10.4915
▁worries	-10.4915
▁1960	-10.4915
▁yong	-10.4915
▁tackle	-10.4916
▁familiar	-10.4917
▁maj	-10.4918
▁transferred	-10.4922
▁busy	-10.495
▁v	-10.496
▁payments	-10.496
▁dress	-10.4961
▁cloud	-10.499
▁wonder	-10.4994
▁marines	-10.4996
▁shots	-10.5002
▁uses	-10.5007
ize	-10.5015
▁fishing	-10.5022
▁feature	-10.5035
▁locations	-10.5051
▁compete	-10.5053
do	-10.5076
mi	-10.5077
▁solve	-10.5082
▁celebrity	-10.5087
▁ordinary	-10.5087
▁privacy	-10.5087
▁referendum	-10.5087
▁tennessee	-10.5087
▁administrative	-10.5087
▁uefa	-10.5087
▁romney	-10.5087
▁compensation	-10.5087
▁relocation	-10.5087
▁1992	-10.5087
▁1993	-10.5088
▁priority	-10.5088
▁cave	-10.5088
▁mouth	-10.509
▁vital	-10.509
▁dust	-10.5091
▁absolutely	-10.5092
▁urge	-10.5093
▁ranging	-10.5099
po	-10.5105
▁4,000	-10.5108
▁briefly	-10.5115
▁defendants	-10.5116
▁doors	-10.5126
▁ryan	-10.5129
▁institutions	-10.5135
.5	-10.5145
▁founded	-10.5146
▁genetic	-10.5152
▁appointment	-10.5164
▁bag	-10.5166
▁tiger	-10.5166
▁loan	-10.5169
out	-10.5182
▁campaigning	-10.5185
▁responding	-10.5187
▁pe	-10.5194
▁bowl	-10.521
▁monitor	-10.5221
ac	-10.5232
▁sick	-10.5233
os	-10.5235
▁electronics	-10.5241
▁achieve	-10.5252
ki	-10.5254
▁afford	-10.5261
▁except	-10.5261
▁steel	-10.5261
▁jack	-10.5261
▁antonio	-10.5263
▁erdogan	-10.5263
▁mumbai	-10.5263
▁odinga	-10.5263
▁temporary	-10.5263
▁wolfowitz	-10.5263
▁unrest	-10.5263
▁nancy	-10.5263
▁contrast	-10.5263
▁gambari	-10.5263
▁larry	-10.5263
▁clock	-10.5263
▁receiving	-10.5263
▁zero	-10.5263
▁baseball	-10.5263
▁turnout	-10.5264
▁shoot	-10.5265
▁kate	-10.5266
▁float	-10.5269
▁yen	-10.5269
▁rio	-10.5269
▁carter	-10.527
▁slamm	-10.5272
▁jae	-10.5272
▁increases	-10.5275
▁57	-10.5275
▁combined	-10.5275
ja	-10.5277
▁paulo	-10.5282
▁riot	-10.529
▁generally	-10.5296
▁stable	-10.5296
▁improved	-10.5297
▁advanced	-10.5299
▁appropriate	-10.5301
▁oldest	-10.5308
▁borders	-10.531
▁mistake	-10.533
▁operate	-10.533
▁turns	-10.5337
▁editor	-10.5337
▁writers	-10.5337
▁engine	-10.5338
▁hitt	-10.5339
ry	-10.5342
▁veteran	-10.5345
▁household	-10.5346
▁bases	-10.5347
lated	-10.5371
▁teens	-10.5371
▁greet	-10.5376
▁dump	-10.538
▁sole	-10.5402
der	-10.5412
▁structure	-10.5413
▁bright	-10.5417
▁aung	-10.5421
▁libya	-10.5424
▁virgin	-10.5429
▁rod	-10.5438
▁advice	-10.5441
▁announcing	-10.5441
▁switzerland	-10.5441
▁athens	-10.5441
▁breach	-10.5441
▁networks	-10.5441
▁assessment	-10.5441
▁poland	-10.5441
▁nav	-10.5444
▁negotiate	-10.5446
▁isolated	-10.545
▁endangered	-10.545
▁raids	-10.5451
▁soil	-10.5453
▁athletes	-10.5459
▁advertising	-10.5462
▁moore	-10.5465
▁storms	-10.547
▁apart	-10.5472
▁promotion	-10.5473
ance	-10.5473
▁associate	-10.5475
▁oppose	-10.5483
▁barrels	-10.5489
▁saved	-10.5493
▁soo	-10.5504
▁plays	-10.5525
▁carrier	-10.5527
▁purpose	-10.5527
▁delegate	-10.5528
▁settlement	-10.5529
▁cable	-10.5534
▁sand	-10.5536
▁backing	-10.5548
▁95	-10.5554
▁wood	-10.5555
▁profits	-10.5555
▁ya	-10.5561
▁adopt	-10.5563
▁pan	-10.5563
▁je	-10.557
mo	-10.5573
▁containing	-10.5581
▁chiefs	-10.5582
▁1,	-10.5591
ap	-10.5593
▁rough	-10.5596
▁correct	-10.5598
▁su	-10.5598
the	-10.5604
▁broad	-10.5615
▁sir	-10.5619
▁lobby	-10.5622
▁shape	-10.5622
▁amnesty	-10.5623
▁gonzales	-10.5623
▁mccormack	-10.5623
▁pelosi	-10.5623
▁residence	-10.5623
▁orange	-10.5623
▁donald	-10.5623
▁roger	-10.5623
▁sovereignty	-10.5623
▁outcome	-10.5623
▁legs	-10.5624
▁clothes	-10.5626
pa	-10.5627
▁copy	-10.5627
▁fleet	-10.5629
▁villagers	-10.5632
▁phase	-10.5633
▁nowak	-10.5635
▁disappeared	-10.564
▁50,000	-10.5643
▁ousted	-10.5644
line	-10.5647
▁wounds	-10.566
▁mixed	-10.5667
▁shortages	-10.5686
▁syrian	-10.5691
▁retain	-10.5696
▁stag	-10.5705
▁prospect	-10.5711
▁whale	-10.5712
ei	-10.5712
▁thousand	-10.5713
▁complaint	-10.5714
▁ha	-10.5714
▁pointed	-10.5722
▁symbol	-10.5731
▁crossed	-10.5736
▁wish	-10.5747
▁meter	-10.5751
▁producers	-10.5756
▁violat	-10.5763
▁shootings	-10.577
▁appealed	-10.5779
▁agents	-10.5786
▁bangladesh	-10.5788
▁settle	-10.5794
▁torture	-10.5795
ff	-10.5801
▁freeze	-10.5804
▁apologize	-10.5805
▁exhibit	-10.5806
▁spill	-10.5808
▁dictator	-10.5808
▁beauty	-10.5808
▁capitol	-10.5808
▁detroit	-10.5808
▁easier	-10.5808
▁strategic	-10.5808
▁welfare	-10.5808
▁darwin	-10.5808
▁davis	-10.5808
▁improving	-10.5808
▁ireland	-10.5808
▁airways	-10.5808
▁pollution	-10.5808
▁hamid	-10.5808
▁submitted	-10.5808
▁impose	-10.5809
▁submit	-10.5809
▁mohammad	-10.5809
▁curb	-10.5809
▁miners	-10.582
▁diet	-10.5824
▁burn	-10.5831
▁successfully	-10.5834
▁surprised	-10.5838
▁peru	-10.5838
▁extremists	-10.5841
▁deals	-10.5843
handling	-10.585
▁5,000	-10.5851
▁seventh	-10.5852
▁units	-10.5854
▁volunteers	-10.5872
▁dry	-10.5873
▁strengthen	-10.5876
▁amounts	-10.5877
▁fa	-10.5889
▁chair	-10.59
▁root	-10.5901
▁employee	-10.5902
▁missed	-10.5913
▁negotiat	-10.5915
▁weigh	-10.5935
▁predict	-10.5935
▁inch	-10.594
▁weaken	-10.594
▁controls	-10.5947
▁hang	-10.5949
.8	-10.5951
▁trained	-10.5952
▁motors	-10.5955
▁andrew	-10.5955
▁walls	-10.5956
▁indicat	-10.5964
▁feed	-10.5965
▁lanka	-10.5979
▁fatal	-10.5984
▁confrontation	-10.5991
▁incidents	-10.5992
▁illness	-10.5995
▁ambush	-10.5997
▁netherlands	-10.5997
▁philadelphia	-10.5997
▁portuguese	-10.5997
▁seattle	-10.5997
▁tsvangirai	-10.5997
▁twenty	-10.5997
▁variety	-10.5997
▁exposure	-10.5997
▁securities	-10.5997
▁dawn	-10.5997
▁impossible	-10.5997
▁greenhouse	-10.5997
▁copies	-10.5998
▁hugo	-10.5998
▁richardson	-10.5998
▁wireless	-10.5998
▁runoff	-10.5999
▁documentary	-10.5999
▁sweet	-10.5999
▁1,500	-10.6
▁mi	-10.6003
▁values	-10.6007
▁wartime	-10.6007
▁eighth	-10.6009
▁portion	-10.6012
▁keb	-10.6017
tor	-10.6023
▁accusations	-10.6025
▁samples	-10.6026
▁parent	-10.6028
▁detected	-10.6029
▁pleaded	-10.6031
ver	-10.6037
▁winners	-10.6051
▁experienced	-10.6058
▁lin	-10.606
▁dressed	-10.6062
▁ne	-10.6064
hi	-10.6066
▁photographs	-10.6074
5,000	-10.6074
▁guarantee	-10.6077
ever	-10.6079
▁recalled	-10.6087
▁revenue	-10.6092
▁print	-10.6093
▁politician	-10.6094
▁whales	-10.6095
▁complaints	-10.6095
▁actors	-10.6096
▁brutal	-10.6101
▁flat	-10.6107
▁arrests	-10.6116
▁dam	-10.6118
▁economists	-10.6121
▁stretch	-10.6122
▁approached	-10.6122
▁euros	-10.6126
▁trend	-10.6136
▁provides	-10.6139
▁map	-10.6153
▁eve	-10.6173
▁historical	-10.6184
▁elsewhere	-10.6189
▁minimum	-10.6189
▁missouri	-10.6189
▁orleans	-10.6189
▁swimming	-10.6189
▁scheme	-10.6189
▁bankruptcy	-10.6189
▁winehouse	-10.6189
▁chaos	-10.6189
▁centre	-10.6191
▁grass	-10.6191
▁yangon	-10.6191
▁ka	-10.6192
▁popularity	-10.6192
▁classified	-10.6194
▁warner	-10.6199
▁iron	-10.62
▁executed	-10.62
▁hasn	-10.6202
▁flash	-10.6204
▁1.3	-10.6206
▁informed	-10.6209
▁dean	-10.6211
▁laid	-10.6215
▁sailors	-10.6222
▁returns	-10.6227
▁63	-10.6228
▁starr	-10.6228
▁detail	-10.6231
▁66	-10.6233
▁core	-10.6241
▁attorneys	-10.625
▁intention	-10.625
▁ms	-10.6259
▁abandoned	-10.6268
▁sees	-10.6268
▁score	-10.6273
▁senators	-10.628
▁spirit	-10.6287
▁tension	-10.6292
▁learning	-10.6294
▁trick	-10.6295
▁chi	-10.6304
▁tie	-10.6315
▁85	-10.6322
▁clash	-10.6325
op	-10.6326
▁mer	-10.633
▁nice	-10.6352
▁kuwait	-10.6374
am	-10.6376
▁1989	-10.6385
▁arriving	-10.6385
▁giuliani	-10.6385
▁testify	-10.6385
▁wimbledon	-10.6385
▁reiterat	-10.6385
▁stuff	-10.6385
▁sectarian	-10.6385
▁merkel	-10.6385
▁greek	-10.6385
▁panama	-10.6385
▁inauguration	-10.6385
▁spacecraft	-10.6385
▁feb	-10.6387
▁timetable	-10.6388
ai	-10.6391
ors	-10.6394
▁suddenly	-10.6399
▁viewers	-10.6402
▁gear	-10.6408
ge	-10.6412
▁abus	-10.6423
▁reveal	-10.6426
ated	-10.6429
▁annan	-10.6431
▁acres	-10.6432
▁ja	-10.6436
▁homeless	-10.6438
▁engage	-10.6439
km	-10.6443
▁potentially	-10.6443
▁spoken	-10.6444
▁react	-10.6444
▁moral	-10.6447
▁cap	-10.6447
▁jin	-10.645
▁legally	-10.646
▁2,	-10.6461
▁aside	-10.6469
▁upset	-10.6481
▁departure	-10.6484
▁attitude	-10.6486
▁blaze	-10.6487
▁bullet	-10.6487
▁conversation	-10.6488
▁experiment	-10.6489
▁purposes	-10.649
▁contracts	-10.6491
▁interested	-10.6494
▁broadcaster	-10.6501
ho	-10.6504
▁collect	-10.6517
▁surrender	-10.6526
▁76	-10.6527
▁ski	-10.6532
ber	-10.6544
▁sang	-10.6547
▁passing	-10.6547
identified	-10.6548
▁polling	-10.6568
▁rapid	-10.6569
▁82	-10.6575
ll	-10.6576
▁undermine	-10.6577
▁proceed	-10.6585
▁consecutive	-10.6585
▁louisiana	-10.6585
▁clinch	-10.6585
▁murray	-10.6585
▁sichuan	-10.6585
▁inquest	-10.6585
▁cloning	-10.6585
▁disappearance	-10.6585
▁ioc	-10.6585
▁jerry	-10.6585
▁extraordinary	-10.6586
▁yuan	-10.6587
▁albert	-10.6588
▁momentum	-10.6588
▁torn	-10.6589
▁proof	-10.6591
▁stolen	-10.6591
▁bars	-10.6597
▁yoon	-10.6599
▁71	-10.6602
▁youth	-10.6618
▁vacation	-10.6622
▁cards	-10.6627
▁object	-10.663
▁resumed	-10.663
▁disputed	-10.6633
▁shoes	-10.6649
▁73	-10.6655
ese	-10.6662
cy	-10.6662
▁fat	-10.6665
▁injur	-10.6678
▁addressed	-10.6683
▁gm	-10.6685
▁crews	-10.6687
▁sentiment	-10.6689
▁repair	-10.6691
▁client	-10.6693
▁teenager	-10.6695
▁wheel	-10.6696
▁representing	-10.6706
▁spa	-10.6707
▁81	-10.6713
▁violations	-10.6717
▁convert	-10.672
▁flags	-10.6721
▁worry	-10.6723
00	-10.6727
▁punish	-10.6729
tic	-10.6733
ville	-10.6736
ell	-10.6739
▁sh	-10.6739
que	-10.6747
▁vessels	-10.6749
va	-10.676
▁q	-10.6761
▁ro	-10.6761
▁latin	-10.6771
▁mental	-10.6772
▁usual	-10.6773
▁posts	-10.6789
▁luxur	-10.6789
▁prior	-10.6789
▁behalf	-10.6789
▁deadliest	-10.6789
▁huckabee	-10.6789
▁landmark	-10.6789
▁mehdi	-10.6789
▁opec	-10.6789
▁rumsfeld	-10.6789
▁sharapova	-10.6789
▁spiritual	-10.6789
▁technologies	-10.6789
▁jews	-10.6789
▁constant	-10.6789
▁hint	-10.679
▁spreading	-10.679
▁pending	-10.6791
▁reward	-10.6792
▁followers	-10.6793
▁arabic	-10.6794
▁meat	-10.6795
▁frontier	-10.6796
per	-10.6796
▁ultimately	-10.6798
▁indicted	-10.6798
▁blasts	-10.6801
▁cooperate	-10.6802
▁waves	-10.6803
▁detainees	-10.6806
▁icon	-10.6806
▁rumors	-10.6806
▁missions	-10.6809
▁56	-10.6809
▁hide	-10.6813
▁investigated	-10.6818
▁chen	-10.6818
▁nominations	-10.6823
▁selected	-10.6825
▁oversee	-10.6827
▁wine	-10.6828
▁se	-10.6829
▁significantly	-10.6833
over	-10.6839
q	-10.6851
▁maria	-10.6859
▁mountains	-10.6859
▁starts	-10.6866
pi	-10.6866
▁studying	-10.6875
▁woods	-10.6897
▁chan	-10.6898
▁mon	-10.6898
▁inspection	-10.6902
▁investigator	-10.6902
▁continent	-10.6908
▁rocks	-10.6909
▁sin	-10.6912
▁chang	-10.6924
ota	-10.6926
,500	-10.6936
▁happening	-10.6944
▁eric	-10.6946
▁tickets	-10.6956
▁prais	-10.6958
▁recording	-10.696
mer	-10.6969
▁praise	-10.699
▁cheap	-10.6992
▁opens	-10.6995
▁prohibit	-10.6995
▁chapter	-10.6998
▁deficit	-10.6998
▁houston	-10.6998
▁kansas	-10.6998
▁suspicious	-10.6998
▁withdrew	-10.6998
▁powell	-10.6998
▁ballistic	-10.6998
▁barbara	-10.6998
▁inquiry	-10.6998
▁employment	-10.6998
▁testified	-10.6998
▁utah	-10.7
▁thick	-10.7006
▁classes	-10.7008
ou	-10.7009
▁wales	-10.7009
▁exposed	-10.7011
▁matters	-10.7015
▁acted	-10.7018
▁slaves	-10.7019
▁kyu	-10.7019
▁malaysian	-10.7026
▁earnings	-10.7033
▁sao	-10.7035
▁condemn	-10.7052
▁coal	-10.7056
▁detailed	-10.7061
▁rudd	-10.7068
▁drawing	-10.7069
▁hee	-10.7072
▁trucks	-10.7073
▁interviews	-10.7081
▁seal	-10.7083
ical	-10.7085
▁habitat	-10.7085
▁suffer	-10.7089
▁criminals	-10.7094
▁hopeful	-10.71
ek	-10.7104
▁shore	-10.7111
▁conclusion	-10.7112
▁medal	-10.7116
cute	-10.7122
▁visits	-10.7123
▁pen	-10.7137
▁ray	-10.7141
▁signals	-10.7148
▁rains	-10.7154
body	-10.7158
▁theme	-10.7176
go	-10.7188
▁pilots	-10.7189
up	-10.7193
▁substantial	-10.7193
▁quiet	-10.7194
▁reduc	-10.7199
▁secular	-10.72
▁chose	-10.7205
▁devastating	-10.721
▁jintao	-10.721
▁oklahoma	-10.721
▁releasing	-10.721
▁spray	-10.721
▁turmoil	-10.721
▁universal	-10.721
▁denies	-10.721
▁lahore	-10.721
▁arctic	-10.721
▁robbery	-10.721
▁karachi	-10.721
▁expansion	-10.721
▁trafficking	-10.7211
▁wright	-10.7211
▁prominent	-10.7211
▁ppp	-10.7211
▁omar	-10.7212
▁indeed	-10.7212
▁shoulder	-10.7212
▁specifically	-10.7213
▁plunged	-10.7219
▁buses	-10.7222
▁canal	-10.7226
▁cow	-10.723
▁nur	-10.7233
▁clothing	-10.7234
▁models	-10.7246
▁notice	-10.7249
▁crops	-10.7257
▁ky	-10.7264
▁pour	-10.7265
▁rivers	-10.7266
▁reject	-10.7269
▁safely	-10.7274
▁risks	-10.7283
▁presumpti	-10.7284
▁bones	-10.7293
▁ta	-10.7295
▁recover	-10.7297
▁resolved	-10.7298
▁masters	-10.7299
▁stepping	-10.73
▁ac	-10.7307
▁objects	-10.7312
▁approve	-10.7313
▁tracks	-10.7315
▁tunnel	-10.7328
▁burst	-10.7328
▁advisor	-10.733
▁dvd	-10.733
named	-10.7335
chi	-10.7336
▁factors	-10.734
aw	-10.7351
▁raided	-10.7351
▁characters	-10.7354
▁colonial	-10.7364
▁kenyan	-10.7366
▁ads	-10.7369
▁socialist	-10.737
▁prisoner	-10.7371
▁accidents	-10.7382
▁maintained	-10.7388
promising	-10.7408
▁loyal	-10.7409
▁efficient	-10.741
▁pieces	-10.7418
▁revive	-10.742
▁volcano	-10.7425
▁hub	-10.7426
▁philip	-10.7428
▁celebrities	-10.7428
▁centuries	-10.7428
▁cleveland	-10.7428
▁ecuador	-10.7428
▁hudson	-10.7428
▁industries	-10.7428
▁respondents	-10.7428
▁steady	-10.7428
▁unprecedented	-10.7428
▁vitamin	-10.7428
▁lewis	-10.7428
▁massacre	-10.7428
▁vienna	-10.7428
▁mosul	-10.7428
▁laboratory	-10.7428
▁tragedy	-10.7428
▁dropping	-10.7428
▁mbc	-10.7428
▁taylor	-10.7428
▁monet	-10.7428
▁proceedings	-10.7428
▁ron	-10.7429
▁urgent	-10.7429
▁empty	-10.7429
▁fever	-10.7429
▁telecom	-10.7429
ol	-10.743
▁warren	-10.743
▁ibrahim	-10.743
▁fake	-10.743
▁marking	-10.743
▁timor	-10.7431
▁thin	-10.7432
▁prevention	-10.7433
▁69	-10.7436
▁decid	-10.744
▁harm	-10.744
▁load	-10.7445
▁sustained	-10.7447
▁delays	-10.7449
▁effectively	-10.7452
▁carlos	-10.7457
▁pleased	-10.7458
ard	-10.7459
roughly	-10.746
▁shaped	-10.7463
▁2000.	-10.7473
si	-10.7479
▁gate	-10.748
▁recommended	-10.7483
▁stationed	-10.7483
▁attacking	-10.7485
▁drink	-10.7489
▁dealers	-10.7493
▁engineer	-10.7498
▁personally	-10.7502
▁wars	-10.7508
▁sentences	-10.7516
▁perform	-10.752
▁hunting	-10.7521
▁assist	-10.753
▁projected	-10.7535
bi	-10.7538
▁dec	-10.7547
▁passport	-10.7553
▁studio	-10.7554
▁principle	-10.7554
▁indication	-10.7554
▁execution	-10.7555
clusive	-10.7565
▁stick	-10.7573
▁conservatives	-10.7573
▁adds	-10.7589
▁74	-10.7589
▁imagine	-10.7602
▁agreements	-10.7612
ns	-10.7614
▁marketing	-10.7623
.6	-10.7623
▁pat	-10.7633
▁frequent	-10.7633
▁exact	-10.7634
▁wire	-10.7638
▁ahmadi	-10.7639
▁compromise	-10.7639
▁77	-10.7641
▁yemen	-10.7644
▁beneath	-10.765
▁chirac	-10.765
▁extensive	-10.765
▁wisconsin	-10.765
▁yeltsin	-10.765
▁cocaine	-10.765
▁evil	-10.765
▁rodriguez	-10.765
▁impeachment	-10.765
▁amazon	-10.765
▁seung	-10.7651
▁idol	-10.7651
▁tribute	-10.7652
▁sweden	-10.7652
▁gray	-10.7654
▁soaring	-10.7661
▁bi	-10.7661
▁naked	-10.7661
▁hye	-10.7663
▁tougher	-10.7665
▁anticipated	-10.7666
▁endorsed	-10.7672
▁persuade	-10.7673
▁ok	-10.7677
▁dragg	-10.7687
▁designat	-10.7689
▁yu	-10.7689
▁acknowledge	-10.769
▁abuses	-10.769
ke	-10.7694
▁carries	-10.7694
▁che	-10.7703
▁yo	-10.7706
▁launching	-10.7715
▁crossing	-10.7717
pl	-10.7726
▁tomb	-10.7726
▁mart	-10.773
▁z	-10.7731
▁expecting	-10.7736
▁moments	-10.7742
▁teenagers	-10.7756
▁protected	-10.7762
he	-10.777
▁duck	-10.7781
▁stroke	-10.7781
▁writer	-10.7785
▁hero	-10.7789
▁pool	-10.7811
▁titles	-10.7815
▁cuban	-10.7817
▁alarm	-10.7817
▁billions	-10.7819
▁cats	-10.7833
▁slipp	-10.7843
▁aggressive	-10.786
▁sudden	-10.7861
▁ca	-10.7862
▁transform	-10.7875
▁beirut	-10.7877
▁consensus	-10.7877
▁economies	-10.7877
▁extension	-10.7877
▁kentucky	-10.7877
▁koizumi	-10.7877
▁outlook	-10.7877
▁religion	-10.7877
▁stranded	-10.7877
▁universities	-10.7877
▁aviation	-10.7877
▁entrance	-10.7877
▁wreckage	-10.7877
▁permission	-10.7877
▁sgt	-10.7877
▁importance	-10.7878
▁accompani	-10.7878
▁consistent	-10.7879
▁rowling	-10.7879
▁membership	-10.7879
▁hunger	-10.788
▁displaced	-10.7881
▁legitimate	-10.7882
▁y	-10.7883
▁broader	-10.7884
▁creation	-10.7885
▁milk	-10.7885
▁ambitions	-10.7887
▁concessions	-10.7887
▁contribute	-10.7889
▁ke	-10.7894
▁suggestion	-10.7905
▁parking	-10.791
▁mac	-10.7911
ner	-10.7911
▁mis	-10.7912
pe	-10.7917
▁attribut	-10.7921
▁songs	-10.793
▁clashed	-10.7946
▁pm	-10.7961
▁sight	-10.7971
▁78	-10.7973
▁fi	-10.7997
▁mounting	-10.8009
▁explosions	-10.8009
▁hybrid	-10.801
▁philippine	-10.8014
▁yard	-10.8014
▁signing	-10.8017
▁touched	-10.802
▁master	-10.8022
▁influ	-10.8027
ped	-10.8033
▁reference	-10.8042
▁register	-10.8051
▁ru	-10.8059
▁campaigns	-10.8068
▁diseases	-10.8081
▁covering	-10.8089
▁desire	-10.8093
▁nigeria	-10.8094
▁unlike	-10.8094
▁proper	-10.8097
▁realize	-10.8099
▁earn	-10.8104
▁teenage	-10.8107
▁fault	-10.811
▁galaxy	-10.811
▁goalkeep	-10.811
▁heritage	-10.811
▁impoverished	-10.811
▁mandatory	-10.811
▁penalties	-10.811
▁suspension	-10.811
▁volume	-10.811
▁steep	-10.811
▁slowdown	-10.811
▁overcome	-10.811
▁resistance	-10.811
▁rafael	-10.811
▁jolie	-10.811
▁insurgency	-10.811
▁geological	-10.811
▁michelle	-10.811
▁louis	-10.8112
▁possession	-10.8112
▁advised	-10.8113
▁vision	-10.8114
▁phil	-10.8115
▁pardon	-10.8115
▁rent	-10.8116
▁elderly	-10.8119
▁attached	-10.8119
▁15,000	-10.8124
▁frequently	-10.8127
▁consequences	-10.8131
▁imp	-10.8143
▁ph	-10.8146
▁longest	-10.8147
▁recognized	-10.8149
▁shareholders	-10.8152
▁riding	-10.8161
ization	-10.8165
▁plent	-10.8165
▁manufacturers	-10.8168
▁photograph	-10.8173
▁kun	-10.8174
llied	-10.8181
▁chip	-10.8194
▁flooded	-10.8195
▁ranch	-10.8201
▁badly	-10.821
▁principles	-10.8211
▁lies	-10.8215
▁happens	-10.824
ft	-10.8243
▁robot	-10.8248
▁railway	-10.8251
▁method	-10.8252
▁garden	-10.8253
▁flame	-10.8255
▁trips	-10.826
▁bottle	-10.827
▁va	-10.8275
▁totally	-10.8275
▁courts	-10.8279
▁israelis	-10.828
▁11,	-10.8284
▁tower	-10.8285
▁recommend	-10.8288
▁hits	-10.8292
▁mall	-10.8318
▁commanders	-10.8321
▁yoo	-10.8338
▁2001.	-10.8346
judicial	-10.8347
▁enemies	-10.8348
▁everywhere	-10.8348
▁harvard	-10.8348
▁infrastructure	-10.8348
▁medvedev	-10.8348
▁mideast	-10.8348
▁myself	-10.8348
▁peacekeeping	-10.8348
▁pilgrims	-10.8348
▁roddick	-10.8348
▁statistical	-10.8348
▁temporarily	-10.8348
▁diplomacy	-10.8348
▁aftermath	-10.8348
▁videotape	-10.8348
▁vermont	-10.8348
▁rubble	-10.8348
▁burden	-10.8348
▁registration	-10.8348
▁maritime	-10.8348
▁shutdown	-10.8348
▁genocide	-10.8348
▁1987	-10.8348
▁desperate	-10.8349
▁truce	-10.8349
▁kyung	-10.8349
▁chancell	-10.8349
▁outstanding	-10.8349
▁confirmation	-10.835
▁72	-10.835
▁charter	-10.8351
▁personality	-10.8351
▁jobless	-10.836
▁wrapped	-10.8364
▁crack	-10.8367
▁nicole	-10.8372
▁chat	-10.8375
▁customs	-10.8385
ail	-10.8391
▁charts	-10.8396
▁christians	-10.8396
urged	-10.8397
▁rev	-10.8408
▁insists	-10.8412
em	-10.8414
▁guan	-10.8418
▁politically	-10.8427
▁lung	-10.8429
▁button	-10.8434
ate	-10.8437
▁discussing	-10.844
▁procedures	-10.844
▁1.7	-10.8442
▁arrang	-10.8444
▁mad	-10.8444
stone	-10.8445
▁shocked	-10.8453
▁broker	-10.8461
our	-10.8468
▁gather	-10.847
▁angel	-10.8476
▁rounds	-10.8479
▁abduction	-10.8493
▁abortion	-10.8493
▁automaker	-10.8496
▁shirt	-10.8496
▁theory	-10.8498
▁saving	-10.8499
▁shark	-10.85
iya	-10.8515
▁graduate	-10.8516
ily	-10.853
▁shell	-10.8532
▁mix	-10.8533
▁fighter	-10.8535
teen	-10.8551
nic	-10.8553
▁31,	-10.8558
▁tool	-10.8559
▁rob	-10.857
▁emotional	-10.8576
vi	-10.8577
▁absence	-10.8592
▁analysis	-10.8592
▁asylum	-10.8592
▁dioxide	-10.8592
▁excited	-10.8592
▁judiciary	-10.8592
▁katrina	-10.8592
▁legislature	-10.8592
▁marathon	-10.8592
▁principal	-10.8592
▁regain	-10.8592
▁shook	-10.8592
▁kandahar	-10.8592
▁therefore	-10.8592
▁anderson	-10.8592
▁vulnerable	-10.8592
▁steal	-10.8593
▁minority	-10.8594
▁dating	-10.8594
▁remarkable	-10.8595
▁searched	-10.8595
▁craft	-10.8597
▁simon	-10.8598
▁wider	-10.86
▁fred	-10.8601
▁obviously	-10.8603
denuclearization	-10.8605
▁typically	-10.8605
ru	-10.8612
▁lie	-10.8615
▁libyan	-10.8615
▁offenders	-10.8618
iest	-10.8619
▁jets	-10.8624
▁retailers	-10.8626
bu	-10.8633
▁tanker	-10.8648
▁bears	-10.866
field	-10.8661
▁orchestra	-10.8669
▁coordinat	-10.8669
▁tru	-10.8671
▁interi	-10.8671
▁der	-10.8673
▁checks	-10.8673
▁raped	-10.8683
▁lunch	-10.8712
▁riots	-10.8726
▁victoria	-10.8729
lin	-10.8731
▁1.2	-10.8739
▁platform	-10.8744
▁conviction	-10.8744
▁landslide	-10.8746
▁militias	-10.8747
▁procedure	-10.8747
▁ge	-10.8747
▁matt	-10.875
▁88	-10.8752
▁christ	-10.8767
▁flee	-10.8776
▁centered	-10.8776
▁obtain	-10.8783
▁repeat	-10.8783
▁detain	-10.8783
▁limits	-10.8786
▁67	-10.879
▁slam	-10.8796
▁singing	-10.8814
▁chase	-10.8819
▁kid	-10.8825
▁160	-10.8825
▁scrap	-10.8827
▁nin	-10.883
les	-10.8837
▁brad	-10.884
▁140	-10.8841
▁alabama	-10.8842
▁applied	-10.8842
▁curfew	-10.8842
▁kidnappers	-10.8842
▁kyoto	-10.8842
▁statistics	-10.8842
▁liberation	-10.8842
▁mirror	-10.8842
▁combination	-10.8842
▁equity	-10.8842
▁wilson	-10.8842
▁consumption	-10.8842
▁oct	-10.8842
▁passage	-10.8843
▁ahmed	-10.8843
▁graham	-10.8843
▁unique	-10.8844
▁myspace	-10.8844
▁midfielder	-10.8845
▁fda	-10.8845
▁parade	-10.8846
▁output	-10.8848
▁emirates	-10.8848
▁uncovered	-10.8849
▁unfortunately	-10.885
▁henin	-10.8853
▁ri	-10.8855
▁laundering	-10.8857
▁properly	-10.886
▁operated	-10.8864
▁landscape	-10.8866
▁40,000	-10.8867
▁regularly	-10.8882
▁sad	-10.8893
▁shed	-10.8896
▁hearts	-10.8908
ler	-10.8921
▁bone	-10.8934
▁suk	-10.8935
▁paint	-10.8939
▁daughters	-10.8942
▁prov	-10.8943
▁bottles	-10.8944
▁stages	-10.8949
▁disputes	-10.8951
ran	-10.8956
▁mistakes	-10.8978
ists	-10.898
▁partial	-10.8988
▁regret	-10.8998
▁concept	-10.8998
▁alan	-10.8998
▁terminal	-10.9
▁vaccine	-10.9001
▁venue	-10.9002
▁banner	-10.9005
▁championships	-10.901
▁leftist	-10.9011
ura	-10.9013
▁parks	-10.9024
▁killer	-10.9026
▁bow	-10.9026
▁sectors	-10.9033
▁stops	-10.9033
▁restrict	-10.9038
▁crush	-10.9038
▁connect	-10.9046
au	-10.9052
▁aired	-10.9054
ud	-10.906
▁roma	-10.9069
mar	-10.908
▁convince	-10.9082
▁ronald	-10.9094
▁branch	-10.9095
▁introduce	-10.9095
formally	-10.9098
▁enrich	-10.9098
▁afraid	-10.9098
▁anywhere	-10.9098
▁battery	-10.9098
▁closure	-10.9098
▁declaring	-10.9098
▁enormous	-10.9098
▁gesture	-10.9098
▁guild	-10.9098
▁interpol	-10.9098
▁kyodo	-10.9098
▁opportunities	-10.9098
▁pittsburgh	-10.9098
▁prestig	-10.9098
▁bacteria	-10.9098
▁kelly	-10.9098
▁composite	-10.9098
▁knight	-10.9098
▁geneva	-10.9098
▁ramos	-10.9098
▁geun	-10.9099
▁1986	-10.9099
▁unacceptable	-10.9099
▁distribution	-10.9099
▁wonderful	-10.9099
▁brian	-10.9099
▁coverage	-10.9099
▁generate	-10.91
▁cheong	-10.91
▁burial	-10.9101
▁doping	-10.9102
▁singh	-10.9102
▁refusal	-10.9103
▁sorry	-10.9104
▁respectively	-10.9105
▁iphone	-10.9105
▁expell	-10.9106
▁minds	-10.9108
▁everest	-10.9113
▁convinced	-10.9114
▁500,000	-10.9118
▁crowded	-10.9125
▁hiding	-10.9129
▁shipping	-10.9129
▁swing	-10.9133
▁elements	-10.9137
▁mom	-10.9138
▁thus	-10.9147
▁transactions	-10.9147
▁skills	-10.9147
▁gu	-10.9148
▁refuse	-10.915
▁silence	-10.9152
▁traders	-10.9156
gi	-10.9164
gan	-10.9166
▁fined	-10.9177
▁tea	-10.9182
long	-10.9196
▁methods	-10.9203
▁lists	-10.9209
▁studios	-10.921
▁mere	-10.9212
▁vi	-10.9213
▁nov	-10.9236
▁plea	-10.9245
▁giants	-10.9245
▁guide	-10.9248
we	-10.9256
▁background	-10.9261
▁serves	-10.9261
▁admission	-10.9262
▁shield	-10.9264
▁uniform	-10.9264
▁infection	-10.9265
▁airstrike	-10.9265
min	-10.9265
▁operator	-10.9265
▁opponent	-10.9266
▁insurgent	-10.9266
▁battles	-10.9268
▁twin	-10.9269
▁remark	-10.9272
▁mood	-10.9306
.4	-10.9309
▁forget	-10.9312
▁managers	-10.9313
▁rat	-10.9322
▁slip	-10.9323
▁pressed	-10.9331
▁uganda	-10.9341
anamo	-10.9349
▁reverse	-10.9354
han	-10.9358
▁liquid	-10.9361
▁villa	-10.9361
▁belgium	-10.9361
▁dallas	-10.9361
▁encouraging	-10.9361
▁escort	-10.9361
▁kaesong	-10.9361
▁nairobi	-10.9361
▁oxygen	-10.9361
▁prophet	-10.9361
▁thirty	-10.9361
▁zardari	-10.9361
▁mutual	-10.9361
▁oregon	-10.9361
▁craig	-10.9361
▁optimistic	-10.9361
▁emerging	-10.9362
▁campbell	-10.9362
▁swine	-10.9362
▁romantic	-10.9362
▁examination	-10.9362
▁engagement	-10.9362
▁teeth	-10.9363
▁subway	-10.9363
▁elite	-10.9363
▁visible	-10.9363
▁selection	-10.9363
▁populated	-10.9364
▁gender	-10.9364
▁audio	-10.9364
▁regardless	-10.9364
▁comply	-10.9364
▁miller	-10.9365
▁residential	-10.937
▁reid	-10.9372
▁complicated	-10.9375
▁sept	-10.9381
▁hat	-10.9385
▁interviewed	-10.9387
▁noticed	-10.9387
▁lending	-10.939
kin	-10.9391
▁serbian	-10.9392
▁eggs	-10.9394
▁distributed	-10.9396
▁publicist	-10.9401
▁guerrillas	-10.9401
▁harder	-10.941
▁paintings	-10.9412
▁separated	-10.9421
▁wash	-10.9425
▁intends	-10.9428
▁scenes	-10.944
▁bare	-10.9442
▁noon	-10.9445
▁hanging	-10.9451
ent	-10.9466
▁ballot	-10.947
freezing	-10.9473
▁executions	-10.9477
30	-10.9479
▁surveyed	-10.9479
▁venture	-10.9487
▁usa	-10.9491
wa	-10.9503
▁veterans	-10.9505
hu	-10.9517
▁futures	-10.953
▁telescope	-10.9531
▁instance	-10.9533
▁separatist	-10.9535
▁laptop	-10.9535
▁jungle	-10.9536
▁affair	-10.9536
▁activist	-10.9537
▁specialist	-10.9541
▁peer	-10.9542
▁artists	-10.9548
ci	-10.9548
▁casey	-10.9549
▁amy	-10.9551
▁remov	-10.9554
▁resolv	-10.956
ring	-10.9562
▁counsel	-10.9565
▁grounds	-10.9584
▁clubs	-10.9593
▁movements	-10.9606
▁actual	-10.9615
ik	-10.9616
▁refuge	-10.9618
▁swor	-10.9619
▁agricultur	-10.9621
▁knowing	-10.9625
▁anchor	-10.9631
▁twel	-10.9632
▁beautiful	-10.9632
▁benjamin	-10.9632
▁bernanke	-10.9632
▁burmese	-10.9632
▁competing	-10.9632
▁elaborate	-10.9632
▁elevator	-10.9632
▁harbor	-10.9632
▁incumbent	-10.9632
▁intervention	-10.9632
▁kremlin	-10.9632
▁minnesota	-10.9632
▁proliferation	-10.9632
▁universe	-10.9632
▁zawahiri	-10.9632
▁citigroup	-10.9632
▁denver	-10.9632
▁racial	-10.9632
▁ibm	-10.9632
▁bahamas	-10.9632
▁talent	-10.9632
▁probation	-10.9632
▁opera	-10.9632
▁reconstruction	-10.9632
▁excessive	-10.9632
▁radar	-10.9632
▁acid	-10.9632
▁luis	-10.9632
▁awareness	-10.9633
▁deadlock	-10.9633
▁dying	-10.9633
▁yield	-10.9633
▁falls	-10.9633
▁manipulation	-10.9634
▁cdc	-10.9634
▁nba	-10.9634
▁hitler	-10.9635
▁definitely	-10.9635
▁postponed	-10.9636
▁castle	-10.9637
▁25,000	-10.9645
▁mud	-10.9651
▁300,000	-10.9658
▁2002.	-10.9663
ph	-10.9665
▁armor	-10.9665
▁180	-10.9678
▁reserved	-10.9679
▁contenders	-10.9684
▁achieved	-10.9688
▁separately	-10.9695
▁tip	-10.97
▁buyers	-10.9701
▁ku	-10.9713
▁ni	-10.9726
▁sp	-10.9728
▁policeman	-10.9729
ya	-10.9734
▁landslides	-10.9737
▁enjoyed	-10.9741
▁wal	-10.9744
▁fort	-10.9753
▁nose	-10.9755
▁rays	-10.9755
▁ear	-10.9761
ged	-10.9769
▁waited	-10.9776
▁stalin	-10.978
▁represented	-10.9785
▁chamber	-10.981
▁novel	-10.981
▁replacement	-10.9811
▁amendment	-10.9812
▁checkpoint	-10.9812
▁argument	-10.9814
▁volunteer	-10.9814
▁shortage	-10.9817
sumption	-10.9817
▁publication	-10.9827
▁reflects	-10.9831
▁pole	-10.9831
fi	-10.9835
▁argu	-10.9837
▁cla	-10.9838
▁promises	-10.9842
ini	-10.9845
▁guys	-10.9849
▁admit	-10.985
▁embrace	-10.9852
▁forecaster	-10.9853
▁user	-10.9866
going	-10.9869
▁theft	-10.987
prime	-10.9872
▁tap	-10.9888
▁cambodia	-10.9891
▁instant	-10.9892
▁trace	-10.9893
▁125	-10.99
▁loud	-10.9906
▁contacted	-10.9907
▁competitive	-10.9909
▁academic	-10.9909
▁argentine	-10.9909
▁comprehensive	-10.9909
▁crocodile	-10.9909
▁dakota	-10.9909
▁episode	-10.9909
▁primarily	-10.9909
▁pronounced	-10.9909
▁prostitution	-10.9909
▁rhetoric	-10.9909
▁rooney	-10.9909
▁yourself	-10.9909
▁fossett	-10.9909
▁silver	-10.9909
▁ankara	-10.9909
▁scoring	-10.9909
▁bolster	-10.9909
▁opposite	-10.9909
▁eligib	-10.991
▁reputation	-10.991
▁rallied	-10.991
▁bold	-10.991
▁danish	-10.9911
▁mice	-10.9912
▁mountainous	-10.9913
▁taste	-10.9914
▁er	-10.9914
▁2,500	-10.9914
▁terry	-10.9916
▁juan	-10.9916
▁springs	-10.9918
▁mu	-10.9922
▁grabb	-10.9931
▁guidelines	-10.9933
▁wealthy	-10.9933
▁revised	-10.9935
▁manner	-10.9935
▁rely	-10.9937
▁rulers	-10.9938
▁sens	-10.9941
▁realized	-10.9943
▁generated	-10.9946
▁thrown	-10.9948
▁operational	-10.9954
▁rocky	-10.9962
▁immigrants	-10.9965
▁undergoing	-10.997
▁dad	-10.9971
▁tae	-10.9971
▁peacefully	-10.998
▁preparations	-10.9982
▁barriers	-10.9985
▁notes	-10.9985
▁ratings	-10.999
▁manage	-10.9991
▁recovering	-10.9992
▁critically	-10.9993
▁forms	-10.9996
▁photographers	-11.0003
▁fees	-11.0004
▁har	-11.0005
ill	-11.001
▁appeals	-11.0017
▁supports	-11.0023
ino	-11.0034
▁recruit	-11.0037
▁cape	-11.0041
▁bang	-11.0053
me	-11.0061
▁tigers	-11.0064
▁1.6	-11.0079
▁machines	-11.0087
▁warrants	-11.0092
▁occur	-11.0094
mus	-11.0094
▁hindu	-11.0096
▁toilet	-11.0098
▁roof	-11.0098
▁rifle	-11.0098
▁muscle	-11.0098
▁cafe	-11.0099
▁temperature	-11.01
aro	-11.0104
80	-11.0116
▁honored	-11.0128
▁bargain	-11.0129
▁requests	-11.013
▁rebuild	-11.0131
▁fulfill	-11.0134
back	-11.0147
▁tears	-11.0152
went	-11.0159
ending	-11.0173
▁fundamental	-11.0177
▁investments	-11.0177
▁unfair	-11.0179
▁shi	-11.0182
▁tornado	-11.0192
▁superior	-11.0194
▁micro	-11.0195
▁animated	-11.0195
▁connecticut	-11.0195
▁dismantling	-11.0195
▁diyala	-11.0195
▁gazprom	-11.0195
▁greenpeace	-11.0195
▁mercury	-11.0195
▁mogadishu	-11.0195
▁nawaz	-11.0195
▁ransom	-11.0195
▁schwarzenegger	-11.0195
▁somewhere	-11.0195
▁strategist	-11.0195
▁thompson	-11.0195
▁heathrow	-11.0195
▁toronto	-11.0195
▁ultra	-11.0195
▁piracy	-11.0195
▁eager	-11.0195
▁rampage	-11.0195
▁approximate	-11.0195
▁madoff	-11.0195
▁observation	-11.0195
▁crocker	-11.0195
▁aig	-11.0196
▁1988	-11.0196
▁2011	-11.0196
▁bruni	-11.0197
▁revision	-11.0197
▁disable	-11.0197
▁extinction	-11.0197
▁factories	-11.0197
▁automatic	-11.0198
▁comfortable	-11.0199
▁communicate	-11.0199
▁exciting	-11.0199
▁angela	-11.0201
▁solid	-11.0201
▁mc	-11.0202
▁tries	-11.0206
▁astronomers	-11.0208
▁appearances	-11.0208
▁accounting	-11.0209
den	-11.021
▁confessed	-11.0215
▁teaching	-11.0223
▁challenger	-11.0229
▁nikk	-11.0229
▁smashed	-11.023
▁nazi	-11.0233
cc	-11.0233
▁blocks	-11.0241
▁hydro	-11.0243
▁ignored	-11.0244
▁3.5	-11.0249
▁installed	-11.0251
▁fee	-11.0251
▁challenged	-11.0255
▁severely	-11.0259
▁connected	-11.0261
▁fleeing	-11.0268
▁scandals	-11.027
▁doubled	-11.0276
▁performing	-11.0278
▁sealed	-11.0286
▁prevented	-11.0293
▁surveys	-11.0294
▁damages	-11.032
▁expanding	-11.0321
▁allen	-11.0326
▁manag	-11.0329
▁polar	-11.033
▁java	-11.0373
ara	-11.0379
▁rid	-11.0383
port	-11.0386
▁argue	-11.0387
▁billionaire	-11.0388
▁tabloid	-11.039
▁discount	-11.039
▁disorder	-11.039
▁pepper	-11.039
▁evacuation	-11.0392
▁customer	-11.0397
▁photographer	-11.04
▁aims	-11.0409
▁blog	-11.043
▁tours	-11.0431
▁wolf	-11.0434
▁checked	-11.0435
▁traded	-11.0438
▁tanks	-11.0441
▁slump	-11.0446
▁dates	-11.0452
▁cook	-11.0463
380	-11.0465
▁cooper	-11.047
▁disclose	-11.0475
.1	-11.0477
▁overwhelming	-11.0477
▁clark	-11.0478
front	-11.0478
▁hate	-11.0484
▁antarctic	-11.0484
▁magic	-11.0484
▁please	-11.0485
▁guess	-11.0486
▁atlantis	-11.0489
▁carpet	-11.0489
▁cathedral	-11.0489
▁ceremonies	-11.0489
▁crunch	-11.0489
▁denmark	-11.0489
▁epicenter	-11.0489
▁equivalent	-11.0489
▁ferguson	-11.0489
▁foster	-11.0489
▁johndroe	-11.0489
▁murphy	-11.0489
▁revenge	-11.0489
▁sevilla	-11.0489
▁spectacular	-11.0489
▁cyber	-11.0489
▁wrongdoing	-11.0489
▁hidden	-11.0489
▁bedroom	-11.0489
▁grace	-11.049
heimer	-11.049
▁seok	-11.049
▁cult	-11.049
▁tripoli	-11.049
▁bolton	-11.049
▁taiwanese	-11.0491
▁willingness	-11.0491
▁adoption	-11.0491
▁pride	-11.0493
▁paulson	-11.0493
▁survival	-11.0493
▁fastest	-11.0494
▁lg	-11.0495
▁anybody	-11.0497
▁marry	-11.0498
▁pure	-11.0498
▁participating	-11.0498
▁boxes	-11.0498
▁ethiopian	-11.05
▁useful	-11.05
▁carefully	-11.0502
▁assured	-11.0503
▁pages	-11.0503
▁opt	-11.0507
ship	-11.0507
uk	-11.0508
▁stones	-11.0508
▁7,000	-11.0509
▁shouted	-11.0511
ging	-11.0515
▁islets	-11.0515
▁appearing	-11.0517
omic	-11.0524
▁gases	-11.0526
▁employed	-11.0527
▁qualifying	-11.0528
▁entirely	-11.0539
▁110	-11.054
▁barred	-11.0541
▁withdrawn	-11.0542
▁musa	-11.056
▁prayers	-11.0562
▁odds	-11.0566
uri	-11.0568
▁finals	-11.0581
▁applications	-11.0583
▁coincide	-11.0591
▁87	-11.0595
▁ballots	-11.0596
▁secured	-11.0598
▁automakers	-11.0607
▁laser	-11.0608
▁expanded	-11.061
iling	-11.0626
▁parker	-11.0632
▁ken	-11.0634
▁lots	-11.0642
▁refus	-11.0649
▁gi	-11.0649
ions	-11.065
▁satellites	-11.0659
hal	-11.0663
▁tale	-11.0664
be	-11.067
▁theaters	-11.0674
▁criticiz	-11.0691
▁tissue	-11.0693
▁infant	-11.0694
▁mortar	-11.0695
▁technique	-11.0695
▁gift	-11.0696
▁application	-11.0696
▁bonds	-11.0697
▁guest	-11.0699
▁sum	-11.0717
▁shoe	-11.072
▁1.1	-11.072
har	-11.0724
▁holes	-11.0731
hr	-11.0731
▁install	-11.0732
house	-11.0744
▁hip	-11.0745
▁ju	-11.0745
ron	-11.0746
▁par	-11.0747
▁cent	-11.075
▁mrs	-11.0752
▁1.4	-11.0754
▁professors	-11.0758
▁remind	-11.0764
▁rings	-11.0766
▁typical	-11.0776
10	-11.0779
▁essential	-11.078
mate	-11.0781
,600	-11.0784
▁wu	-11.079
▁grade	-11.079
▁adapt	-11.0792
jennifer	-11.0792
▁ambitious	-11.0792
▁anonymous	-11.0792
▁breakfast	-11.0792
▁brussels	-11.0792
▁candidacy	-11.0792
▁caracas	-11.0792
▁financing	-11.0792
▁horta	-11.0792
▁imminent	-11.0792
▁incursion	-11.0792
▁istanbul	-11.0792
▁ivory	-11.0792
▁madonna	-11.0792
▁overhaul	-11.0792
▁pavarotti	-11.0792
▁pregnancy	-11.0792
▁pyramid	-11.0792
▁rawalpindi	-11.0792
▁scenario	-11.0792
▁shinawatra	-11.0792
▁subsequent	-11.0792
▁volatile	-11.0792
▁winfrey	-11.0792
▁accompany	-11.0792
▁oprah	-11.0792
▁anthem	-11.0792
▁afp	-11.0792
▁participation	-11.0792
▁duties	-11.0792
▁elementary	-11.0793
▁broadway	-11.0793
▁uribe	-11.0793
▁leap	-11.0793
won	-11.0793
▁raul	-11.0794
▁lisa	-11.0794
▁buzz	-11.0794
▁eruption	-11.0794
▁branches	-11.0796
▁hometown	-11.0797
▁occupied	-11.08
▁lucky	-11.0801
▁captors	-11.0803
▁tired	-11.0805
▁dodi	-11.0807
▁hui	-11.0809
▁supporter	-11.0811
▁businessman	-11.0813
▁joy	-11.0817
▁audit	-11.0818
▁mourning	-11.0819
▁shooter	-11.082
▁amin	-11.0825
▁educational	-11.0826
▁gonn	-11.0828
cha	-11.083
▁hired	-11.0836
▁lane	-11.0836
▁inmates	-11.0837
▁obligations	-11.0839
▁donations	-11.0839
▁celebrating	-11.0847
▁contributed	-11.0847
▁intent	-11.085
▁restricted	-11.0863
▁lure	-11.0865
fa	-11.0867
▁collected	-11.0883
▁fixed	-11.0901
▁sued	-11.0903
▁kicked	-11.0906
▁directors	-11.0908
▁yards	-11.092
ast	-11.0925
▁hostil	-11.0942
▁hosts	-11.0951
▁explained	-11.0954
▁sciences	-11.0956
▁households	-11.0959
▁engines	-11.0959
▁mining	-11.096
▁hike	-11.0976
▁nominees	-11.098
▁occasion	-11.1
▁counted	-11.1004
▁transplant	-11.1005
▁interrogation	-11.1005
▁predecessor	-11.1006
▁belief	-11.1007
▁offense	-11.1007
▁plate	-11.1009
▁patroll	-11.1009
▁kilometer	-11.101
▁lion	-11.1018
▁height	-11.1019
▁taxi	-11.1028
▁screening	-11.1035
▁involve	-11.1042
▁disrupt	-11.1044
▁cancel	-11.1046
▁os	-11.1046
▁violate	-11.1064
▁prefer	-11.1076
off	-11.108
▁sacrifice	-11.1088
▁swift	-11.1088
▁jihad	-11.1097
ating	-11.1098
▁smart	-11.1099
▁depict	-11.1101
▁territori	-11.1102
▁drunk	-11.1103
▁haiti	-11.1103
▁rove	-11.1103
▁betancourt	-11.1105
▁caribbean	-11.1105
▁chaudhry	-11.1105
▁crater	-11.1105
▁empire	-11.1105
▁invitation	-11.1105
▁nixon	-11.1105
▁outskirts	-11.1105
▁pichushkin	-11.1105
▁smuggling	-11.1105
▁tragic	-11.1105
▁travolta	-11.1105
▁tribunal	-11.1105
▁unicef	-11.1105
▁depth	-11.1105
▁bloomberg	-11.1105
▁manila	-11.1105
▁helmand	-11.1105
▁thanksgiving	-11.1105
▁mdc	-11.1105
▁pusan	-11.1105
▁johnston	-11.1105
▁tampa	-11.1105
▁montana	-11.1105
▁spell	-11.1105
▁website	-11.1105
▁restart	-11.1105
▁expedition	-11.1106
▁facebook	-11.1106
▁echo	-11.1106
▁merger	-11.1106
▁norway	-11.1106
▁wooden	-11.1108
▁consideration	-11.1109
▁symptoms	-11.1109
▁petrole	-11.111
▁brave	-11.1111
▁demonstrate	-11.1112
▁haul	-11.1112
▁lifetime	-11.1116
▁clay	-11.1117
▁aero	-11.1119
▁wayne	-11.112
▁ahmad	-11.112
▁somebody	-11.1121
een	-11.1124
▁clues	-11.1126
ble	-11.113
▁shouting	-11.113
▁demonstrated	-11.1135
▁guided	-11.1136
ev	-11.1138
▁ag	-11.1138
ford	-11.1141
▁electrical	-11.1143
▁characteriz	-11.1144
▁medics	-11.1145
▁breathing	-11.1146
▁cautioned	-11.1147
▁musicians	-11.115
▁attacker	-11.1153
▁jay	-11.1156
▁restored	-11.1167
▁proposals	-11.1169
▁roles	-11.1173
▁emi	-11.1173
▁glaciers	-11.1177
▁titled	-11.1196
▁nud	-11.12
▁shia	-11.1208
ral	-11.1213
▁ji	-11.1213
▁arguments	-11.1214
▁airstrikes	-11.1221
▁covers	-11.1227
station	-11.123
▁describ	-11.1233
▁attackers	-11.1246
▁caps	-11.1259
▁assume	-11.1264
▁guarantees	-11.1264
bra	-11.1276
▁monitors	-11.1279
▁celebrat	-11.1284
▁pu	-11.1292
day	-11.1295
▁posting	-11.1321
red	-11.1324
▁gunshot	-11.1327
▁treasure	-11.1327
▁endorsement	-11.1328
▁brigade	-11.1328
▁lord	-11.1329
▁deserve	-11.133
▁embryo	-11.133
▁substance	-11.133
▁publisher	-11.1332
res	-11.1336
▁gar	-11.134
▁pointing	-11.1347
▁afterward	-11.1348
▁indians	-11.136
90	-11.1367
▁confront	-11.1367
▁deploy	-11.1368
▁unveil	-11.1369
▁finds	-11.1371
▁provision	-11.1376
▁slim	-11.1378
▁les	-11.1382
▁plead	-11.1388
▁gangs	-11.1401
▁researcher	-11.1412
▁foods	-11.1412
▁evacuate	-11.1414
▁strange	-11.1424
▁extinct	-11.1425
▁unpopular	-11.1427
▁triumph	-11.1427
▁aquarium	-11.1427
▁automotive	-11.1427
▁belgian	-11.1427
▁diabetes	-11.1427
▁endeavour	-11.1427
▁existence	-11.1427
▁margaret	-11.1427
▁norwegian	-11.1427
▁reluctant	-11.1427
▁shepherd	-11.1427
▁ebay	-11.1427
▁pact	-11.1427
▁silent	-11.1427
▁stewart	-11.1427
▁warehouse	-11.1427
▁orlando	-11.1427
▁steam	-11.1427
▁framework	-11.1427
▁reunit	-11.1427
▁bathroom	-11.1427
▁optimism	-11.1427
▁biological	-11.1427
▁copyright	-11.1427
▁fortified	-11.1427
▁quell	-11.1428
▁fifa	-11.1428
▁bruce	-11.1428
▁retaliation	-11.1428
▁citizenship	-11.1428
▁outpost	-11.1428
▁cristian	-11.1428
▁kofi	-11.1428
▁cannes	-11.1428
▁bryan	-11.1428
▁jeong	-11.1428
▁usfk	-11.1429
▁stopping	-11.1429
▁pursuit	-11.1429
▁painful	-11.1429
▁lance	-11.1429
▁counties	-11.1431
▁tentative	-11.1431
▁kimchi	-11.1433
▁favorable	-11.1433
▁difficulties	-11.1434
▁ward	-11.1434
▁legislators	-11.1435
▁tennis	-11.1436
nder	-11.1437
▁luna	-11.1438
▁passes	-11.144
▁emphasized	-11.1442
aught	-11.1443
▁summoned	-11.1444
▁murders	-11.1444
▁250,000	-11.1445
▁ranks	-11.1445
▁practical	-11.1446
▁divide	-11.1446
▁spots	-11.145
▁nationals	-11.1451
▁overturned	-11.1452
▁coat	-11.1453
▁policemen	-11.1459
▁8,000	-11.1468
▁contractors	-11.1468
▁84	-11.1469
ow	-11.147
▁surged	-11.147
▁mines	-11.1471
▁mitt	-11.1473
▁belonged	-11.1474
25	-11.1476
▁joon	-11.1481
▁factions	-11.1484
▁forests	-11.1484
▁4.5	-11.1488
▁captives	-11.1489
▁ripp	-11.1495
▁powered	-11.1497
▁traditionally	-11.1498
▁lit	-11.1506
▁shame	-11.1516
▁83	-11.152
▁29,	-11.1529
▁involves	-11.1542
▁tips	-11.1542
ade	-11.1557
▁ak	-11.1561
▁drinks	-11.157
▁inspections	-11.1579
▁cor	-11.1581
ential	-11.1582
▁wrap	-11.1587
▁cur	-11.1591
▁undergo	-11.1596
▁burns	-11.1596
▁halted	-11.1604
ama	-11.1614
▁files	-11.1619
▁formula	-11.1621
▁maine	-11.1621
▁tools	-11.1624
lz	-11.1637
▁skull	-11.1662
▁airplane	-11.1662
▁precaution	-11.1663
▁pipeline	-11.1663
▁colleague	-11.1665
▁jam	-11.1665
▁farms	-11.1668
▁investor	-11.1668
▁rider	-11.1676
▁danc	-11.1676
▁serb	-11.168
▁hearings	-11.1685
▁bans	-11.169
▁discover	-11.1691
lla	-11.1694
▁defeated	-11.1697
▁select	-11.1699
gm	-11.1701
▁trails	-11.1704
▁tighten	-11.1707
town	-11.1708
▁asset	-11.171
▁owns	-11.1729
▁filming	-11.1736
▁shutt	-11.1736
▁rating	-11.1748
▁aging	-11.175
▁sounds	-11.1752
▁preserve	-11.1753
▁decrease	-11.1754
▁artificial	-11.1761
▁cholesterol	-11.1761
▁damaging	-11.1761
▁epidemic	-11.1761
▁jiabao	-11.1761
▁kurdistan	-11.1761
▁mercedes	-11.1761
▁okinawa	-11.1761
▁prescription	-11.1761
▁psychology	-11.1761
▁recognition	-11.1761
▁restructuring	-11.1761
▁verify	-11.1761
▁gibbons	-11.1761
▁tayyi	-11.1761
▁wheat	-11.1761
▁irbil	-11.1761
▁utility	-11.1761
▁mitchell	-11.1761
▁judgment	-11.1761
▁fishermen	-11.1761
▁retirement	-11.1761
▁bride	-11.1761
▁polish	-11.1761
▁1981	-11.1761
▁imf	-11.1761
▁devastated	-11.1761
▁samarra	-11.1762
▁beatles	-11.1762
▁rita	-11.1762
▁dedicated	-11.1763
▁scatter	-11.1764
▁pornography	-11.1765
▁keen	-11.1765
▁modest	-11.1765
▁brush	-11.1766
▁assassinated	-11.1766
▁sprawling	-11.1766
▁purported	-11.1768
▁takeover	-11.1769
▁defectors	-11.1774
▁humanity	-11.1775
▁soared	-11.1776
▁amazing	-11.1777
▁solutions	-11.1777
▁prolonged	-11.1778
▁examine	-11.1779
▁shattered	-11.1784
▁youngest	-11.1787
▁pipe	-11.1789
ova	-11.1794
▁routes	-11.1795
▁slowly	-11.1796
▁technically	-11.1796
▁planets	-11.1797
▁quarters	-11.1802
▁dar	-11.1802
ji	-11.1803
▁rein	-11.1809
▁advisers	-11.181
▁actively	-11.1817
▁regulators	-11.1818
▁bever	-11.1827
wai	-11.1827
▁fairly	-11.1829
▁wage	-11.1838
▁supervisor	-11.184
▁dealt	-11.1842
▁epic	-11.1844
▁gil	-11.1848
▁mini	-11.1855
▁arts	-11.1861
▁92	-11.1867
izing	-11.1871
▁visual	-11.1892
▁clients	-11.1921
▁rolling	-11.1922
cu	-11.1933
▁enable	-11.1935
▁privately	-11.1938
▁sat	-11.1939
▁arena	-11.1942
▁mob	-11.1961
▁sized	-11.1974
▁complain	-11.1979
▁manipulat	-11.1989
▁format	-11.1989
wi	-11.1994
▁fines	-11.1996
▁sleeping	-11.2003
▁institution	-11.2004
▁anne	-11.2005
▁pray	-11.2006
▁chicken	-11.2007
▁partnership	-11.2008
▁enterprise	-11.2008
▁monkey	-11.2009
▁panda	-11.2009
▁edward	-11.201
▁survivor	-11.2011
▁download	-11.2012
▁99	-11.2019
▁designer	-11.2021
▁hunter	-11.2022
▁transit	-11.2023
ze	-11.2025
▁nick	-11.2027
▁secur	-11.2028
▁stamp	-11.2028
▁generals	-11.2032
▁protested	-11.2036
▁donor	-11.2038
▁detect	-11.2043
▁kiss	-11.2045
▁distress	-11.2045
▁voter	-11.2057
signed	-11.2064
most	-11.2065
▁350	-11.2068
▁inner	-11.2069
▁quote	-11.2078
▁widow	-11.2081
▁locals	-11.2081
▁cautious	-11.2088
▁mandate	-11.2089
▁unexpected	-11.2089
▁sprint	-11.2095
▁puert	-11.2102
▁caucus	-11.2103
▁86	-11.2103
▁patriot	-11.2105
▁kidnap	-11.2105
▁bernard	-11.2105
▁ammunition	-11.2105
▁clooney	-11.2105
▁consortium	-11.2105
▁convey	-11.2105
▁crystal	-11.2105
▁declining	-11.2105
▁grandfather	-11.2105
▁grandmother	-11.2105
▁impression	-11.2105
▁intensified	-11.2105
▁kcna	-11.2105
▁legacy	-11.2105
▁nelson	-11.2105
▁saakashvili	-11.2105
▁stuck	-11.2105
▁stunning	-11.2105
▁substitute	-11.2105
▁swedish	-11.2105
▁humor	-11.2106
▁britney	-11.2106
▁sierra	-11.2106
▁consent	-11.2106
▁dignity	-11.2106
▁equipped	-11.2106
▁chairwoman	-11.2106
▁peacekeepers	-11.2106
▁capability	-11.2106
▁determination	-11.2106
▁waving	-11.2106
▁devote	-11.2106
▁gunfire	-11.2106
▁1982	-11.2106
▁hubble	-11.2106
▁nfl	-11.2106
▁autopsy	-11.2107
▁dense	-11.2107
▁implementation	-11.2107
▁heighten	-11.2108
▁steer	-11.2108
▁perino	-11.2108
▁uprising	-11.2108
▁creative	-11.2109
▁territories	-11.2109
▁presentation	-11.2109
▁hormone	-11.2109
▁symbolic	-11.211
▁susan	-11.211
▁setback	-11.2111
▁ferry	-11.2111
▁ethical	-11.2112
▁removal	-11.2113
▁shipman	-11.2115
▁midst	-11.2115
▁arson	-11.2116
84	-11.2119
▁wang	-11.212
▁marie	-11.212
▁bio	-11.2122
▁counterfeiting	-11.2125
▁antibiotics	-11.2129
▁sank	-11.213
▁linda	-11.2136
▁austrian	-11.214
▁warn	-11.2146
▁gwan	-11.2147
▁stripp	-11.2148
▁dissidents	-11.2158
▁permitt	-11.216
▁folks	-11.2162
▁carl	-11.2162
top	-11.2167
▁authors	-11.2167
▁ver	-11.2168
▁mild	-11.217
cantil	-11.217
▁18,	-11.217
▁disrupted	-11.2171
▁pastor	-11.2173
▁bae	-11.2182
▁bulls	-11.2185
▁slight	-11.2189
▁patterns	-11.2189
▁organs	-11.2189
▁ger	-11.2189
▁shah	-11.2196
▁propell	-11.2217
▁dated	-11.222
▁feeding	-11.2224
▁holidays	-11.2224
▁breaks	-11.2234
▁slowed	-11.2235
▁mega	-11.2235
▁sporting	-11.225
▁7,	-11.2252
rry	-11.2259
▁cr	-11.2272
▁youths	-11.2277
▁900	-11.2279
gotten	-11.2289
▁roots	-11.2289
▁witnessed	-11.2293
▁shelters	-11.231
itz	-11.2325
bs	-11.2327
▁raw	-11.233
▁stream	-11.2333
▁lighting	-11.2335
▁ce	-11.234
▁sponsors	-11.2341
ess	-11.2341
af	-11.2343
▁interesting	-11.2346
▁1.8	-11.2349
▁lieutenant	-11.2362
▁brick	-11.2365
▁statue	-11.2365
▁destination	-11.2365
▁contribution	-11.2365
▁blanket	-11.2366
▁barrier	-11.2367
▁inspector	-11.2368
▁sail	-11.2368
▁sessions	-11.2368
▁ash	-11.2369
▁payment	-11.2375
▁practices	-11.2387
▁defender	-11.2394
▁exceed	-11.2397
▁retreat	-11.2401
work	-11.2409
▁93	-11.2411
70	-11.2414
▁commitments	-11.2424
▁helps	-11.2429
▁swap	-11.243
▁stabilize	-11.2433
rous	-11.2434
▁heir	-11.2439
con	-11.2441
▁loose	-11.2442
▁doubts	-11.2444
▁170	-11.2445
▁oscars	-11.2445
▁obvious	-11.2446
▁exclusive	-11.2448
▁mal	-11.2448
▁enforce	-11.245
▁niger	-11.2461
manuel	-11.2462
▁voluntar	-11.2462
▁lynch	-11.2463
▁artillery	-11.2463
▁baquba	-11.2463
▁captivity	-11.2463
▁chronic	-11.2463
▁collision	-11.2463
▁fahrenheit	-11.2463
▁gusmao	-11.2463
▁happiness	-11.2463
▁laureate	-11.2463
▁lopez	-11.2463
▁mcdonald	-11.2463
▁mystery	-11.2463
▁nebraska	-11.2463
▁outlaw	-11.2463
▁protocol	-11.2463
▁spokesperson	-11.2463
▁transparent	-11.2463
▁waziristan	-11.2463
▁pioneer	-11.2463
▁propaganda	-11.2463
▁reaffirm	-11.2463
▁chosun	-11.2463
▁melbourne	-11.2463
▁douglas	-11.2463
▁trash	-11.2463
▁aziz	-11.2463
▁glori	-11.2463
▁salmonella	-11.2463
▁throne	-11.2463
▁racing	-11.2463
▁ankle	-11.2463
▁fatalities	-11.2463
▁apec	-11.2463
▁gyeonggi	-11.2463
▁rehabilitation	-11.2463
▁phenomenon	-11.2463
▁spike	-11.2463
▁railroad	-11.2463
▁irish	-11.2463
▁knife	-11.2463
▁predominant	-11.2463
▁pants	-11.2463
▁ownership	-11.2464
▁friendship	-11.2464
▁1945	-11.2464
▁bali	-11.2464
▁greenland	-11.2465
▁sophisticated	-11.2466
▁eliminate	-11.2466
▁aggression	-11.2467
▁prefecture	-11.247
▁hwan	-11.247
▁pink	-11.247
▁rick	-11.2471
▁cage	-11.2472
▁cheaper	-11.2472
▁passion	-11.2473
▁jr	-11.2474
▁reasonable	-11.2474
▁implications	-11.2475
▁filing	-11.2479
▁fisher	-11.248
ipped	-11.2482
▁hardest	-11.2483
enos	-11.2485
▁nest	-11.2486
▁cambodian	-11.2486
▁stemm	-11.2489
▁nigerian	-11.249
▁jacque	-11.2503
▁handled	-11.2503
▁archaeologists	-11.2507
▁meals	-11.2507
▁ham	-11.251
▁neighborhoods	-11.2512
▁hawking	-11.2524
ani	-11.2525
▁worsen	-11.2527
▁hassan	-11.2533
▁celebrations	-11.2543
▁bok	-11.2544
▁wildfires	-11.2546
▁easter	-11.2547
▁gaining	-11.255
▁rak	-11.2554
▁mothers	-11.2555
▁capt	-11.2561
▁mir	-11.2566
▁donors	-11.257
▁stated	-11.2572
▁annually	-11.2585
▁98	-11.259
▁deck	-11.2591
sen	-11.2596
▁operators	-11.2596
▁venues	-11.2599
▁rud	-11.26
▁performances	-11.26
apped	-11.2601
▁shirts	-11.2607
▁cd	-11.2608
forced	-11.2613
▁jointly	-11.2617
▁cre	-11.2622
▁angered	-11.2624
set	-11.263
▁aug	-11.2631
ick	-11.2634
ada	-11.2636
▁chairs	-11.2649
48	-11.2652
▁persons	-11.2653
▁penn	-11.2663
▁rebound	-11.267
och	-11.267
▁fu	-11.2673
erial	-11.2694
ire	-11.2703
▁mess	-11.2706
cular	-11.2712
▁circle	-11.272
▁runners	-11.2721
▁insist	-11.2726
▁relationships	-11.2732
▁asteroid	-11.2732
▁motive	-11.2733
▁sim	-11.2733
▁kidney	-11.2733
▁dolphin	-11.2734
▁tire	-11.2734
▁exchanges	-11.2735
▁medication	-11.2736
▁creature	-11.2737
▁odd	-11.2737
▁preparation	-11.2739
▁replac	-11.274
▁23,	-11.274
well	-11.2742
▁impos	-11.2742
▁ideal	-11.2745
▁reviewed	-11.2761
▁portray	-11.2761
▁heated	-11.2764
▁br	-11.2765
▁reopen	-11.2773
ita	-11.2777
▁hawk	-11.2778
▁suits	-11.2781
▁choices	-11.2811
▁trans	-11.2812
▁25,	-11.2821
▁careful	-11.2822
▁possess	-11.283
▁evolution	-11.2831
▁blind	-11.2832
▁pad	-11.2833
▁applicants	-11.2833
▁arnold	-11.2833
▁challenging	-11.2833
▁dokdo	-11.2833
▁elbaradei	-11.2833
▁embezzlement	-11.2833
▁fernandez	-11.2833
▁fernando	-11.2833
▁glasgow	-11.2833
▁hariri	-11.2833
▁harvey	-11.2833
▁holland	-11.2833
▁intensive	-11.2833
▁janeiro	-11.2833
▁jirga	-11.2833
▁kerviel	-11.2833
▁patience	-11.2833
▁respirator	-11.2833
▁sentencing	-11.2833
▁stearns	-11.2833
▁studied	-11.2833
▁talabani	-11.2833
▁junior	-11.2833
▁mastermind	-11.2833
▁swim	-11.2833
▁layoffs	-11.2833
▁refrain	-11.2833
▁slush	-11.2833
▁thwart	-11.2833
▁oath	-11.2833
▁ftse	-11.2833
▁historian	-11.2833
▁russell	-11.2833
▁breast	-11.2833
▁logistic	-11.2833
▁fujimori	-11.2833
▁indictment	-11.2833
▁sugar	-11.2833
▁stanley	-11.2833
▁decree	-11.2834
▁brig	-11.2834
▁victories	-11.2834
▁bosnia	-11.2834
▁circuit	-11.2834
▁milestone	-11.2834
▁faithful	-11.2834
▁1984	-11.2835
▁liberty	-11.2835
▁ignore	-11.2835
jo	-11.2835
▁constitute	-11.2835
▁transmission	-11.2835
▁minus	-11.2836
▁exhibition	-11.2836
▁comeback	-11.2837
▁secretive	-11.2837
▁trademark	-11.2837
▁consumed	-11.2838
ters	-11.2838
▁restraint	-11.2839
▁antarctica	-11.2839
▁releases	-11.2839
▁script	-11.2839
▁unanimously	-11.284
els	-11.2841
▁formation	-11.2841
▁ethics	-11.2842
▁goldman	-11.2844
▁editorial	-11.2844
▁dance	-11.2846
▁fisc	-11.2846
rmal	-11.2847
▁reserves	-11.2849
▁beaches	-11.2849
▁bra	-11.285
▁chanted	-11.2852
▁dominica	-11.2853
lan	-11.2854
▁overwhelmingly	-11.2854
▁shelves	-11.2857
▁400,000	-11.2857
▁tactics	-11.2861
▁roy	-11.2863
▁flare	-11.2872
cious	-11.2877
▁barr	-11.2885
▁settled	-11.2887
8,000	-11.289
soo	-11.2894
zi	-11.2894
hner	-11.2897
▁slot	-11.2899
▁enhance	-11.2901
▁complaining	-11.2902
▁shipments	-11.2905
▁tribes	-11.2908
▁8,	-11.291
▁quarterfinals	-11.2927
ward	-11.2938
▁languages	-11.2947
▁em	-11.2955
▁measured	-11.2955
▁issu	-11.2955
▁strengthening	-11.2962
rin	-11.2977
▁sharks	-11.2983
king	-11.2984
ego	-11.2994
light	-11.3005
tta	-11.3013
▁experiments	-11.3016
bar	-11.3024
47	-11.3025
▁anna	-11.3029
▁climbing	-11.3032
▁oppos	-11.3036
▁rap	-11.3045
▁function	-11.3048
▁nis	-11.3049
▁intend	-11.3064
▁answered	-11.3065
lateral	-11.307
▁mor	-11.307
▁span	-11.3073
▁sha	-11.3076
ney	-11.3089
war	-11.3092
▁neil	-11.3093
▁critic	-11.3093
ther	-11.3097
▁examin	-11.3097
▁conclude	-11.3108
▁surviv	-11.3111
▁pension	-11.3117
▁motorcycle	-11.3117
▁fence	-11.3119
▁biologist	-11.3119
▁elephant	-11.3121
▁quarterfinal	-11.3121
▁manufacturer	-11.3123
▁negotiation	-11.3125
▁horse	-11.3131
6,000	-11.3143
nt	-11.3146
▁assess	-11.3156
▁bearing	-11.3159
▁sk	-11.3169
maker	-11.3169
▁cry	-11.3172
ball	-11.3172
▁infiltrat	-11.3174
▁choos	-11.3184
▁thoughts	-11.319
▁sooner	-11.3198
▁concerts	-11.3199
▁smooth	-11.32
▁dismantle	-11.32
▁ultimate	-11.3201
▁intervene	-11.3202
▁plunge	-11.3202
▁shake	-11.3202
▁fueled	-11.3203
▁mus	-11.3205
▁monarch	-11.3206
ome	-11.321
▁interpret	-11.3211
▁guitar	-11.3214
▁au	-11.3215
shi	-11.3216
▁bolt	-11.3216
▁gyeong	-11.3218
▁1953	-11.3218
▁1979	-11.3218
▁acquisition	-11.3218
▁arafat	-11.3218
▁arkansas	-11.3218
▁batteries	-11.3218
▁cairo	-11.3218
▁cattle	-11.3218
▁cousin	-11.3218
▁downturn	-11.3218
▁ethanol	-11.3218
▁franchise	-11.3218
▁gravity	-11.3218
▁holocaust	-11.3218
▁impressive	-11.3218
▁jankovic	-11.3218
▁kazakhstan	-11.3218
▁libby	-11.3218
▁monica	-11.3218
▁nightclub	-11.3218
▁petersburg	-11.3218
▁premium	-11.3218
▁psychologist	-11.3218
▁rhode	-11.3218
▁shadow	-11.3218
▁spitzer	-11.3218
▁starbucks	-11.3218
▁sunshine	-11.3218
▁transparency	-11.3218
▁undisclosed	-11.3218
▁vacuum	-11.3218
▁vershbow	-11.3218
▁brilliant	-11.3218
▁kospi	-11.3218
▁ourselves	-11.3218
▁transcript	-11.3218
▁flexible	-11.3218
▁terrible	-11.3218
▁monster	-11.3218
▁sketch	-11.3218
▁memories	-11.3218
▁tuck	-11.3218
▁smell	-11.3218
▁leonard	-11.3218
▁isolation	-11.3218
▁parole	-11.3218
▁extent	-11.3218
▁garage	-11.3218
▁curious	-11.3218
▁emba	-11.3218
▁spice	-11.3218
▁xvi	-11.3218
▁mikh	-11.3218
▁geit	-11.3219
▁harmful	-11.3219
▁bribes	-11.3219
▁sensitivity	-11.3219
▁kwon	-11.3219
▁pageant	-11.322
▁romance	-11.322
▁basically	-11.322
▁decisive	-11.322
▁meantime	-11.322
▁representation	-11.322
all	-11.322
▁2014	-11.3221
▁robotic	-11.3221
▁entitled	-11.3221
▁lima	-11.3223
▁fifty	-11.3223
▁condolences	-11.3223
▁hammer	-11.3224
▁progressive	-11.3225
▁motivated	-11.3225
▁binding	-11.3227
▁consist	-11.3228
▁imprisoned	-11.3228
▁drowned	-11.3228
▁diverse	-11.3229
▁busan	-11.323
▁shoppers	-11.3231
▁pois	-11.3236
▁jiang	-11.3238
▁knut	-11.3244
ert	-11.3245
▁incentives	-11.3246
▁speeches	-11.325
▁deeper	-11.3252
▁60,000	-11.3255
▁prostitutes	-11.3258
▁developers	-11.3259
▁bash	-11.3268
▁rear	-11.3276
▁incheon	-11.328
▁sheets	-11.3281
▁grenades	-11.3281
▁recommendations	-11.3285
▁sars	-11.3287
▁kam	-11.329
▁aires	-11.3297
▁cigarettes	-11.3304
▁difficulty	-11.3306
▁cartoons	-11.3306
▁choi	-11.3306
▁bath	-11.3307
▁aftershocks	-11.3308
▁creatures	-11.3319
▁murdered	-11.3322
▁assisted	-11.3322
▁gal	-11.3328
▁secrets	-11.3329
▁suv	-11.3331
etic	-11.3335
▁weakened	-11.3341
▁weighed	-11.3341
▁pave	-11.3342
car	-11.3345
▁networking	-11.3351
▁container	-11.3365
▁implemented	-11.3369
▁ram	-11.3391
▁pf	-11.3399
▁abused	-11.3415
▁bother	-11.3439
ttled	-11.3442
▁cop	-11.3444
▁justices	-11.3444
▁diamonds	-11.3447
▁stra	-11.3452
▁drill	-11.3453
▁encounter	-11.3458
head	-11.3469
▁des	-11.3471
▁suspicions	-11.3489
▁russians	-11.3492
▁compar	-11.3493
▁feelings	-11.3493
▁ross	-11.3495
▁2.2	-11.3499
▁vers	-11.35
▁collid	-11.3515
▁ea	-11.3515
▁globes	-11.3517
▁outdoor	-11.3517
▁casino	-11.3518
▁spaniard	-11.352
▁disruption	-11.352
▁ambulance	-11.352
▁pattern	-11.3521
▁ana	-11.3523
▁acre	-11.3524
▁slide	-11.3525
▁prayer	-11.3528
▁finger	-11.353
▁inaugura	-11.3535
▁organ	-11.3542
▁deposit	-11.3544
pr	-11.3551
▁surf	-11.3552
▁races	-11.3554
▁abolish	-11.3557
▁medicines	-11.356
▁troubles	-11.3571
▁adam	-11.3572
wood	-11.3574
▁graduat	-11.3582
▁honest	-11.359
▁holder	-11.3595
▁contents	-11.3595
▁pra	-11.3605
▁101	-11.3605
▁27,	-11.3606
▁luck	-11.3608
▁slum	-11.3612
▁presum	-11.3614
ullah	-11.3614
▁surplus	-11.3614
lie	-11.3617
▁excess	-11.3617
▁nervous	-11.3617
▁uncertain	-11.3617
▁grim	-11.3617
▁recep	-11.3618
▁1975	-11.3618
▁accurate	-11.3618
▁acquitted	-11.3618
▁anthony	-11.3618
▁austin	-11.3618
▁cincinnati	-11.3618
▁companion	-11.3618
▁contingent	-11.3618
▁espionage	-11.3618
▁frankfurt	-11.3618
▁ghraib	-11.3618
▁gonzalez	-11.3618
▁inappropriate	-11.3618
▁intensity	-11.3618
▁irresponsible	-11.3618
▁johannesburg	-11.3618
▁lincoln	-11.3618
▁mccartney	-11.3618
▁overthrow	-11.3618
▁radiation	-11.3618
▁sequence	-11.3618
▁stunned	-11.3618
▁sufficient	-11.3618
▁tremendous	-11.3618
▁yousuf	-11.3618
▁deutsch	-11.3618
▁excuse	-11.3618
▁irregularities	-11.3618
▁pearl	-11.3618
▁notorious	-11.3618
▁vista	-11.3618
▁psychological	-11.3618
▁basketball	-11.3618
▁extradition	-11.3618
▁confusion	-11.3618
▁imprisonment	-11.3618
▁atrocities	-11.3618
▁ashore	-11.3618
▁disgrace	-11.3618
▁battered	-11.3618
▁premature	-11.3618
▁tenure	-11.3618
▁paparazzi	-11.3618
▁streak	-11.3618
▁yeah	-11.3618
▁rift	-11.3618
▁shaking	-11.3618
▁prosperity	-11.3618
▁easing	-11.3618
▁1973	-11.3618
▁orthodox	-11.3618
▁qualified	-11.3619
▁gerry	-11.3619
▁dramatically	-11.3619
▁plotting	-11.3619
▁portland	-11.362
▁grammy	-11.362
▁devil	-11.362
▁787	-11.3621
▁panic	-11.3622
▁courtroom	-11.3622
▁soft	-11.3623
▁explorer	-11.3625
▁zimbabwean	-11.3626
▁indefinitely	-11.3627
▁mechanical	-11.3627
▁kitty	-11.3627
▁diagnosed	-11.3628
▁viruses	-11.3631
▁barry	-11.3632
tar	-11.3634
▁safer	-11.3636
▁103	-11.3641
▁bloc	-11.3641
▁poses	-11.3643
▁divers	-11.3643
▁underway	-11.3644
apping	-11.3644
▁191	-11.3645
▁disclosed	-11.3648
▁portal	-11.3649
▁anbar	-11.3658
tu	-11.366
▁chips	-11.3661
▁employers	-11.3661
▁semi	-11.3666
▁ratio	-11.367
▁sensor	-11.367
▁scared	-11.367
▁cole	-11.3675
▁sincere	-11.3676
▁cab	-11.3683
▁outlets	-11.3684
▁tam	-11.3684
dium	-11.3689
▁worsening	-11.3689
eb	-11.3697
▁slain	-11.3698
▁flowers	-11.37
▁7.9	-11.3702
▁fal	-11.3703
▁lenders	-11.3705
▁semifinals	-11.3707
lam	-11.3708
▁rebuilding	-11.3709
▁counterterroris	-11.3717
▁bon	-11.3719
▁bet	-11.3728
▁wages	-11.3735
▁browne	-11.3746
▁populations	-11.3747
45	-11.3754
▁eta	-11.3766
iz	-11.3769
▁listening	-11.3774
▁boris	-11.3778
▁savings	-11.378
▁lungs	-11.3781
eng	-11.3782
▁negotiated	-11.3782
▁jane	-11.3799
▁asks	-11.3799
▁pun	-11.38
▁mong	-11.3803
▁consult	-11.3816
▁credits	-11.3821
▁beam	-11.3831
ee	-11.384
▁genes	-11.3844
▁earthquakes	-11.3857
▁pets	-11.386
▁cartoon	-11.3861
▁acknowledg	-11.3872
▁belong	-11.3872
▁permit	-11.3873
ile	-11.3892
▁fitt	-11.3907
▁reductions	-11.3909
▁vest	-11.3915
bel	-11.3917
▁emerge	-11.3925
▁throat	-11.3932
▁explanation	-11.3933
▁mammoth	-11.3933
▁tumor	-11.3933
▁fruit	-11.3935
▁strait	-11.3935
▁expense	-11.3935
▁79	-11.3936
▁mask	-11.3937
▁objective	-11.3937
▁migrant	-11.3937
▁snake	-11.3937
▁aftershock	-11.3938
▁glacier	-11.3938
▁wildfire	-11.3938
▁priest	-11.3939
▁allegation	-11.394
▁improvement	-11.394
▁flin	-11.3941
▁farmer	-11.3962
▁dreams	-11.3966
▁slaughter	-11.3973
▁relax	-11.3975
▁pressures	-11.3979
▁ah	-11.398
▁directing	-11.3984
▁val	-11.3987
▁soul	-11.3993
ico	-11.3995
▁2.3	-11.3996
▁breed	-11.3997
▁bull	-11.4002
▁pav	-11.4004
room	-11.4009
▁89	-11.4013
▁spin	-11.4015
▁unsuccessful	-11.4017
▁reign	-11.4018
ology	-11.402
▁midwest	-11.4025
▁michel	-11.4032
▁assert	-11.4033
▁falluja	-11.4033
▁corn	-11.4034
▁750	-11.4034
▁municipal	-11.4034
▁armistice	-11.4034
▁avenue	-11.4034
▁bizarre	-11.4034
▁bmw	-11.4034
▁damascus	-11.4034
▁default	-11.4034
▁embassies	-11.4034
▁genuine	-11.4034
▁hawass	-11.4034
▁incredibly	-11.4034
▁intellectual	-11.4034
▁kashmir	-11.4034
▁maradona	-11.4034
▁misdemeanor	-11.4034
▁osaka	-11.4034
▁phillies	-11.4034
▁qassam	-11.4034
▁relevant	-11.4034
▁rogge	-11.4034
▁rouge	-11.4034
▁satisfie	-11.4034
▁schneider	-11.4034
▁somehow	-11.4034
▁subsidiary	-11.4034
▁superintendent	-11.4034
▁trophy	-11.4034
▁vault	-11.4034
▁laurean	-11.4034
▁reckless	-11.4034
▁silva	-11.4034
▁whistle	-11.4034
▁introduction	-11.4034
▁venus	-11.4034
▁jeffrey	-11.4034
▁havana	-11.4034
▁earliest	-11.4034
▁farewell	-11.4034
▁smiling	-11.4034
▁hamburg	-11.4034
▁woolmer	-11.4034
▁beloved	-11.4034
▁interfax	-11.4034
▁rugged	-11.4035
▁hatred	-11.4035
▁ismail	-11.4035
▁signature	-11.4035
▁infantry	-11.4035
▁tamil	-11.4035
▁zhang	-11.4035
▁bonuses	-11.4035
▁addiction	-11.4035
▁honda	-11.4035
▁jamie	-11.4035
▁christie	-11.4035
▁mattel	-11.4036
▁colonel	-11.4036
▁maoist	-11.4036
▁veterinarian	-11.4036
▁laura	-11.4037
▁fallout	-11.4037
▁dili	-11.4037
▁iceland	-11.4037
▁barak	-11.4037
▁arthur	-11.4038
▁distan	-11.4038
▁prodi	-11.4041
▁coroner	-11.4042
▁basement	-11.4042
▁liu	-11.4044
▁sheep	-11.4044
▁bulgarian	-11.4044
▁controlling	-11.4044
▁portable	-11.4045
▁brothels	-11.4049
▁phillips	-11.4049
▁blessing	-11.4052
▁watchers	-11.4052
▁propose	-11.4054
itive	-11.4055
▁essentially	-11.4057
▁projections	-11.4059
▁matsu	-11.4059
▁spurr	-11.406
▁channels	-11.406
▁walker	-11.4062
▁gary	-11.4062
▁facts	-11.4064
▁drain	-11.407
▁bees	-11.4076
▁cheering	-11.4077
▁produces	-11.4078
▁equally	-11.4082
▁apartments	-11.4089
▁participated	-11.4093
▁ze	-11.4093
▁relaxed	-11.4094
▁headlines	-11.4099
▁disabled	-11.41
▁criticize	-11.4103
▁crying	-11.4104
▁pin	-11.4109
tro	-11.411
▁countryside	-11.4112
▁grabs	-11.412
az	-11.4121
▁bodyguards	-11.4124
▁raj	-11.4126
▁belongs	-11.4133
▁economics	-11.4134
▁bur	-11.4136
▁dire	-11.4137
▁elephants	-11.414
▁horses	-11.4141
lon	-11.4144
▁tally	-11.4146
▁tense	-11.4152
▁independently	-11.4153
▁monkeys	-11.4153
▁hunters	-11.4158
▁holders	-11.416
▁basin	-11.4165
ye	-11.4167
ified	-11.417
▁gifts	-11.417
▁processing	-11.417
▁unite	-11.4175
▁await	-11.4176
60	-11.4181
▁leaked	-11.4186
▁fur	-11.4197
▁conflicts	-11.4201
▁tone	-11.4206
▁forever	-11.4212
▁cleaner	-11.4218
▁nationalist	-11.4223
▁shocking	-11.4238
▁filling	-11.424
▁bullets	-11.4241
▁135	-11.4242
▁farming	-11.4242
ger	-11.4242
yman	-11.4247
▁fail	-11.4254
▁pill	-11.426
ane	-11.4261
▁fla	-11.4272
▁prizes	-11.4276
▁zones	-11.4276
▁sch	-11.4284
▁450	-11.4284
▁fortress	-11.4286
▁tapes	-11.4288
▁sta	-11.4291
▁arrange	-11.4294
▁sections	-11.4296
▁mails	-11.4298
▁chemicals	-11.43
▁com	-11.4304
▁sounded	-11.4306
▁intel	-11.431
▁afghans	-11.4311
▁nominat	-11.4316
ett	-11.4322
▁pri	-11.4324
▁hae	-11.4336
▁counterparts	-11.4338
▁semifinal	-11.4366
▁fossil	-11.4368
▁elder	-11.4369
▁toddler	-11.437
▁stronghold	-11.437
▁administrator	-11.437
▁hd	-11.4371
▁detective	-11.4371
▁cigarette	-11.4372
▁celebration	-11.4374
▁torre	-11.4374
one	-11.4374
▁blues	-11.4374
▁walter	-11.4375
▁qua	-11.4378
▁liter	-11.4382
ros	-11.4385
▁retrieve	-11.4387
▁alleg	-11.4401
▁dome	-11.4401
▁kil	-11.4403
▁dismiss	-11.4405
▁240	-11.4407
gs	-11.4407
▁lean	-11.4408
▁caution	-11.441
▁buck	-11.4411
▁appoint	-11.4411
▁nurs	-11.4412
▁buyer	-11.4414
▁sometime	-11.442
pp	-11.4421
▁crop	-11.4422
▁districts	-11.4427
▁presid	-11.4428
▁belonging	-11.4436
▁drag	-11.4438
▁estonia	-11.4451
▁eventual	-11.4453
▁acquire	-11.4457
bank	-11.4463
cher	-11.4465
,800	-11.4465
▁item	-11.4467
▁courage	-11.4468
▁wreck	-11.4469
▁francis	-11.4469
▁array	-11.4469
▁arroyo	-11.4469
▁bbk	-11.4469
▁caretaker	-11.4469
▁chocolate	-11.4469
▁cricket	-11.4469
▁deposed	-11.4469
▁extremism	-11.4469
▁glimpse	-11.4469
▁idaho	-11.4469
▁innocence	-11.4469
▁karbala	-11.4469
▁minneapolis	-11.4469
▁offshore	-11.4469
▁powder	-11.4469
▁radcliffe	-11.4469
▁reunification	-11.4469
▁sacramento	-11.4469
▁santiago	-11.4469
▁stomach	-11.4469
▁subsidies	-11.4469
▁tomatoes	-11.4469
▁umbrella	-11.4469
▁zoellick	-11.4469
▁cluster	-11.4469
▁mysterious	-11.4469
▁unchanged	-11.4469
▁baltimore	-11.4469
▁bicycle	-11.4469
▁definition	-11.4469
▁identification	-11.4469
▁kitchen	-11.4469
▁contrary	-11.4469
▁oversight	-11.4469
▁comedian	-11.4469
▁muqtada	-11.4469
▁blunt	-11.4469
▁alfred	-11.4469
▁gps	-11.4469
▁squid	-11.4469
▁organizing	-11.4469
▁wives	-11.4469
,900	-11.4469
▁exploration	-11.4469
▁click	-11.4469
▁mouse	-11.4469
▁linger	-11.447
▁literally	-11.447
▁grain	-11.447
▁glow	-11.447
▁harrison	-11.447
▁healthcare	-11.447
▁lightning	-11.447
▁stunt	-11.447
▁bible	-11.4471
▁uncle	-11.4471
▁contentious	-11.4471
▁coordination	-11.4471
▁organic	-11.4471
▁mummy	-11.4471
▁undp	-11.4472
▁voluntarily	-11.4472
▁ledger	-11.4472
▁dorm	-11.4472
▁drunken	-11.4472
▁siege	-11.4473
▁measurement	-11.4473
▁rejection	-11.4473
▁delight	-11.4473
▁1,800	-11.4473
▁sharia	-11.4473
▁cloned	-11.4474
▁cameron	-11.4475
▁viacom	-11.4475
▁guardian	-11.4475
▁bulk	-11.4475
▁bread	-11.4475
▁deem	-11.4476
▁toppled	-11.4477
▁concentrated	-11.4478
▁dug	-11.4478
▁dirty	-11.4479
▁autonomy	-11.4479
▁rico	-11.4481
▁bout	-11.4482
▁yankees	-11.4484
▁marr	-11.4484
▁deliberately	-11.4485
▁kr	-11.4489
▁seeming	-11.4489
▁ufo	-11.449
▁anyway	-11.4492
▁chunk	-11.4493
▁outline	-11.4496
▁zan	-11.4498
▁dual	-11.4498
▁examiner	-11.4501
▁highways	-11.4501
▁northwester	-11.4504
▁para	-11.4505
▁churches	-11.4507
tun	-11.4507
▁baker	-11.4509
▁fatally	-11.4509
▁divorced	-11.4513
▁nk	-11.4514
▁guarded	-11.4515
▁commemorate	-11.4518
▁chin	-11.4518
▁slogans	-11.4519
▁prisons	-11.452
fo	-11.4521
▁wings	-11.4522
▁tortured	-11.4527
▁eased	-11.4528
▁meteorologi	-11.4528
▁breeding	-11.4536
▁consulting	-11.4537
▁jun	-11.4538
ium	-11.4539
▁rig	-11.454
▁hadley	-11.454
▁accelerate	-11.4541
▁forecasts	-11.4542
▁scholars	-11.4545
▁taxpayers	-11.4545
ip	-11.4547
▁bombed	-11.4552
▁pal	-11.4552
▁trials	-11.4555
tt	-11.4561
▁cooking	-11.4564
▁priests	-11.4571
ww	-11.4577
▁dot	-11.4578
▁endorse	-11.4585
▁speaks	-11.4591
▁pandas	-11.4593
tra	-11.4597
chum	-11.4607
▁booked	-11.4623
▁opinions	-11.4626
▁tag	-11.4628
▁specialists	-11.4631
▁twins	-11.4633
illa	-11.4633
▁cle	-11.4635
bound	-11.465
▁qar	-11.4651
yang	-11.4665
▁committees	-11.4666
▁kenyans	-11.4669
▁bridges	-11.4669
nell	-11.4672
ability	-11.4672
4,000	-11.4673
▁bor	-11.4677
▁tr	-11.4678
▁conversations	-11.4685
▁si	-11.4689
77	-11.4691
,100	-11.4691
▁ark	-11.4695
▁qu	-11.4714
▁independents	-11.4741
▁origin	-11.4743
▁provok	-11.4763
▁highlights	-11.4765
▁dig	-11.4769
unt	-11.477
▁compil	-11.4779
▁28,	-11.4782
ise	-11.4789
▁clip	-11.4794
▁mil	-11.48
▁informal	-11.4804
▁digit	-11.4811
▁ceiling	-11.4823
▁protein	-11.4823
▁exam	-11.4825
▁fingerprint	-11.4825
▁graphic	-11.4825
lley	-11.4826
▁component	-11.4826
▁bodyguard	-11.4827
▁regulation	-11.4829
ries	-11.4834
thy	-11.4838
▁prop	-11.484
▁kt	-11.4842
▁ignor	-11.4847
▁19,	-11.4849
▁declines	-11.485
▁fidel	-11.4855
▁employ	-11.4857
▁boast	-11.4863
held	-11.487
▁menu	-11.4877
water	-11.4881
▁developments	-11.4883
▁arch	-11.4884
shift	-11.4887
▁jud	-11.4896
▁guatemala	-11.4897
▁pond	-11.4897
▁topic	-11.4903
▁romania	-11.4904
▁internationally	-11.4907
▁junichi	-11.4908
▁spare	-11.4911
▁frost	-11.4911
▁bust	-11.4912
▁explore	-11.4916
▁answers	-11.4919
▁couch	-11.492
▁recess	-11.4922
responsibilities	-11.4924
▁annapolis	-11.4924
▁database	-11.4924
▁disappointment	-11.4924
▁fantastic	-11.4924
▁fitzgerald	-11.4924
▁frustration	-11.4924
▁greenspan	-11.4924
▁handgun	-11.4924
▁hardware	-11.4924
▁identities	-11.4924
▁illicit	-11.4924
▁immune	-11.4924
▁lennon	-11.4924
▁lhasa	-11.4924
▁lpga	-11.4924
▁millenni	-11.4924
▁ministries	-11.4924
▁multinational	-11.4924
▁negroponte	-11.4924
▁nintendo	-11.4924
▁overweight	-11.4924
▁polaroid	-11.4924
▁portrait	-11.4924
▁provocative	-11.4924
▁quartet	-11.4924
▁scratch	-11.4924
▁sumatra	-11.4924
▁taipei	-11.4924
▁ukrainian	-11.4924
▁undecided	-11.4924
▁wield	-11.4924
▁anxious	-11.4924
▁venice	-11.4924
▁sachs	-11.4924
▁levinson	-11.4924
▁masri	-11.4924
▁recount	-11.4924
▁suharto	-11.4924
▁solomon	-11.4924
▁federline	-11.4924
▁gambling	-11.4924
▁jewelry	-11.4924
▁priorities	-11.4924
▁properties	-11.4924
▁slavery	-11.4924
▁serena	-11.4924
▁rashid	-11.4924
▁frontrunner	-11.4924
▁discrimination	-11.4924
▁casualty	-11.4924
▁informant	-11.4924
▁harper	-11.4924
▁dependent	-11.4924
▁perception	-11.4924
▁uncertainty	-11.4924
▁unconscious	-11.4924
▁supervision	-11.4924
▁interstate	-11.4924
▁bobby	-11.4925
▁cabin	-11.4925
▁duke	-11.4925
▁blatter	-11.4925
▁midday	-11.4925
▁jason	-11.4925
▁condemnation	-11.4925
▁rack	-11.4925
▁reception	-11.4925
▁batch	-11.4925
▁steadily	-11.4926
▁showdown	-11.4926
▁yale	-11.4926
▁workplace	-11.4926
▁ugly	-11.4927
▁richie	-11.4927
▁attractive	-11.4927
▁hover	-11.4927
▁rehab	-11.4928
▁educated	-11.4928
▁wii	-11.4929
▁bidding	-11.4929
▁hung	-11.493
▁contaminated	-11.4931
▁ravaged	-11.4931
▁hire	-11.4931
▁colony	-11.4933
made	-11.4934
▁wip	-11.4935
▁conceded	-11.4936
▁horn	-11.4937
▁neal	-11.4937
▁gradually	-11.4937
▁creator	-11.4939
▁bp	-11.4941
▁relieved	-11.4941
▁superb	-11.4943
▁dominate	-11.4945
▁economically	-11.4945
▁avoided	-11.4949
▁12,000	-11.4949
▁gorillas	-11.4953
▁procession	-11.4955
uala	-11.4958
▁debates	-11.4958
▁addresses	-11.4959
org	-11.4959
▁jean	-11.4963
▁besides	-11.4967
▁goh	-11.4969
▁arrangements	-11.4976
35	-11.4976
▁campaigners	-11.4981
▁hos	-11.4982
hill	-11.4982
▁holed	-11.4988
▁defined	-11.4989
▁installations	-11.499
mat	-11.499
▁neo	-11.499
,300	-11.4992
▁irritat	-11.4992
▁cheers	-11.4998
▁sect	-11.4999
▁thi	-11.4999
▁nurses	-11.5
ua	-11.5001
▁leone	-11.5005
▁preferr	-11.5006
▁screens	-11.5009
▁examined	-11.5017
ible	-11.5019
lessly	-11.502
▁pills	-11.5026
▁elders	-11.5027
ping	-11.5027
▁hell	-11.503
ugh	-11.5037
▁migrants	-11.5037
▁hon	-11.504
gel	-11.5042
▁committ	-11.5043
▁honors	-11.5045
▁math	-11.5055
▁iranians	-11.5057
▁designers	-11.5059
▁mat	-11.5063
▁maca	-11.507
▁strengthened	-11.5071
▁muscles	-11.5081
▁ears	-11.5085
▁laptops	-11.509
uda	-11.5091
▁till	-11.5093
▁uniforms	-11.5095
▁rats	-11.5097
lashed	-11.5098
▁popp	-11.5099
pate	-11.5099
▁kare	-11.5121
▁strained	-11.5121
▁liver	-11.5122
nnie	-11.5124
▁wi	-11.5128
rie	-11.5129
▁hopefuls	-11.5137
▁marriages	-11.5148
▁timing	-11.5156
▁priced	-11.5157
▁prospects	-11.517
ew	-11.5178
oun	-11.5184
▁billy	-11.5197
12	-11.5201
▁contacts	-11.5207
▁26,	-11.5211
▁pcs	-11.5215
dana	-11.5216
22	-11.5226
▁94	-11.5233
▁deliberate	-11.5254
lit	-11.5263
▁cu	-11.5268
▁refer	-11.5269
wan	-11.5274
▁resist	-11.5274
▁counting	-11.5275
▁nu	-11.5282
29	-11.5285
▁rever	-11.5289
▁grab	-11.5293
40	-11.5294
ay	-11.5294
▁pakistanis	-11.5295
▁premiere	-11.5295
▁evaluation	-11.5298
▁chart	-11.5299
▁denial	-11.5301
▁citi	-11.5301
lene	-11.5301
▁assertion	-11.5302
▁desk	-11.5302
▁spur	-11.5303
▁drought	-11.5303
▁jeff	-11.5303
▁tribe	-11.5303
▁immigrant	-11.5304
▁flick	-11.5305
▁filmmaker	-11.5305
▁lakes	-11.5305
▁advances	-11.5306
▁brands	-11.5307
▁sanction	-11.5308
▁breath	-11.5316
▁belt	-11.5318
▁measur	-11.5327
▁generations	-11.5327
ef	-11.5331
▁lap	-11.5336
▁qualify	-11.5336
▁favorites	-11.5337
▁smash	-11.5341
▁commanding	-11.5345
load	-11.5352
▁tent	-11.5353
uring	-11.5355
space	-11.5356
air	-11.5359
aware	-11.5363
▁grip	-11.5365
▁trader	-11.5366
fish	-11.5368
▁alter	-11.5372
15	-11.5373
▁280	-11.5382
▁nationally	-11.5382
▁ethiopia	-11.5383
▁random	-11.5383
ku	-11.5384
▁croatia	-11.5384
▁invite	-11.5384
▁stole	-11.5386
▁autonom	-11.5389
sef	-11.5389
▁investigati	-11.5398
▁weakness	-11.5399
▁vigil	-11.5399
▁confine	-11.5399
▁franco	-11.54
▁1949	-11.54
▁1978	-11.54
▁apollo	-11.54
▁armstrong	-11.54
▁assurance	-11.54
▁axelrod	-11.54
▁battalion	-11.54
▁berkeley	-11.54
▁broadband	-11.54
▁cinema	-11.54
▁deportation	-11.54
▁escalating	-11.54
▁fertility	-11.54
▁fragile	-11.54
▁gallery	-11.54
▁griffin	-11.54
▁himalaya	-11.54
▁jazeera	-11.54
▁kathmandu	-11.54
▁lindsay	-11.54
▁luggage	-11.54
▁merchant	-11.54
▁miliband	-11.54
▁recycling	-11.54
▁scrutiny	-11.54
▁seafood	-11.54
▁tainted	-11.54
▁tycoon	-11.54
▁workforce	-11.54
▁zarqawi	-11.54
▁hicks	-11.54
▁implant	-11.54
▁observatory	-11.54
▁stockpile	-11.54
▁glad	-11.54
▁overlook	-11.54
▁youssif	-11.54
▁staple	-11.54
▁verification	-11.54
▁oxford	-11.54
▁poultry	-11.54
▁unspe	-11.54
▁itunes	-11.54
▁piano	-11.54
▁garcia	-11.54
▁unilateral	-11.54
▁blake	-11.54
▁boulder	-11.54
▁persistent	-11.54
▁keith	-11.54
▁apologies	-11.54
▁malawi	-11.54
▁atleti	-11.54
▁tongue	-11.54
▁rubber	-11.54
▁terrain	-11.54
▁foley	-11.54
▁claren	-11.54
▁basque	-11.54
▁dictatorship	-11.54
▁quest	-11.54
▁kumar	-11.54
▁dentist	-11.54
▁fiction	-11.5401
▁flock	-11.5401
▁vietnamese	-11.5401
▁shwe	-11.5401
▁underwear	-11.5401
▁bench	-11.5401
▁programming	-11.5401
▁fitness	-11.5402
▁harmony	-11.5402
▁soften	-11.5402
▁wander	-11.5402
uous	-11.5402
▁darkness	-11.5402
▁smokers	-11.5403
▁facial	-11.5403
cified	-11.5403
▁1910	-11.5403
▁emanuel	-11.5403
▁1,400	-11.5403
▁establishment	-11.5404
▁logo	-11.5404
▁lineup	-11.5405
▁rioters	-11.5405
▁affordable	-11.5405
▁dave	-11.5406
▁sympathy	-11.5406
▁makeup	-11.5412
▁manufactured	-11.5412
▁noise	-11.5412
▁triple	-11.5417
▁koo	-11.5417
▁owen	-11.5417
bn	-11.5417
▁upheld	-11.5418
▁fold	-11.5418
▁tender	-11.5418
99	-11.5418
▁fier	-11.5419
▁accidentally	-11.5421
▁lucas	-11.5422
▁biden	-11.5424
▁tumbled	-11.5425
▁helpful	-11.5426
▁congressman	-11.5427
aki	-11.5427
▁paralyzed	-11.5427
▁extract	-11.5428
hand	-11.5428
▁117	-11.543
▁sacked	-11.5431
▁publicity	-11.5431
▁kar	-11.544
▁airliner	-11.5441
▁textbooks	-11.545
▁shim	-11.5452
▁sox	-11.5458
▁exporters	-11.5462
▁balanced	-11.5463
▁requirements	-11.5464
▁6,000	-11.5467
▁lawn	-11.5472
more	-11.5481
▁pigs	-11.5484
latter	-11.549
▁habits	-11.5491
▁plains	-11.5493
▁bore	-11.5494
▁slumped	-11.5498
berg	-11.5499
▁clips	-11.5503
ably	-11.5506
▁din	-11.5507
▁fails	-11.5509
▁pot	-11.5509
▁backers	-11.5514
▁painted	-11.5516
▁adams	-11.5517
▁qa	-11.5518
▁winger	-11.5521
▁photographed	-11.5522
▁tires	-11.5527
▁risky	-11.5537
▁seasonal	-11.5538
▁erect	-11.5544
▁surrendered	-11.5545
▁riders	-11.5545
▁embryos	-11.5546
▁substances	-11.5546
▁initiat	-11.5555
▁salt	-11.5559
▁div	-11.5561
▁hy	-11.5564
▁rifles	-11.5565
▁novels	-11.557
▁ye	-11.5572
▁experiences	-11.5572
▁separatists	-11.5575
hmer	-11.5575
▁rioting	-11.5578
mm	-11.5581
▁vo	-11.5584
▁fixing	-11.5585
▁resemble	-11.5589
▁slowing	-11.5596
63	-11.5602
▁py	-11.5602
▁inland	-11.561
▁passports	-11.5614
ax	-11.5618
lese	-11.5619
▁remembered	-11.5622
▁trailer	-11.5627
▁geo	-11.5631
▁wheels	-11.5631
ano	-11.5637
▁ci	-11.5647
▁exchanged	-11.5654
▁layer	-11.5656
▁assum	-11.5662
▁fann	-11.5662
▁cables	-11.5663
▁carriers	-11.5663
▁carrie	-11.5668
lecommunications	-11.5669
▁mel	-11.5675
▁clouds	-11.5677
▁tut	-11.5682
▁errors	-11.5692
▁shoulders	-11.5694
20	-11.5694
▁convene	-11.5695
▁comet	-11.5696
nc	-11.5701
▁hi	-11.5715
▁utter	-11.5716
▁justin	-11.5731
▁mann	-11.5738
ide	-11.574
▁orchestrat	-11.5741
▁mode	-11.5743
▁melt	-11.5758
ib	-11.5763
95	-11.5767
▁publish	-11.5769
▁190	-11.577
▁smile	-11.5771
▁greatly	-11.5772
▁pr	-11.5774
▁plac	-11.5775
▁twist	-11.5776
▁rated	-11.5777
▁outbreaks	-11.578
▁adventure	-11.5785
▁domain	-11.5798
▁lecture	-11.5798
▁pocket	-11.5798
▁conglomerate	-11.5799
▁physician	-11.5801
▁massage	-11.5802
▁classroom	-11.5803
▁transaction	-11.5804
awa	-11.5804
▁commuter	-11.5804
▁captive	-11.5805
▁contender	-11.5808
▁lender	-11.5809
▁shipment	-11.581
▁debts	-11.5814
▁plain	-11.5815
▁surg	-11.5815
▁complet	-11.5823
▁achiev	-11.5825
▁pirate	-11.5827
old	-11.583
▁jimm	-11.583
▁lover	-11.5833
▁catholics	-11.5834
▁agrees	-11.5835
▁reli	-11.5836
▁oust	-11.5836
▁adjust	-11.5837
▁embarrass	-11.5839
▁colors	-11.584
▁infect	-11.584
western	-11.5845
▁associates	-11.5848
ren	-11.585
▁franc	-11.585
chasing	-11.5865
rank	-11.5866
ula	-11.5868
ram	-11.5871
▁skill	-11.5874
planes	-11.5877
▁bump	-11.5882
▁algeria	-11.5883
▁surprising	-11.5883
▁unfortunate	-11.5883
▁disperse	-11.5883
cover	-11.5886
1,000	-11.5886
▁victor	-11.5886
nprofit	-11.5888
▁necessar	-11.5889
▁210	-11.5889
away	-11.5889
▁aborigin	-11.5897
▁vocal	-11.5897
▁inspiration	-11.59
▁1965	-11.59
▁albatross	-11.59
▁applaud	-11.59
▁applause	-11.59
▁calendar	-11.59
▁canberra	-11.59
▁categories	-11.59
▁chapel	-11.59
▁chungcheong	-11.59
▁collapsing	-11.59
▁commonwealth	-11.59
▁curator	-11.59
▁dementia	-11.59
▁demilitariz	-11.59
▁disarm	-11.59
▁efficiency	-11.59
▁eleven	-11.59
▁exxon	-11.59
▁gossip	-11.59
▁hsbc	-11.59
▁intact	-11.59
▁intelligent	-11.59
▁juvenile	-11.59
▁keynote	-11.59
▁lesbian	-11.59
▁mediterranean	-11.59
▁newcastle	-11.59
▁noriega	-11.59
▁prototype	-11.59
▁scorsese	-11.59
▁scuffle	-11.59
▁significance	-11.59
▁solidarity	-11.59
▁stalemate	-11.59
▁wheelchair	-11.59
▁wyoming	-11.59
▁abraham	-11.59
▁disclosure	-11.59
▁replied	-11.59
▁wrist	-11.59
▁gerrard	-11.59
▁studded	-11.59
▁pretend	-11.59
▁scope	-11.59
▁copper	-11.59
▁purchasing	-11.59
▁cecilia	-11.59
▁snack	-11.59
▁rogue	-11.59
▁jurors	-11.59
▁torrent	-11.59
▁zheng	-11.59
▁strife	-11.59
▁screaming	-11.59
▁diane	-11.59
▁barrage	-11.59
▁beverage	-11.59
▁fiber	-11.59
▁ashley	-11.59
▁klein	-11.5901
▁1983	-11.5901
▁rahman	-11.5901
▁cordon	-11.5901
▁kwang	-11.5901
▁1985	-11.5901
▁childhood	-11.5901
▁discoveries	-11.5901
▁attendance	-11.5902
▁evans	-11.5902
▁collaboration	-11.5902
▁referee	-11.5902
▁kiev	-11.5902
▁2050	-11.5902
▁acceptance	-11.5903
▁township	-11.5904
▁disposal	-11.5904
▁instructor	-11.5905
▁frustrated	-11.5905
▁discharged	-11.5906
▁cartel	-11.5907
▁kitt	-11.5907
bas	-11.5908
▁regulatory	-11.591
▁thriller	-11.5911
▁daylight	-11.5911
▁sook	-11.5912
▁hook	-11.5914
▁kha	-11.5915
▁bypass	-11.5916
▁poorest	-11.5917
▁clarke	-11.5919
▁observe	-11.592
▁respects	-11.5921
▁staffers	-11.5924
▁tenor	-11.5924
▁ty	-11.5926
▁6.5	-11.5927
▁mcc	-11.5928
▁chanting	-11.5928
▁departed	-11.5929
ular	-11.5931
▁shy	-11.5931
▁painting	-11.5934
▁chased	-11.5934
▁accidental	-11.5936
▁bros	-11.5936
▁bands	-11.594
▁spann	-11.5942
▁rangers	-11.5943
▁designate	-11.5943
▁rattl	-11.5944
▁preserved	-11.5947
▁sidelines	-11.5948
▁rim	-11.5948
▁offend	-11.5948
▁observed	-11.5948
▁sinking	-11.5951
mmy	-11.5952
▁conservationist	-11.5956
▁alma	-11.5957
▁butler	-11.5959
▁pledges	-11.5965
ido	-11.5965
▁bann	-11.5966
▁awaited	-11.5969
▁pi	-11.5974
▁turks	-11.5976
▁dinosaurs	-11.5978
▁attractions	-11.5979
▁expires	-11.5979
fu	-11.5979
ich	-11.5982
▁albanians	-11.5983
▁bounce	-11.5984
▁porn	-11.5985
▁dealer	-11.5988
▁providers	-11.5989
▁valued	-11.599
▁seasons	-11.5991
▁edged	-11.5994
burg	-11.5995
▁2.6	-11.5996
▁discs	-11.5996
▁commuters	-11.5998
▁turner	-11.5999
▁arabian	-11.6002
▁males	-11.6008
▁nickname	-11.6016
▁snakes	-11.6018
▁cracked	-11.6026
ria	-11.6038
▁blankets	-11.6039
▁enterprises	-11.6044
76	-11.6046
▁eva	-11.6046
▁serbs	-11.6049
▁keeper	-11.6049
▁adj	-11.6052
▁graves	-11.6055
▁packages	-11.6058
▁naturally	-11.606
▁techniques	-11.6064
▁stretched	-11.6065
▁commands	-11.6074
▁cafes	-11.6075
▁fog	-11.6078
afa	-11.608
▁disc	-11.6085
oli	-11.6087
▁australians	-11.6089
▁infections	-11.609
▁aspect	-11.6094
▁dumping	-11.6096
▁um	-11.6096
▁ny	-11.6101
▁kal	-11.6105
▁habit	-11.6106
▁inning	-11.6107
▁lander	-11.6108
▁towers	-11.611
▁tur	-11.6113
28	-11.6115
▁dell	-11.6115
▁indications	-11.6126
▁16,	-11.6131
▁governors	-11.6136
zy	-11.6144
ez	-11.6147
67	-11.6153
▁finances	-11.6154
▁seas	-11.616
▁revenues	-11.6161
▁brains	-11.6164
▁thu	-11.6168
▁27.	-11.6168
▁sw	-11.6179
▁6.3	-11.618
▁structures	-11.6181
understood	-11.6194
▁gallons	-11.6197
low	-11.6203
▁reactors	-11.621
▁kicks	-11.6216
▁travels	-11.6219
nce	-11.6219
chen	-11.6221
▁mccanns	-11.6222
▁requir	-11.6235
▁nah	-11.6243
tis	-11.6245
97	-11.6248
▁monte	-11.6257
▁scam	-11.626
dominant	-11.6263
cent	-11.6272
14	-11.6281
▁contribut	-11.6286
shin	-11.6298
aking	-11.6303
anford	-11.6311
gar	-11.6314
▁tops	-11.6317
▁hid	-11.6319
.25	-11.632
▁exercises	-11.6321
▁homicide	-11.6325
▁blockbuster	-11.6326
▁pistol	-11.6326
▁saint	-11.6328
▁shareholder	-11.633
▁extremist	-11.633
vin	-11.6331
▁julia	-11.6332
▁expression	-11.6333
▁lan	-11.634
▁chuck	-11.6342
▁fe	-11.636
▁scare	-11.6362
▁scrambl	-11.6362
▁inspect	-11.6362
▁cope	-11.6363
▁advertis	-11.6363
36	-11.6364
ks	-11.6368
▁sisters	-11.6373
9,000	-11.6374
▁hom	-11.6375
▁neutral	-11.6379
▁flower	-11.6381
▁dangers	-11.6383
▁rankings	-11.6383
▁appealing	-11.6385
▁7.2	-11.6385
▁mobil	-11.6393
▁speeding	-11.6393
gb	-11.6394
grid	-11.6397
▁bent	-11.6398
▁stir	-11.64
▁rad	-11.6404
▁jamaica	-11.6409
▁disagree	-11.6409
▁absolute	-11.641
nom	-11.6411
▁claus	-11.6413
▁imperial	-11.6415
▁colon	-11.6415
▁dirt	-11.6416
▁kph	-11.6423
▁distinct	-11.6425
▁seize	-11.6425
▁collins	-11.6426
▁trauma	-11.6426
▁unhapp	-11.6426
▁115	-11.6426
▁amsterdam	-11.6426
▁bogota	-11.6426
▁branson	-11.6426
▁bribery	-11.6426
▁bronze	-11.6426
▁cholera	-11.6426
▁confederation	-11.6426
▁convincing	-11.6426
▁cycling	-11.6426
▁deputies	-11.6426
▁djokovic	-11.6426
▁embargo	-11.6426
▁emperor	-11.6426
▁evangelical	-11.6426
▁external	-11.6426
▁forensic	-11.6426
▁furniture	-11.6426
▁goodwill	-11.6426
▁gorbachev	-11.6426
▁hectare	-11.6426
▁kangaroo	-11.6426
▁lauterbach	-11.6426
▁leather	-11.6426
▁library	-11.6426
▁lifestyle	-11.6426
▁mainstream	-11.6426
▁mcconnell	-11.6426
▁mechanism	-11.6426
▁pancreati	-11.6426
▁parachute	-11.6426
▁parallel	-11.6426
▁perspective	-11.6426
▁phuket	-11.6426
▁proclaim	-11.6426
▁retiring	-11.6426
▁robust	-11.6426
▁rwanda	-11.6426
▁unlawful	-11.6426
▁unofficial	-11.6426
▁valuable	-11.6426
▁yasukuni	-11.6426
▁animation	-11.6426
▁caffeine	-11.6426
▁cameroon	-11.6426
▁physics	-11.6426
▁plug	-11.6426
▁spider	-11.6426
▁spiral	-11.6426
▁storage	-11.6426
▁differ	-11.6426
▁evasion	-11.6426
▁deported	-11.6426
▁destabilize	-11.6426
▁solving	-11.6426
▁blackmail	-11.6426
▁capabilities	-11.6426
▁comparison	-11.6426
▁fireworks	-11.6426
▁miracle	-11.6426
▁bubble	-11.6426
▁clerk	-11.6426
▁madison	-11.6426
▁colombo	-11.6426
▁drift	-11.6426
▁vincent	-11.6426
▁spree	-11.6426
▁thunder	-11.6426
▁lottery	-11.6426
▁munich	-11.6426
▁snatch	-11.6426
▁trek	-11.6426
▁rampant	-11.6426
▁keating	-11.6426
▁garner	-11.6426
▁manual	-11.6427
▁bunch	-11.6427
▁snapped	-11.6427
▁restoration	-11.6427
▁constructive	-11.6427
▁widening	-11.6427
▁leaf	-11.6427
▁consulate	-11.6427
▁trump	-11.6427
▁qala	-11.6427
▁haniya	-11.6427
▁salary	-11.6427
▁vick	-11.6427
▁lyon	-11.6427
▁disablement	-11.6427
▁1964	-11.6427
▁methane	-11.6428
▁authorization	-11.6428
▁meteorologist	-11.6428
▁blackwater	-11.6428
▁buyout	-11.6429
▁salmon	-11.6429
▁truman	-11.6429
▁cough	-11.6429
▁leung	-11.6429
▁picket	-11.643
▁everyday	-11.643
▁chadian	-11.643
▁blitzer	-11.643
▁nts	-11.643
▁peterson	-11.643
▁1930	-11.6431
▁mullah	-11.6431
▁downplay	-11.6431
▁coastline	-11.6432
▁diversity	-11.6432
▁nec	-11.6433
▁usher	-11.6433
▁1,600	-11.6433
▁interpreter	-11.6434
▁jang	-11.6435
▁justified	-11.6435
▁courthouse	-11.6435
▁profitable	-11.6436
▁joel	-11.6436
▁shipp	-11.6437
▁usgs	-11.6437
85	-11.6438
▁ensur	-11.6438
▁restrain	-11.6439
▁oriented	-11.6441
▁im	-11.6441
▁readers	-11.6443
▁confidential	-11.6444
▁gibbs	-11.6444
▁2.4	-11.6447
▁breathe	-11.6447
▁intervened	-11.6448
▁soap	-11.645
▁lyrics	-11.645
▁hijacked	-11.6454
▁bloggers	-11.6455
▁dive	-11.6456
▁hood	-11.6458
▁soda	-11.6459
▁notified	-11.646
▁lag	-11.6461
▁von	-11.6462
▁karim	-11.6464
▁enduring	-11.6465
▁carla	-11.6466
▁limbs	-11.6466
▁outlin	-11.6467
▁tail	-11.6469
▁diverted	-11.6473
▁swat	-11.6474
▁exploited	-11.6478
▁emotions	-11.6482
▁scan	-11.6483
ilo	-11.6483
▁waged	-11.6484
▁hir	-11.6485
▁ltd	-11.6486
▁archives	-11.6487
▁scrambling	-11.649
▁eliminated	-11.6491
▁britons	-11.6493
▁licensed	-11.6496
▁lessons	-11.6499
▁surfaced	-11.65
▁cro	-11.6507
▁balloons	-11.6508
▁mammals	-11.6508
▁coins	-11.6509
▁7.1	-11.6514
▁advocates	-11.6514
▁kan	-11.6519
▁jen	-11.652
▁clan	-11.6525
▁kissing	-11.6526
dan	-11.6527
▁define	-11.6529
▁3.3	-11.6531
▁filmmakers	-11.6535
▁hoi	-11.6535
▁prey	-11.6539
▁recruited	-11.6539
▁components	-11.654
ue	-11.6544
▁solo	-11.6544
▁torres	-11.6546
▁secretly	-11.6547
▁improvements	-11.6551
▁dai	-11.6553
▁gr	-11.6561
▁0.5	-11.6565
▁promptly	-11.6566
ative	-11.6566
▁medications	-11.6567
▁costa	-11.6571
▁harmed	-11.6573
▁helen	-11.6574
elena	-11.658
▁plates	-11.6594
ned	-11.6602
▁levi	-11.6602
▁reviews	-11.6603
▁presents	-11.6605
▁bipartisan	-11.6609
▁roofs	-11.661
▁argues	-11.6611
▁aggravat	-11.6613
▁drives	-11.6615
▁karl	-11.6615
▁shields	-11.6626
▁cam	-11.6632
▁leaking	-11.6637
▁conventional	-11.665
owed	-11.6652
▁booming	-11.6653
ky	-11.6654
▁donat	-11.6665
je	-11.6677
37,000	-11.668
▁cas	-11.6691
rome	-11.6692
▁vir	-11.6693
bon	-11.6694
▁brac	-11.6695
▁christin	-11.67
trapped	-11.6702
▁candle	-11.6702
fire	-11.6711
▁symbols	-11.6713
▁32,	-11.6716
▁owe	-11.672
▁yan	-11.6722
ice	-11.6723
▁cac	-11.6724
▁operates	-11.6724
ailing	-11.6725
▁contested	-11.6725
▁stricke	-11.6726
ato	-11.6735
lm	-11.6742
inal	-11.6743
inous	-11.6747
tted	-11.6751
▁17,	-11.6753
▁hoon	-11.6758
▁0.4	-11.6759
stein	-11.6768
▁rem	-11.6769
▁clinics	-11.6778
aron	-11.6783
tri	-11.6786
kat	-11.6786
tel	-11.679
▁cure	-11.6792
▁96	-11.6801
▁licenses	-11.6811
▁sup	-11.6811
▁bas	-11.6815
▁defin	-11.6816
▁shiites	-11.6824
▁mates	-11.6824
▁tar	-11.6825
▁alien	-11.6828
▁sampl	-11.6836
▁suppress	-11.6838
▁toured	-11.6845
istic	-11.6848
▁arrivals	-11.6854
▁recalls	-11.6857
▁hun	-11.6858
ex	-11.6859
▁frame	-11.6863
▁scal	-11.6865
▁polled	-11.6868
▁defect	-11.6868
▁update	-11.6868
ami	-11.6871
▁regulator	-11.6874
▁frog	-11.688
▁scholar	-11.6885
▁taxpayer	-11.6885
rat	-11.6885
▁pig	-11.6886
▁cycle	-11.6886
▁recommendation	-11.6887
▁sailor	-11.6888
▁distribut	-11.6888
▁bounc	-11.6889
▁defendant	-11.689
lp	-11.6894
qui	-11.6899
▁experienc	-11.6909
▁hack	-11.691
▁singles	-11.6911
▁inform	-11.6913
▁97	-11.6917
▁cloth	-11.6919
▁faction	-11.692
▁gene	-11.692
▁surpass	-11.6921
▁persi	-11.6922
aid	-11.6923
hab	-11.693
▁dies	-11.6941
27	-11.6944
spoken	-11.6944
▁founding	-11.6949
▁tri	-11.6954
▁defi	-11.6955
▁fle	-11.6955
▁tournaments	-11.6959
▁tube	-11.6962
san	-11.6964
▁gradual	-11.6965
▁sore	-11.6966
▁collective	-11.6966
▁assure	-11.6967
▁hurting	-11.6969
▁guilt	-11.6971
use	-11.6977
,700	-11.6978
▁veterinar	-11.6979
▁balk	-11.698
▁archaeologi	-11.698
▁loya	-11.6981
▁blank	-11.6981
▁bahrain	-11.6982
▁burglary	-11.6982
▁celsius	-11.6982
▁charred	-11.6982
▁compatriot	-11.6982
▁crawford	-11.6982
▁daejeon	-11.6982
▁defence	-11.6982
▁exploring	-11.6982
▁fantasy	-11.6982
▁fatigue	-11.6982
▁gibson	-11.6982
▁grandchildren	-11.6982
▁grateful	-11.6982
▁humiliating	-11.6982
▁ideology	-11.6982
▁immense	-11.6982
▁kasparov	-11.6982
▁landfall	-11.6982
▁looming	-11.6982
▁lucrative	-11.6982
▁memorabilia	-11.6982
▁memphis	-11.6982
▁messenger	-11.6982
▁miserable	-11.6982
▁nistelrooy	-11.6982
▁pandemic	-11.6982
▁precinct	-11.6982
▁productivity	-11.6982
▁ritual	-11.6982
▁somewhat	-11.6982
▁staunch	-11.6982
▁substantive	-11.6982
▁syndrome	-11.6982
▁testosterone	-11.6982
▁tikrit	-11.6982
▁translation	-11.6982
▁translator	-11.6982
▁unauthorized	-11.6982
▁unbeaten	-11.6982
▁watson	-11.6982
▁zapeta	-11.6982
▁deplor	-11.6982
▁jefferson	-11.6982
▁rojas	-11.6982
▁sacred	-11.6982
▁unesco	-11.6982
▁obstruct	-11.6982
▁reassure	-11.6982
▁reprocess	-11.6982
▁queensland	-11.6982
▁norris	-11.6982
▁paramount	-11.6982
▁infring	-11.6982
▁lynn	-11.6982
▁ronaldinho	-11.6982
▁gauge	-11.6982
▁preston	-11.6982
▁garbage	-11.6982
▁heaven	-11.6982
▁interference	-11.6982
▁khalid	-11.6982
▁baggage	-11.6982
▁embark	-11.6982
▁capello	-11.6982
▁verified	-11.6982
▁wholesale	-11.6982
▁snap	-11.6982
▁fabio	-11.6982
▁liaison	-11.6982
▁lehman	-11.6982
▁cruz	-11.6982
▁dadullah	-11.6982
▁destructive	-11.6982
▁lavish	-11.6982
▁prosper	-11.6982
▁shaft	-11.6982
▁rigging	-11.6982
▁sergeant	-11.6982
▁presley	-11.6982
▁tokto	-11.6982
▁brent	-11.6982
▁feud	-11.6983
▁dodge	-11.6983
▁seminar	-11.6983
▁considerably	-11.6983
▁1968	-11.6983
▁recruitment	-11.6983
▁stiff	-11.6983
▁anxiety	-11.6983
▁forbes	-11.6983
▁transformation	-11.6983
▁reliable	-11.6984
▁liga	-11.6984
▁brutality	-11.6984
▁spies	-11.6984
▁pullout	-11.6984
▁evolutionary	-11.6984
▁weird	-11.6984
▁equality	-11.6984
▁outrageous	-11.6985
▁kidman	-11.6985
▁hardship	-11.6985
▁horror	-11.6985
▁wise	-11.6986
arlie	-11.6987
▁distributor	-11.6987
▁newborn	-11.6987
▁vary	-11.6988
▁sharon	-11.6988
▁hello	-11.6988
▁francois	-11.6989
05	-11.699
▁2030	-11.699
▁spectators	-11.699
state	-11.699
▁illnesses	-11.6991
▁pub	-11.6991
▁biology	-11.6992
▁hak	-11.6992
▁107	-11.6993
▁alcoholic	-11.6993
▁deliveries	-11.6993
▁nike	-11.6993
▁ruth	-11.6993
▁distribute	-11.6994
▁therapy	-11.6997
▁metro	-11.6998
▁contracting	-11.6998
▁splash	-11.6999
▁digging	-11.6999
,400	-11.7
▁surprisingly	-11.7002
▁14,000	-11.7002
▁qud	-11.7002
▁acceptable	-11.7004
▁roller	-11.7005
▁byeon	-11.7007
▁swiftly	-11.7012
fl	-11.7012
▁traced	-11.7014
▁descended	-11.7015
▁80,000	-11.7017
▁chae	-11.7018
▁asean	-11.7018
▁eli	-11.7019
▁disturbing	-11.702
has	-11.7023
▁penguins	-11.7024
▁uci	-11.7024
▁mont	-11.7024
▁squeez	-11.7029
▁sightings	-11.7029
▁servants	-11.7029
▁pur	-11.703
▁hampered	-11.7031
▁searches	-11.7041
▁earning	-11.7041
▁freedoms	-11.7048
lain	-11.7048
▁todd	-11.705
▁resisted	-11.7053
▁suppliers	-11.7058
▁combine	-11.7062
▁disk	-11.7067
▁cardinals	-11.7069
▁objections	-11.7069
ennis	-11.7071
▁proven	-11.7072
▁fr	-11.7073
▁bel	-11.7074
▁mps	-11.7074
▁tina	-11.7079
▁thatcher	-11.7082
ians	-11.7084
▁uni	-11.7093
▁mari	-11.7093
bur	-11.7097
▁julie	-11.7097
▁lovers	-11.7097
19	-11.7099
asha	-11.7105
wo	-11.7108
▁walters	-11.711
pping	-11.7118
▁draws	-11.7119
▁ambulances	-11.712
▁comb	-11.7122
▁receiver	-11.7122
▁1.9	-11.7125
▁ir	-11.7138
▁capitalist	-11.7145
▁3.7	-11.7145
43	-11.7145
▁precautions	-11.7148
▁sting	-11.7149
▁jams	-11.715
col	-11.7156
▁tan	-11.7158
▁serial	-11.7158
▁memo	-11.716
▁severed	-11.7163
▁monitored	-11.7176
▁recruits	-11.7177
▁checkpoints	-11.7182
▁crist	-11.7189
▁vaccines	-11.7199
▁platforms	-11.7205
board	-11.7211
ito	-11.7214
wal	-11.7215
▁cooling	-11.7221
aj	-11.7224
▁skipp	-11.7225
▁lucian	-11.7229
▁timo	-11.7231
gone	-11.7232
▁kyong	-11.7232
▁dose	-11.7233
▁dvds	-11.7239
▁mun	-11.7242
▁stalinis	-11.725
waiting	-11.7255
▁ble	-11.727
▁prints	-11.7273
ore	-11.7278
▁spying	-11.7287
rg	-11.7292
▁underscore	-11.7293
bye	-11.7293
▁winston	-11.7298
▁360	-11.7307
▁chains	-11.7314
▁91	-11.7321
zone	-11.7328
▁germans	-11.7343
ola	-11.7361
▁dealings	-11.7366
gged	-11.7375
▁gre	-11.7381
▁hurl	-11.7382
▁mit	-11.739
▁approaching	-11.74
▁filmed	-11.7405
▁pine	-11.7405
▁suicides	-11.7415
▁cy	-11.7417
▁nod	-11.7419
▁dear	-11.7419
seong	-11.7428
▁forth	-11.7432
lar	-11.7433
▁epi	-11.7436
▁gro	-11.7442
▁stan	-11.7447
42	-11.7449
ites	-11.7456
▁sensation	-11.7458
▁seizure	-11.7468
▁peanut	-11.747
▁indoor	-11.747
yer	-11.747
▁outfit	-11.7471
▁operative	-11.7472
▁instrument	-11.7472
▁advocate	-11.7473
▁1,4	-11.7474
▁grenade	-11.7476
▁surgeon	-11.748
▁folk	-11.7483
▁disabl	-11.7483
▁albanian	-11.7483
▁purchases	-11.7487
▁165	-11.7489
▁gag	-11.7491
▁slid	-11.7491
▁zin	-11.7491
▁enters	-11.7497
▁145	-11.7499
▁contend	-11.7501
▁lend	-11.7503
▁borrow	-11.7503
▁lett	-11.7504
▁ivan	-11.7507
▁enact	-11.7507
▁gran	-11.7509
▁persuad	-11.7509
aa	-11.7511
▁calculat	-11.7511
▁stall	-11.7514
ls	-11.7518
▁responses	-11.7524
▁dock	-11.7526
power	-11.7529
▁barb	-11.7542
▁domini	-11.7543
▁dip	-11.7545
▁freely	-11.7547
▁precise	-11.7552
▁adequate	-11.7553
▁upgrade	-11.7553
▁speakers	-11.7554
▁concede	-11.7554
▁locate	-11.7554
▁appreciate	-11.7558
▁feat	-11.7564
▁sheet	-11.7564
▁mp	-11.7565
▁clemen	-11.7566
cation	-11.7568
▁carve	-11.7568
▁homosexual	-11.7569
▁smuggle	-11.7569
▁1962	-11.757
▁amusement	-11.757
▁antiquities	-11.757
▁auvinen	-11.757
▁brisbane	-11.757
▁capsule	-11.757
▁currencies	-11.757
▁depressed	-11.757
▁deteriorating	-11.757
▁escalation	-11.757
▁gloom	-11.757
▁guangdong	-11.757
▁guangzhou	-11.757
▁hamilton	-11.757
▁hewitt	-11.757
▁incredible	-11.757
▁integrity	-11.757
▁jupiter	-11.757
▁khartoum	-11.757
▁litvinenko	-11.757
▁maintenance	-11.757
▁marijuana	-11.757
▁mbeki	-11.757
▁oecd	-11.757
▁plunging	-11.757
▁pyeongchang	-11.757
▁pyeongyang	-11.757
▁quebec	-11.757
▁reconsider	-11.757
▁roadmap	-11.757
▁safeguard	-11.757
▁schuster	-11.757
▁sluggish	-11.757
▁sorenstam	-11.757
▁trafford	-11.757
▁tsonga	-11.757
▁vancouver	-11.757
▁1972	-11.757
▁armenian	-11.757
▁backlash	-11.757
▁commentator	-11.757
▁disband	-11.757
▁embezzl	-11.757
▁kurds	-11.757
▁saddened	-11.757
▁technological	-11.757
▁liberia	-11.757
▁whereabouts	-11.757
▁yushchenko	-11.757
▁celest	-11.757
▁filipino	-11.757
▁humpback	-11.757
▁sickened	-11.757
▁sultan	-11.757
▁literature	-11.757
▁charm	-11.757
▁complications	-11.757
▁delicate	-11.757
▁clown	-11.757
▁dignitar	-11.757
▁definitive	-11.757
▁ferraro	-11.757
▁lumpur	-11.757
▁rhythm	-11.757
▁stallone	-11.757
▁dmitr	-11.757
▁morocco	-11.757
▁pedro	-11.757
▁precedent	-11.757
▁plame	-11.757
▁battleground	-11.757
▁spawn	-11.757
▁canyon	-11.757
▁magnetic	-11.757
▁passionate	-11.757
▁minorities	-11.757
▁occurring	-11.757
▁blade	-11.757
▁defiant	-11.757
▁rigged	-11.757
▁exploitation	-11.7571
▁darling	-11.7571
▁stint	-11.7571
▁xiang	-11.7571
▁woke	-11.7571
▁forthcoming	-11.7571
▁raging	-11.7571
▁kaka	-11.7571
▁nepalese	-11.7571
▁theories	-11.7571
▁funny	-11.7571
▁installment	-11.7571
▁mourners	-11.7571
▁absorb	-11.7571
▁honey	-11.7571
▁descent	-11.7571
▁liquidity	-11.7572
▁clutch	-11.7572
▁1967	-11.7572
▁checkup	-11.7572
▁mtv	-11.7572
▁posing	-11.7572
▁1977	-11.7572
▁integration	-11.7572
▁riza	-11.7572
▁roland	-11.7573
▁chess	-11.7573
▁coordinator	-11.7573
▁cake	-11.7573
▁canoe	-11.7573
▁waiver	-11.7574
▁persist	-11.7574
▁cowell	-11.7575
▁finalize	-11.7575
▁viable	-11.7575
▁occasionally	-11.7576
▁blackout	-11.7576
▁xp	-11.7576
▁alvar	-11.7577
▁levy	-11.7577
acent	-11.7577
▁reef	-11.7578
▁heroes	-11.7578
▁engulfed	-11.7579
▁overwhelmed	-11.7579
▁scar	-11.7579
▁simultaneously	-11.758
▁wta	-11.758
▁perry	-11.7581
▁middleton	-11.7581
▁render	-11.7582
▁grandson	-11.7582
▁ditch	-11.7583
▁unified	-11.7585
▁composed	-11.7586
▁bury	-11.7587
▁gill	-11.7587
64	-11.7587
▁console	-11.7588
wind	-11.759
▁artifacts	-11.7591
▁excerpts	-11.7591
▁accessible	-11.7591
▁sochi	-11.7591
▁shower	-11.7592
▁beheaded	-11.7594
▁1,19	-11.7594
▁126	-11.7598
▁theatre	-11.76
▁jem	-11.76
▁hyung	-11.76
▁sheik	-11.7601
▁wto	-11.7601
eck	-11.7602
▁successes	-11.7602
▁anytime	-11.7603
▁launches	-11.7607
▁shrinking	-11.7611
▁litter	-11.7612
▁kilograms	-11.7615
▁quietly	-11.7617
▁mentally	-11.7619
▁guaranteed	-11.762
▁acquired	-11.7623
hard	-11.7623
▁2.7	-11.7626
▁speculated	-11.7627
court	-11.7637
▁sue	-11.7637
▁gripp	-11.7638
▁ruins	-11.7639
▁bark	-11.7642
▁fer	-11.7644
▁disagreements	-11.7645
▁frankly	-11.7646
ddie	-11.7655
▁consultations	-11.7657
▁physically	-11.7661
▁revived	-11.7664
▁transmitt	-11.7668
▁instruments	-11.7669
▁bat	-11.7674
▁asif	-11.7675
▁eyed	-11.7684
ock	-11.7685
▁boil	-11.7686
▁2.9	-11.769
▁violently	-11.7709
▁masks	-11.7711
▁crushed	-11.7711
dding	-11.7715
▁broadcasts	-11.7723
▁statues	-11.7735
▁renounce	-11.7743
▁kath	-11.7744
▁dispos	-11.7745
▁pipelines	-11.7747
▁joke	-11.7749
vy	-11.7757
▁offenses	-11.7759
▁lions	-11.7761
▁warns	-11.7767
▁butter	-11.777
ure	-11.7771
▁evacuations	-11.7771
olla	-11.7775
▁toilets	-11.7777
las	-11.7781
▁bite	-11.7785
▁vent	-11.7787
▁lighter	-11.7789
▁merit	-11.7791
▁articles	-11.7801
▁convictions	-11.7808
▁sever	-11.781
▁custom	-11.7812
▁succeeded	-11.7817
▁blacks	-11.7819
▁railways	-11.782
▁killers	-11.782
▁nurse	-11.7823
▁costly	-11.7825
▁dipp	-11.7827
ok	-11.7829
▁3.2	-11.7834
ique	-11.7836
▁debated	-11.7837
mb	-11.7841
03	-11.7853
▁2.8	-11.786
put	-11.7862
qu	-11.7871
art	-11.7881
93	-11.7884
▁sci	-11.7892
ika	-11.7899
▁ker	-11.7909
▁restor	-11.7912
▁corporations	-11.7929
55	-11.7936
ect	-11.7941
▁plagu	-11.7943
spects	-11.7947
erry	-11.7951
▁gh	-11.7961
▁sar	-11.7972
▁cove	-11.798
▁cub	-11.7983
▁voices	-11.7993
3,000	-11.7995
▁sided	-11.8001
▁ung	-11.801
▁skip	-11.8011
39	-11.8012
▁dub	-11.802
▁professionals	-11.8035
▁congratulate	-11.8035
anana	-11.8044
▁assaulted	-11.8044
ility	-11.8052
▁bend	-11.8066
▁disappear	-11.8071
▁08	-11.808
▁subjects	-11.8083
▁ut	-11.8083
▁expire	-11.8085
▁pile	-11.8091
▁consultant	-11.8094
▁nichol	-11.8094
▁automobile	-11.8097
▁element	-11.8097
▁balloon	-11.8097
▁dinosaur	-11.8098
▁mammal	-11.8098
▁cardinal	-11.8098
▁dissident	-11.8098
7.3	-11.8098
▁guerrilla	-11.8099
▁obligation	-11.8099
▁achievement	-11.8099
▁resource	-11.81
▁serie	-11.8101
▁objection	-11.8101
▁accusation	-11.8103
▁kara	-11.8105
▁rover	-11.8105
▁550	-11.8109
▁drum	-11.8111
▁attraction	-11.8116
▁headline	-11.8117
▁thrill	-11.812
run	-11.8121
▁visas	-11.8127
▁donation	-11.8129
▁harvest	-11.8132
▁serge	-11.8133
▁exploit	-11.8135
▁conceal	-11.8135
iv	-11.8141
▁coin	-11.8142
▁cheer	-11.8144
▁ab	-11.8148
hood	-11.8152
737	-11.8152
productive	-11.8157
▁situations	-11.8159
right	-11.816
related	-11.8161
▁mag	-11.8164
▁treatments	-11.8166
▁jab	-11.8169
▁audiences	-11.8171
▁favors	-11.8171
▁veer	-11.8172
▁manufacture	-11.8176
▁profound	-11.8178
▁respective	-11.8184
▁contradict	-11.8184
▁cart	-11.8186
▁speculate	-11.8187
▁wells	-11.8188
▁tackl	-11.8189
▁capita	-11.8194
▁contemporar	-11.8194
▁sovereign	-11.8194
▁absent	-11.8195
▁psycho	-11.8195
unconstitutional	-11.8195
▁abnormal	-11.8195
▁alkatiri	-11.8195
▁archbishop	-11.8195
▁azerbaijan	-11.8195
▁barracks	-11.8195
▁belgrade	-11.8195
▁canaveral	-11.8195
▁clapton	-11.8195
▁cmdr	-11.8195
▁computing	-11.8195
▁credible	-11.8195
▁crises	-11.8195
▁davydenko	-11.8195
▁defensive	-11.8195
▁description	-11.8195
▁deterrent	-11.8195
▁diarrhea	-11.8195
▁dicaprio	-11.8195
▁disappointing	-11.8195
▁estrange	-11.8195
▁excellent	-11.8195
▁explicit	-11.8195
▁fukuda	-11.8195
▁halloween	-11.8195
▁heavyweight	-11.8195
▁justify	-11.8195
▁leahy	-11.8195
▁livni	-11.8195
▁mandela	-11.8195
▁mogul	-11.8195
▁moroccan	-11.8195
▁napolitano	-11.8195
▁overshadow	-11.8195
▁paramilitar	-11.8195
▁rasmussen	-11.8195
▁rejoin	-11.8195
▁resurgen	-11.8195
▁separation	-11.8195
▁shortfall	-11.8195
▁siniora	-11.8195
▁skeleton	-11.8195
▁skepticism	-11.8195
▁soyuz	-11.8195
▁standstill	-11.8195
▁stimulate	-11.8195
▁supplied	-11.8195
▁suzuki	-11.8195
▁temblor	-11.8195
▁underneath	-11.8195
▁upscale	-11.8195
▁urgency	-11.8195
▁warfare	-11.8195
▁wizard	-11.8195
▁zapatero	-11.8195
▁commodities	-11.8195
▁dylan	-11.8195
▁eagle	-11.8195
▁henderson	-11.8195
▁notify	-11.8195
▁overdose	-11.8195
▁resuming	-11.8195
▁reunion	-11.8195
▁amateur	-11.8195
▁brooklyn	-11.8195
▁hurdle	-11.8195
▁portsmouth	-11.8195
▁provocation	-11.8195
▁siberia	-11.8195
▁spielberg	-11.8195
▁unearth	-11.8195
▁allawi	-11.8195
▁stiles	-11.8195
▁ordeal	-11.8195
▁malibu	-11.8195
▁meltdown	-11.8195
▁showcase	-11.8195
▁pleasure	-11.8195
▁rust	-11.8195
▁simulate	-11.8195
▁blacksburg	-11.8195
▁leverage	-11.8195
▁inquiries	-11.8195
▁qatar	-11.8195
▁archipelago	-11.8195
▁ancestors	-11.8195
▁disturbance	-11.8195
▁padilla	-11.8195
▁cooperative	-11.8195
▁orientation	-11.8195
▁19.	-11.8195
▁annul	-11.8195
▁defiance	-11.8195
▁dynamic	-11.8195
▁finland	-11.8195
▁ridiculous	-11.8195
▁drastically	-11.8195
▁hungry	-11.8195
▁gerald	-11.8195
▁textile	-11.8195
▁loving	-11.8195
▁consciousness	-11.8195
▁podium	-11.8195
▁resistant	-11.8195
▁surname	-11.8195
▁irna	-11.8196
▁nso	-11.8196
errill	-11.8196
▁robinson	-11.8196
▁rebuke	-11.8196
▁intimidation	-11.8196
▁horrific	-11.8196
▁zay	-11.8196
▁breakdown	-11.8196
▁enron	-11.8196
▁cancelled	-11.8196
▁jeremy	-11.8196
▁courageous	-11.8196
▁hanaro	-11.8196
▁fisheries	-11.8197
▁nhk	-11.8197
▁ballmer	-11.8197
▁dodd	-11.8197
▁genome	-11.8197
▁walkout	-11.8197
▁busiest	-11.8197
▁quarterback	-11.8197
▁penh	-11.8199
▁nile	-11.8199
▁farther	-11.8199
▁mineral	-11.8199
▁endured	-11.82
▁2015	-11.82
▁drinkers	-11.82
▁handover	-11.82
▁frightened	-11.8201
▁abruptly	-11.8201
▁fundraising	-11.8202
▁henri	-11.8202
▁anymore	-11.8202
▁plantation	-11.8203
▁dismissal	-11.8203
▁dax	-11.8203
▁max	-11.8203
▁patch	-11.8204
▁portrayal	-11.8204
▁chimps	-11.8205
▁chilly	-11.8205
▁mala	-11.8205
▁wishes	-11.8205
▁motivation	-11.8206
▁stump	-11.8207
▁bosses	-11.8208
▁corpses	-11.8209
▁conspir	-11.821
▁foul	-11.821
▁zhu	-11.8212
▁waterway	-11.8212
▁yemeni	-11.8214
▁backup	-11.8216
▁algerian	-11.8216
▁zambia	-11.8216
▁cheon	-11.8217
▁approaches	-11.8217
▁kg	-11.8219
▁noble	-11.8219
▁reap	-11.822
▁6.8	-11.8222
ink	-11.8223
▁collud	-11.8223
▁600,000	-11.8223
▁reinforcements	-11.8224
▁salaries	-11.8224
▁exclusively	-11.8225
▁particles	-11.8227
▁holdings	-11.8228
▁2.1	-11.8232
▁sword	-11.8233
▁kidnappings	-11.8233
▁architects	-11.8234
▁esta	-11.8235
▁wrestl	-11.8235
▁ingredients	-11.8236
ug	-11.8237
▁plummeted	-11.824
▁productive	-11.824
▁performers	-11.8241
▁log	-11.8242
▁facilitate	-11.8242
▁climbers	-11.8245
▁wipe	-11.8249
▁divisions	-11.8252
▁facto	-11.8255
▁cheered	-11.8255
▁contestants	-11.8255
▁laughing	-11.8257
▁slapp	-11.8257
▁lava	-11.8257
▁siblings	-11.8262
▁amend	-11.8263
▁sample	-11.8263
structed	-11.8272
▁samba	-11.8273
▁obstacles	-11.8275
2,000	-11.8286
▁compare	-11.8286
▁leaning	-11.8289
▁achievements	-11.8294
▁automobiles	-11.8294
▁tier	-11.8295
▁drilling	-11.8299
▁sag	-11.83
▁admitt	-11.83
▁functioning	-11.8303
▁aliens	-11.8307
▁33,	-11.8307
▁postal	-11.8307
▁translate	-11.8308
▁circulat	-11.8309
▁tightened	-11.831
▁exceptional	-11.8311
▁praying	-11.8315
▁intentional	-11.8319
▁classrooms	-11.8319
ces	-11.8325
▁tents	-11.8328
lli	-11.8334
▁mur	-11.8334
▁alike	-11.8337
▁seeds	-11.834
ea	-11.8342
▁valeri	-11.8344
▁sink	-11.8353
smo	-11.8353
▁campaigned	-11.8354
▁congratulat	-11.8357
und	-11.8366
▁deliberat	-11.8367
▁destinations	-11.8371
▁sunnis	-11.8377
▁slipping	-11.8378
▁devi	-11.8381
▁yass	-11.8382
▁pak	-11.8389
▁disasters	-11.8392
▁ec	-11.8393
▁sabotage	-11.8396
▁infants	-11.8403
▁mortars	-11.8403
▁reacting	-11.8405
trust	-11.8412
▁wil	-11.8414
▁poorly	-11.8415
▁hwa	-11.8416
▁amendments	-11.8422
▁prob	-11.8428
▁deer	-11.843
bed	-11.8432
▁beard	-11.8436
▁hal	-11.8441
▁banners	-11.8444
▁failures	-11.8449
▁teach	-11.8449
ski	-11.8452
▁fo	-11.8459
▁0.7	-11.8463
▁brun	-11.8467
▁references	-11.8467
oval	-11.8478
▁advisors	-11.8487
▁crossings	-11.8487
▁gunn	-11.8488
for	-11.8493
▁medals	-11.8493
rk	-11.8505
tion	-11.8506
▁nad	-11.8514
▁debat	-11.852
sky	-11.8524
▁24,	-11.8526
▁lunche	-11.8535
▁pit	-11.8539
54	-11.8541
▁maid	-11.8564
▁shifted	-11.8567
▁importantly	-11.8572
▁temples	-11.8572
▁interactiv	-11.8572
ats	-11.8586
▁analyze	-11.859
▁xi	-11.8604
▁closet	-11.8612
▁respected	-11.8615
▁designs	-11.8615
▁mortgages	-11.8618
▁probabl	-11.862
▁minded	-11.8623
16	-11.8631
▁laugh	-11.8633
▁dissolv	-11.8636
▁humane	-11.864
▁0.8	-11.8644
▁2,02	-11.8647
▁230	-11.8648
▁retract	-11.8651
tti	-11.8656
▁lim	-11.8659
▁pale	-11.8662
her	-11.8674
▁reads	-11.8678
▁bro	-11.8678
bbie	-11.8681
▁labels	-11.8691
▁mill	-11.8696
▁lai	-11.8707
▁retire	-11.8709
xis	-11.871
fraction	-11.8716
▁gem	-11.8717
▁heating	-11.8721
▁interfere	-11.8724
row	-11.8728
rate	-11.8728
▁suburbs	-11.873
ep	-11.8732
▁papa	-11.8735
▁soak	-11.8746
▁morale	-11.8746
▁exists	-11.8749
▁mayors	-11.8751
▁rotat	-11.8757
▁blu	-11.8757
▁certificate	-11.8761
▁concentration	-11.8761
▁denounce	-11.8761
▁monument	-11.8762
▁segment	-11.8763
owing	-11.8763
▁bishop	-11.8763
▁outlet	-11.8765
▁consultation	-11.8766
▁installation	-11.8766
▁comic	-11.8767
▁organizer	-11.8769
▁volcani	-11.8772
▁nh	-11.8772
▁mediator	-11.8774
▁relation	-11.8774
▁expectation	-11.8777
▁musician	-11.8779
rt	-11.878
▁1,5	-11.8782
▁brook	-11.8782
▁0.1	-11.8784
▁stevens	-11.8784
▁defeating	-11.8786
rei	-11.8792
▁norm	-11.8793
▁dwindl	-11.88
▁sustain	-11.8801
▁nutrition	-11.8805
▁hamper	-11.8809
mas	-11.881
▁tracked	-11.8813
wn	-11.8814
▁divert	-11.8816
itu	-11.8819
point	-11.8819
▁visitor	-11.8819
▁3.8	-11.8823
▁specifics	-11.8823
▁partisan	-11.8824
▁preach	-11.8824
secretary	-11.8824
worth	-11.8825
▁zi	-11.8842
▁olive	-11.8843
▁organize	-11.8844
▁quarantine	-11.8845
▁bulgaria	-11.8846
▁swam	-11.8846
▁heath	-11.8848
▁relocate	-11.885
actic	-11.8851
mes	-11.8852
▁provider	-11.8856
▁collaborat	-11.8859
lihood	-11.886
diac	-11.886
▁112	-11.886
▁depriv	-11.8861
▁charisma	-11.8861
▁1974	-11.8862
▁barclay	-11.8862
▁bennett	-11.8862
▁birkhead	-11.8862
▁birmingham	-11.8862
▁blacklist	-11.8862
▁bollywood	-11.8862
▁charlotte	-11.8862
▁credentials	-11.8862
▁credibility	-11.8862
▁crichton	-11.8862
▁criteria	-11.8862
▁dynasty	-11.8862
▁endurance	-11.8862
▁enlist	-11.8862
▁excitement	-11.8862
▁fritzl	-11.8862
▁guinea	-11.8862
▁hatoyama	-11.8862
▁immunity	-11.8862
▁influenza	-11.8862
▁infuriat	-11.8862
▁johansson	-11.8862
▁kazemi	-11.8862
▁lackluster	-11.8862
▁lakshmi	-11.8862
▁lawrence	-11.8862
▁lenient	-11.8862
▁lindsey	-11.8862
▁lufthansa	-11.8862
▁malfunction	-11.8862
▁motorcade	-11.8862
▁nephew	-11.8862
▁nevertheless	-11.8862
▁noodles	-11.8862
▁paraguay	-11.8862
▁pilgrimage	-11.8862
▁populous	-11.8862
▁punjab	-11.8862
▁renowned	-11.8862
▁sanchez	-11.8862
▁shrimp	-11.8862
▁spacewalk	-11.8862
▁stroll	-11.8862
▁ubiquitous	-11.8862
▁valencia	-11.8862
▁wembley	-11.8862
▁wfp	-11.8862
▁xinjiang	-11.8862
▁zebari	-11.8862
▁affidavit	-11.8862
▁chopper	-11.8862
▁festivities	-11.8862
▁flavor	-11.8862
▁holmes	-11.8862
▁inhabit	-11.8862
▁unleash	-11.8862
▁baldwin	-11.8862
▁hawkins	-11.8862
▁nasrallah	-11.8862
▁verbal	-11.8862
▁grocer	-11.8862
▁rangoon	-11.8862
▁impressed	-11.8862
▁orphanage	-11.8862
▁awakening	-11.8862
▁bayern	-11.8862
▁horrible	-11.8862
▁irwin	-11.8862
▁forbidden	-11.8862
▁gorge	-11.8862
▁thumb	-11.8862
▁bloodshed	-11.8862
▁vinci	-11.8862
▁redeployment	-11.8862
▁minimal	-11.8862
▁garrison	-11.8862
▁memoir	-11.8862
▁email	-11.8862
▁bleeding	-11.8862
▁ivanovic	-11.8862
▁luther	-11.8862
▁scout	-11.8862
▁teddy	-11.8862
▁accomplishment	-11.8862
▁diaz	-11.8862
▁minimiz	-11.8862
▁stabbed	-11.8862
▁omx	-11.8862
▁radioactive	-11.8862
▁roam	-11.8862
▁derby	-11.8862
▁spotlight	-11.8863
▁coffin	-11.8863
▁diesel	-11.8863
▁plc	-11.8863
▁cemetery	-11.8863
▁worship	-11.8863
▁competitiveness	-11.8863
▁cleanup	-11.8863
▁regiment	-11.8863
▁barney	-11.8863
▁farmland	-11.8863
▁1976	-11.8864
▁gamba	-11.8864
▁meaningful	-11.8864
▁perceived	-11.8864
▁osman	-11.8865
▁1947	-11.8865
▁shank	-11.8865
▁lula	-11.8865
▁emmy	-11.8865
▁migration	-11.8865
▁mediation	-11.8865
▁battlefield	-11.8865
ira	-11.8865
▁confiscated	-11.8865
▁mason	-11.8866
▁matchup	-11.8866
▁decent	-11.8866
▁amber	-11.8867
▁recon	-11.8867
▁1,300	-11.8868
▁globalization	-11.8869
▁cramp	-11.8869
▁peel	-11.8869
▁hinder	-11.887
▁fargo	-11.887
38	-11.887
▁sustainable	-11.887
▁escalated	-11.8871
▁revise	-11.8871
▁homeowners	-11.8873
▁gamble	-11.8875
▁ferrer	-11.8875
▁foiled	-11.8876
▁protective	-11.8876
chai	-11.8876
▁thoroughly	-11.8877
▁outright	-11.8877
▁cheating	-11.8878
▁rental	-11.8878
▁swamp	-11.8878
▁17,000	-11.8878
adic	-11.8879
aah	-11.888
▁martial	-11.8881
▁stray	-11.8882
▁tide	-11.8882
▁monarchy	-11.8882
ibly	-11.8882
▁freezer	-11.8882
▁commentary	-11.8882
▁accountable	-11.8883
▁penny	-11.8884
▁meyer	-11.8884
▁evolved	-11.8884
▁premises	-11.8885
▁slower	-11.8886
▁spared	-11.8886
▁klo	-11.8887
▁7.5	-11.8888
▁cox	-11.8888
▁3.9	-11.8889
▁coaches	-11.889
▁appreciated	-11.889
▁prescrib	-11.8891
▁spouses	-11.8892
▁tenth	-11.8894
▁unexpectedly	-11.8895
▁swarm	-11.8897
▁frenchman	-11.8908
▁brewer	-11.8909
▁interviewer	-11.8914
▁abdel	-11.8915
▁hopefully	-11.8916
▁stirring	-11.8918
▁blend	-11.8921
▁excluded	-11.8922
▁reminder	-11.8925
▁competed	-11.8926
▁anwar	-11.8928
▁circulating	-11.8929
gang	-11.8929
▁nerves	-11.8933
▁salam	-11.8933
▁belly	-11.8937
▁carmakers	-11.894
▁bun	-11.8941
▁regulate	-11.8942
▁twisted	-11.8943
▁raft	-11.8947
▁finn	-11.8953
▁5.7	-11.8954
▁tibetans	-11.8958
log	-11.8961
▁consulted	-11.8961
▁casp	-11.8967
▁provisional	-11.8971
▁commented	-11.8971
▁operatives	-11.8974
▁surgeons	-11.8975
▁jogg	-11.8977
▁cull	-11.8981
▁roses	-11.8981
94	-11.8982
▁displays	-11.8985
▁rode	-11.8987
▁confronted	-11.8989
▁josh	-11.8992
▁interfer	-11.9002
▁spurs	-11.9002
tractor	-11.9006
▁grove	-11.9017
mon	-11.9019
▁maru	-11.9029
▁spaniards	-11.9029
68	-11.9038
▁pleas	-11.9039
fer	-11.9042
▁op	-11.9044
▁reminiscen	-11.9044
▁magazines	-11.9046
▁bricks	-11.905
▁contributions	-11.905
▁trends	-11.9052
▁4.8	-11.9058
ichi	-11.9063
▁wraps	-11.9065
▁arabs	-11.9066
▁quota	-11.907
▁deserves	-11.9071
▁vip	-11.9073
▁beliefs	-11.9078
26	-11.9078
.95	-11.9083
▁disciplin	-11.9084
ith	-11.9086
hor	-11.9088
▁input	-11.9088
▁accommodate	-11.9088
rid	-11.9089
dis	-11.9094
tter	-11.9104
08	-11.9108
▁zo	-11.9136
▁viewing	-11.9139
▁robin	-11.9143
▁unm	-11.9144
▁robots	-11.9147
▁speeds	-11.9155
▁suite	-11.9161
pine	-11.9173
▁socialists	-11.9177
tana	-11.918
▁conclusions	-11.9182
cia	-11.9187
▁ti	-11.9191
▁wie	-11.9198
▁inmate	-11.9204
▁5.5	-11.9205
▁mut	-11.921
▁spirits	-11.921
24	-11.9212
▁snu	-11.9217
van	-11.9219
▁existed	-11.9221
▁provoke	-11.9224
▁pie	-11.9248
▁fin	-11.9265
▁cleaning	-11.9273
▁clo	-11.9274
▁resigning	-11.9286
▁drops	-11.9293
▁gra	-11.9296
▁nic	-11.9304
▁keys	-11.9305
▁ringing	-11.9312
▁fare	-11.9315
▁wad	-11.9321
▁alternatives	-11.9321
net	-11.9328
▁mona	-11.9333
place	-11.9334
▁modifi	-11.934
▁dash	-11.9341
▁mos	-11.9342
▁ramp	-11.9343
aya	-11.9347
▁sorts	-11.9349
▁rides	-11.9358
tious	-11.9367
igan	-11.9371
die	-11.9372
▁esp	-11.9372
lov	-11.9375
▁rolls	-11.9376
▁defuse	-11.9382
▁compounds	-11.9386
uso	-11.9387
▁grounded	-11.9402
▁dish	-11.9404
▁fre	-11.9407
▁155	-11.9412
▁rib	-11.9414
oma	-11.9421
▁nova	-11.9424
▁paths	-11.9427
sisting	-11.9429
▁albums	-11.9436
▁shells	-11.9438
▁gum	-11.9442
bre	-11.9446
▁propos	-11.9451
▁globally	-11.9452
▁hyo	-11.9461
▁offerings	-11.9465
▁abd	-11.9467
uted	-11.9469
▁column	-11.9471
▁deepen	-11.9472
▁hispanic	-11.9474
▁qualifier	-11.9474
▁supplier	-11.9478
▁marco	-11.9484
▁rub	-11.9484
▁requirement	-11.9485
hon	-11.9486
▁reviv	-11.9487
ado	-11.9489
▁lied	-11.949
▁lows	-11.9498
tech	-11.95
▁chill	-11.9501
▁intercept	-11.9503
▁retailer	-11.9504
▁carlo	-11.9505
▁rout	-11.9507
▁mourn	-11.9511
anne	-11.9512
▁construct	-11.9514
▁squeeze	-11.9515
▁abduct	-11.9516
phone	-11.952
▁lesson	-11.9521
87	-11.9521
▁crumbl	-11.9525
oon	-11.9527
leen	-11.953
cho	-11.953
▁unc	-11.9533
▁104	-11.9537
ttered	-11.9538
▁graz	-11.9546
▁220	-11.9548
▁106	-11.9551
tif	-11.9553
▁pla	-11.9556
book	-11.9557
▁compris	-11.9559
▁continuous	-11.9559
▁thorough	-11.9559
▁indefinite	-11.9559
▁tolerate	-11.956
▁trapp	-11.9564
▁delegations	-11.9565
▁rage	-11.9568
▁atmospher	-11.9568
▁firefight	-11.9569
▁mt	-11.9569
▁abdulla	-11.9569
▁societ	-11.9571
▁versions	-11.9573
▁potato	-11.9573
▁commute	-11.9573
▁psychiatri	-11.9574
▁corrupt	-11.9575
▁casual	-11.9575
▁scrapp	-11.9575
▁champ	-11.9575
▁zoe	-11.9576
pplies	-11.9576
misunderstanding	-11.9576
▁gabriel	-11.9576
▁jurisdiction	-11.9576
▁altogether	-11.9576
▁amoeba	-11.9576
▁baptist	-11.9576
▁barksdale	-11.9576
▁blanchett	-11.9576
▁chertoff	-11.9576
▁clarify	-11.9576
▁columbus	-11.9576
▁convenience	-11.9576
▁crazy	-11.9576
▁dupre	-11.9576
▁edinburgh	-11.9576
▁elbow	-11.9576
▁erotic	-11.9576
▁estrada	-11.9576
▁evacuees	-11.9576
▁exercising	-11.9576
▁expulsion	-11.9576
▁fugitive	-11.9576
▁gondola	-11.9576
▁guinness	-11.9576
▁hajj	-11.9576
▁jaguar	-11.9576
▁jpmorgan	-11.9576
▁katie	-11.9576
▁kookmin	-11.9576
▁laundry	-11.9576
▁lithuania	-11.9576
▁lugovoi	-11.9576
▁machimura	-11.9576
▁mathematic	-11.9576
▁meshaal	-11.9576
▁montgomery	-11.9576
▁motorbike	-11.9576
▁mourinho	-11.9576
▁negligence	-11.9576
▁obesity	-11.9576
▁odyssey	-11.9576
▁peruvian	-11.9576
▁physicist	-11.9576
▁pneumonia	-11.9576
▁possibilities	-11.9576
▁preference	-11.9576
▁rainforest	-11.9576
▁reluctance	-11.9576
▁rendition	-11.9576
▁ritchie	-11.9576
▁roosevelt	-11.9576
▁salvador	-11.9576
▁sanitation	-11.9576
▁seinfeld	-11.9576
▁specify	-11.9576
▁specter	-11.9576
▁spencer	-11.9576
▁supermodel	-11.9576
▁superstar	-11.9576
▁surrogate	-11.9576
▁tebow	-11.9576
▁thieves	-11.9576
▁titanic	-11.9576
▁trezeguet	-11.9576
▁uncommon	-11.9576
▁unsafe	-11.9576
▁vacant	-11.9576
▁valentine	-11.9576
▁2018	-11.9576
▁acclaim	-11.9576
▁authoritarian	-11.9576
▁indecent	-11.9576
▁longoria	-11.9576
▁phrase	-11.9576
▁racist	-11.9576
▁scientology	-11.9576
▁benoit	-11.9576
▁zurich	-11.9576
▁ideological	-11.9576
▁instability	-11.9576
▁khalaf	-11.9576
▁shandong	-11.9576
▁dengue	-11.9576
▁nightmare	-11.9576
▁ramallah	-11.9576
▁telegraph	-11.9576
▁giggs	-11.9576
▁invention	-11.9576
▁impasse	-11.9576
▁julio	-11.9576
▁gallup	-11.9576
▁prague	-11.9576
▁wolong	-11.9576
▁intercourse	-11.9576
▁nashville	-11.9576
▁muhammad	-11.9576
▁lampard	-11.9576
▁frantic	-11.9576
▁mansfield	-11.9576
▁gilbert	-11.9576
▁mirren	-11.9576
▁florence	-11.9576
▁freud	-11.9576
▁shunn	-11.9576
▁imagination	-11.9576
▁cyberspace	-11.9576
▁emmanuel	-11.9576
▁volley	-11.9576
▁lahim	-11.9576
▁refineries	-11.9576
▁liberties	-11.9576
▁thigh	-11.9576
▁ceasefire	-11.9576
▁imam	-11.9576
▁unnecessary	-11.9576
▁globo	-11.9576
▁livestock	-11.9576
▁buffett	-11.9577
▁aisle	-11.9577
▁foment	-11.9577
▁anchorage	-11.9577
▁enthusiastic	-11.9577
▁plaza	-11.9577
▁fool	-11.9577
▁shootout	-11.9577
▁yoga	-11.9577
▁slice	-11.9577
▁interpretation	-11.9577
▁ridge	-11.9577
▁equalizer	-11.9578
▁adaptation	-11.9578
▁sadness	-11.9578
▁hoop	-11.9578
▁cubic	-11.9578
▁pork	-11.9578
▁exert	-11.9578
▁motel	-11.9578
▁greenback	-11.9578
▁tables	-11.9578
▁libi	-11.9578
▁normalization	-11.9578
▁hungary	-11.9578
▁pickup	-11.9578
▁ump	-11.9578
▁kbs	-11.9579
▁fatality	-11.9579
hieu	-11.9579
metric	-11.9579
▁keane	-11.9579
▁hostility	-11.9579
▁skidd	-11.9579
▁kuznetsova	-11.958
▁kenne	-11.958
▁eastwood	-11.958
▁bulletin	-11.9581
▁overtake	-11.9581
▁deco	-11.9581
▁chemistry	-11.9581
▁saudis	-11.9582
▁hogan	-11.9582
▁reflection	-11.9582
▁conscious	-11.9583
▁spaceship	-11.9583
▁steelers	-11.9583
▁kwan	-11.9583
▁contention	-11.9584
▁skinny	-11.9585
▁gala	-11.9585
▁janet	-11.9585
▁heartland	-11.9585
▁catastrophe	-11.9586
▁defy	-11.9587
▁scorched	-11.9587
▁connections	-11.9587
endo	-11.9587
▁uphold	-11.9588
▁looting	-11.9588
▁glenn	-11.9588
▁kent	-11.9589
▁dresses	-11.9589
▁3,500	-11.9589
▁rash	-11.9589
▁skies	-11.9589
▁succession	-11.9591
▁lodged	-11.9591
▁candid	-11.9591
▁everton	-11.9591
▁adjourned	-11.9592
▁firearms	-11.9594
▁floodwaters	-11.9594
▁jihadist	-11.9594
▁notable	-11.9596
▁wrestler	-11.9597
▁deby	-11.9597
▁faa	-11.9597
▁disagreed	-11.9598
▁roar	-11.9599
▁reinforce	-11.9599
▁adventurer	-11.9599
▁jamaican	-11.9599
▁peek	-11.96
▁centimeters	-11.9602
▁reservations	-11.9602
tracted	-11.9602
▁cream	-11.9603
hn	-11.9603
harmonic	-11.9604
gye	-11.9605
▁slash	-11.9606
▁swallowing	-11.9607
▁lah	-11.9608
▁warheads	-11.9609
▁crane	-11.9609
▁interrupted	-11.961
▁ignited	-11.961
ega	-11.9612
▁intensifying	-11.9612
▁iii	-11.9613
▁conductor	-11.9614
▁finalists	-11.9616
▁youngsters	-11.9616
▁condon	-11.962
lets	-11.9622
▁cosmonauts	-11.9624
nants	-11.9624
▁glid	-11.9626
▁hatch	-11.963
▁analyzed	-11.963
▁takers	-11.9631
▁watches	-11.9632
▁swear	-11.9634
dom	-11.9636
satisfaction	-11.9636
▁constructed	-11.9637
▁scrapped	-11.9637
▁slashing	-11.9639
▁deepening	-11.9642
73	-11.9643
▁deter	-11.9645
▁thrilled	-11.9646
▁competitors	-11.9646
▁whipp	-11.9646
▁insistence	-11.9647
▁jess	-11.9647
stra	-11.9649
▁tattoos	-11.9653
▁vegetables	-11.9653
▁warships	-11.9653
▁surpassed	-11.9654
▁ip	-11.9655
vent	-11.9657
nda	-11.9657
▁reversed	-11.9659
▁healing	-11.9663
ili	-11.9666
▁departments	-11.9667
▁altered	-11.9668
emptive	-11.9669
stair	-11.9671
▁publishing	-11.9671
▁melting	-11.9671
▁versa	-11.9672
shire	-11.9675
▁bankers	-11.9677
▁micke	-11.9678
▁floors	-11.9681
▁bishops	-11.9683
rw	-11.9683
▁moss	-11.9683
▁bucking	-11.9684
iff	-11.9686
▁integrate	-11.9692
arian	-11.9707
▁goers	-11.9707
and	-11.9715
nan	-11.9715
ario	-11.9716
sten	-11.9724
ograph	-11.9734
▁21,	-11.9734
▁positively	-11.974
ndy	-11.9742
▁forgotten	-11.9745
▁envelope	-11.9748
▁bong	-11.9749
▁counseling	-11.9753
▁atta	-11.9755
▁fingers	-11.9757
▁commons	-11.9761
try	-11.9762
kook	-11.9763
▁circles	-11.9773
▁cds	-11.9776
▁fend	-11.9782
▁downloads	-11.9786
▁partnerships	-11.9786
▁vin	-11.9794
▁punished	-11.9795
▁occasions	-11.9809
ette	-11.981
shan	-11.9811
▁blogs	-11.9822
▁pools	-11.9828
▁vera	-11.983
table	-11.983
▁hindus	-11.9836
▁cate	-11.9845
▁cl	-11.9845
▁jungles	-11.9848
▁bass	-11.9852
▁peers	-11.9853
▁ports	-11.9854
▁deserted	-11.9862
50	-11.9868
▁gardens	-11.9883
zan	-11.9889
▁petro	-11.989
▁cubans	-11.9901
▁downer	-11.9903
▁marin	-11.991
▁allan	-11.9911
▁ol	-11.9926
▁continents	-11.9929
▁tin	-11.9929
▁doo	-11.9931
▁newman	-11.9937
▁tooth	-11.9937
▁blazes	-11.9944
▁nia	-11.9951
▁intentions	-11.9953
ologist	-11.9983
mit	-11.9987
37	-11.9997
▁34,	-12.0004
▁sham	-12.0005
loyd	-12.0006
▁coaster	-12.0017
▁writes	-12.0021
▁def	-12.0021
86	-12.0026
▁paw	-12.0039
▁rafi	-12.0044
uan	-12.005
▁rocker	-12.005
kov	-12.0054
▁yasu	-12.0069
nian	-12.0072
▁shau	-12.0076
ties	-12.008
rose	-12.0082
oning	-12.009
▁garr	-12.0091
▁incorporat	-12.0102
▁278	-12.0107
▁enhanc	-12.0109
▁62,	-12.0113
lus	-12.0116
▁4.9	-12.0125
▁donate	-12.0132
▁om	-12.0133
ities	-12.0134
▁cord	-12.0147
▁offset	-12.0148
▁mae	-12.015
▁industrializ	-12.0159
▁disguis	-12.0167
tc	-12.0175
▁bern	-12.0175
▁mediate	-12.0177
▁8.9	-12.0179
▁underline	-12.0189
▁exclud	-12.0197
anned	-12.0198
kill	-12.021
▁lawsuits	-12.0211
▁chu	-12.0212
▁seon	-12.0216
▁grows	-12.0216
val	-12.0219
▁webb	-12.0221
▁shout	-12.0224
▁relieve	-12.0229
aq	-12.023
icia	-12.0234
▁activat	-12.0235
olo	-12.0236
▁apologiz	-12.0238
▁eliminat	-12.0241
▁collar	-12.0244
▁confession	-12.0244
▁composer	-12.0245
▁cancellation	-12.0245
▁ipod	-12.0245
▁interaction	-12.0246
▁donkey	-12.0246
▁obstacle	-12.0247
▁briton	-12.0248
▁disagreement	-12.0248
▁som	-12.025
▁archaeologist	-12.0251
▁valid	-12.0255
▁planner	-12.0257
▁egg	-12.0258
eman	-12.0263
▁contractor	-12.0266
▁shap	-12.0271
▁conclud	-12.0273
▁advanc	-12.0273
▁undermin	-12.0274
rc	-12.0276
▁270	-12.028
▁avert	-12.0284
▁heal	-12.0286
▁overturn	-12.0286
▁cliff	-12.0288
break	-12.0295
▁freight	-12.0295
▁replica	-12.0297
▁tran	-12.0298
play	-12.0299
31	-12.0302
woman	-12.0307
life	-12.0307
world	-12.0308
bridge	-12.0308
confirmed	-12.0308
jiang	-12.0308
around	-12.0308
nathan	-12.0315
▁institutes	-12.0315
▁stirr	-12.0324
▁qin	-12.0325
tched	-12.0328
▁lodge	-12.0329
▁concentrate	-12.0329
▁mock	-12.0329
▁shall	-12.0332
▁catastroph	-12.0334
▁petrol	-12.0336
▁fift	-12.0337
naissance	-12.0339
gging	-12.0339
▁blitz	-12.034
rah	-12.034
▁2.0	-12.0342
▁harris	-12.0344
▁emphasi	-12.0344
▁cultivat	-12.0344
▁enroll	-12.0344
▁bankrupt	-12.0345
liffe	-12.0345
▁administer	-12.0345
▁aggregate	-12.0345
▁algiers	-12.0345
▁almeida	-12.0345
▁altitude	-12.0345
▁anglican	-12.0345
▁arthritis	-12.0345
▁autumn	-12.0345
▁bachelor	-12.0345
▁backdrop	-12.0345
▁barroso	-12.0345
▁berlusconi	-12.0345
▁biblical	-12.0345
▁bimbo	-12.0345
▁bodlander	-12.0345
▁bulldozer	-12.0345
▁burrell	-12.0345
▁ceremonial	-12.0345
▁chengdu	-12.0345
▁coerced	-12.0345
▁columbine	-12.0345
▁compuls	-12.0345
▁copenhagen	-12.0345
▁daewoo	-12.0345
▁decorated	-12.0345
▁dormitory	-12.0345
▁ebola	-12.0345
▁elegant	-12.0345
▁eyewitness	-12.0345
▁galaxies	-12.0345
▁gansu	-12.0345
▁geographic	-12.0345
▁harlem	-12.0345
▁identical	-12.0345
▁insufficient	-12.0345
▁intrude	-12.0345
▁iucn	-12.0345
▁legitimacy	-12.0345
▁leopard	-12.0345
▁liquor	-12.0345
▁loneliness	-12.0345
▁medieval	-12.0345
▁mehsud	-12.0345
▁messaging	-12.0345
▁mixture	-12.0345
▁onlookers	-12.0345
▁polanski	-12.0345
▁recycled	-12.0345
▁reptile	-12.0345
▁salaheddin	-12.0345
▁samuel	-12.0345
▁savvy	-12.0345
▁schoolchildren	-12.0345
▁scooter	-12.0345
▁scowcroft	-12.0345
▁shotgun	-12.0345
▁snowfall	-12.0345
▁sulawesi	-12.0345
▁tarmac	-12.0345
▁tottenham	-12.0345
▁tribune	-12.0345
▁ultimatum	-12.0345
▁upheaval	-12.0345
▁viagra	-12.0345
▁visibility	-12.0345
▁voyage	-12.0345
▁adolf	-12.0345
▁hanoi	-12.0345
▁neglect	-12.0345
▁overflow	-12.0345
▁roadblocks	-12.0345
▁satisfy	-12.0345
▁shrek	-12.0345
▁wwf	-12.0345
▁embroi	-12.0345
▁feminin	-12.0345
▁intimate	-12.0345
▁ladies	-12.0345
▁ordinari	-12.0345
▁sindh	-12.0345
▁sporadic	-12.0345
▁jalal	-12.0345
▁overture	-12.0345
▁schult	-12.0345
▁ghazi	-12.0345
▁pricing	-12.0345
▁resemblance	-12.0345
▁perched	-12.0345
▁villarosa	-12.0345
▁ramadi	-12.0345
▁mansour	-12.0345
▁analog	-12.0345
▁congratulations	-12.0345
▁presumably	-12.0345
▁hiking	-12.0345
▁shaky	-12.0345
▁vague	-12.0345
▁collaborators	-12.0345
▁discard	-12.0345
▁rctv	-12.0345
▁faint	-12.0345
▁meghani	-12.0345
▁authenticity	-12.0345
silicon	-12.0345
▁harrell	-12.0345
▁brink	-12.0346
▁lynd	-12.0346
▁delaware	-12.0346
▁ecosystem	-12.0346
▁hazardous	-12.0346
▁dodgers	-12.0346
▁erakat	-12.0346
▁enrollment	-12.0346
▁marble	-12.0346
▁feast	-12.0346
mond	-12.0346
undance	-12.0346
▁martinez	-12.0346
▁emory	-12.0346
▁rope	-12.0346
▁homosexuality	-12.0346
▁flies	-12.0346
▁1969	-12.0346
▁reshuffle	-12.0346
▁circulation	-12.0346
ello	-12.0347
▁psychiatrist	-12.0347
▁abdomen	-12.0347
▁disneyland	-12.0347
▁insight	-12.0347
▁choking	-12.0347
▁goldberg	-12.0347
▁ginger	-12.0347
▁primate	-12.0347
▁widened	-12.0347
▁sanctuary	-12.0347
▁workshop	-12.0347
▁clara	-12.0347
▁thaw	-12.0348
▁realistic	-12.0348
▁kennel	-12.0348
▁unfold	-12.0348
▁forestry	-12.0348
▁hunan	-12.0348
▁allocated	-12.0348
▁sniff	-12.0348
can	-12.0349
▁chef	-12.0349
▁inventory	-12.0349
▁lashes	-12.0349
▁hallway	-12.035
▁conceived	-12.035
▁boards	-12.035
▁gown	-12.035
▁purse	-12.035
▁fetch	-12.035
▁charleston	-12.0351
▁coward	-12.0351
▁2020	-12.0352
▁heroic	-12.0352
▁philosophy	-12.0352
▁assignment	-12.0353
▁oak	-12.0353
aries	-12.0353
▁canister	-12.0354
▁controller	-12.0354
▁startup	-12.0354
▁prohibition	-12.0354
▁dogged	-12.0355
▁salute	-12.0355
▁quinn	-12.0356
▁5,500	-12.0356
▁puerta	-12.0356
▁void	-12.0357
▁bystanders	-12.0357
▁looted	-12.0357
▁affection	-12.0358
▁millionaire	-12.0359
▁businessmen	-12.036
▁downgrade	-12.0361
▁murd	-12.0361
▁biting	-12.0362
▁fou	-12.0362
▁fax	-12.0362
my	-12.0363
▁letterman	-12.0365
▁sculptures	-12.0365
▁tossed	-12.0366
▁freeway	-12.0366
▁hillside	-12.0368
▁vik	-12.037
▁nl	-12.037
▁smiled	-12.0371
▁execute	-12.0372
▁batons	-12.0373
▁assembled	-12.0374
▁collector	-12.0374
tting	-12.0375
▁gong	-12.0377
▁authorize	-12.0377
▁edited	-12.0378
acio	-12.0378
▁ounces	-12.0381
sley	-12.0382
▁kay	-12.0384
▁misleading	-12.0384
▁updated	-12.0385
▁lawless	-12.0386
▁laborers	-12.0386
▁130,000	-12.0386
▁diminished	-12.0386
▁derailed	-12.0386
▁poster	-12.0387
▁wow	-12.0387
▁doha	-12.0387
▁lego	-12.0388
▁brakes	-12.0389
▁policymakers	-12.0389
▁prof	-12.0391
▁usage	-12.0391
▁expired	-12.0392
▁fabricat	-12.0392
▁claudi	-12.0394
df	-12.0396
▁biofuels	-12.0397
▁martyrs	-12.0397
▁proportional	-12.0399
▁entertainer	-12.0402
ean	-12.0402
▁aggressively	-12.0404
▁headaches	-12.0405
▁pg	-12.0405
▁oman	-12.0407
▁substantially	-12.0408
▁finalized	-12.0412
▁summons	-12.0413
▁ripple	-12.0414
▁traveler	-12.0419
▁cling	-12.0419
▁concealed	-12.042
▁fried	-12.0422
▁stark	-12.0423
tikh	-12.0424
achi	-12.0424
▁disappearing	-12.0427
▁tai	-12.0427
▁seekers	-12.0433
▁sake	-12.0434
92	-12.0436
▁gadgets	-12.0437
▁adjusted	-12.044
ite	-12.0441
▁enhanced	-12.0441
▁tune	-12.0442
▁saves	-12.0446
▁nationality	-12.0447
abo	-12.0452
▁myers	-12.0455
▁perfectly	-12.0465
inson	-12.0466
▁drums	-12.047
▁bil	-12.0471
ving	-12.0472
▁reopened	-12.0474
▁originat	-12.0476
rian	-12.0481
of	-12.0485
▁cater	-12.0491
▁retriev	-12.0495
▁noel	-12.0506
▁jeffs	-12.0509
▁styles	-12.0516
▁origins	-12.0519
▁elde	-12.0522
▁sc	-12.0525
▁meal	-12.0526
▁mint	-12.0533
▁permits	-12.0535
int	-12.0544
mmering	-12.0545
▁biologists	-12.0549
▁0.3	-12.055
gas	-12.0557
▁stack	-12.0557
▁alarmed	-12.0558
▁stored	-12.0561
▁cracking	-12.0562
▁evaluate	-12.0567
ella	-12.0568
▁figured	-12.0569
mz	-12.0571
▁behaviors	-12.0571
▁hadn	-12.0575
▁normaliz	-12.0576
▁opener	-12.0583
▁hai	-12.0584
▁4.6	-12.0589
▁yun	-12.0592
ain	-12.0594
▁rip	-12.0596
▁vacationing	-12.0604
▁wished	-12.0607
▁skiing	-12.0608
▁por	-12.061
▁dissolve	-12.0613
▁khu	-12.0616
▁57,	-12.062
▁ying	-12.0626
wage	-12.0629
▁nabi	-12.0641
▁touring	-12.0646
itis	-12.0651
▁bla	-12.0654
dp	-12.0656
▁consolidat	-12.066
▁invested	-12.0662
▁tvs	-12.0665
▁abortions	-12.0671
▁jee	-12.0673
▁similarly	-12.0676
▁messi	-12.0676
▁notion	-12.068
mis	-12.0682
▁commando	-12.0682
▁36,	-12.0687
▁graduates	-12.0688
▁bc	-12.0698
▁wary	-12.07
▁193	-12.0704
▁rejects	-12.0714
▁condemns	-12.0722
▁277	-12.0724
▁underscor	-12.0724
▁crashing	-12.0724
vu	-12.0731
taka	-12.0733
▁repairs	-12.0734
▁122	-12.0735
▁resting	-12.0741
▁4.2	-12.075
▁therapist	-12.0752
▁abn	-12.0756
▁maps	-12.0757
▁broadcasters	-12.0762
▁rees	-12.0763
▁mod	-12.0763
▁taj	-12.0764
stic	-12.0764
▁scr	-12.0774
mont	-12.0777
▁equ	-12.0782
▁settlements	-12.0785
▁coordinate	-12.0787
▁cleaned	-12.0791
▁wonders	-12.0809
elix	-12.0816
▁tian	-12.0819
bil	-12.0823
▁kra	-12.0827
ech	-12.0833
▁traditions	-12.0835
▁jar	-12.0835
.96	-12.0837
eem	-12.0857
▁turk	-12.0864
gie	-12.0865
▁hur	-12.0874
▁cp	-12.0875
▁urges	-12.089
81	-12.0901
ress	-12.0904
▁discipline	-12.0906
▁175	-12.0909
▁directions	-12.0914
▁yeon	-12.0915
ved	-12.0915
uca	-12.0923
▁affiliates	-12.0926
▁lease	-12.0933
88	-12.0934
▁tat	-12.0938
▁europeans	-12.0942
▁123	-12.0942
▁insult	-12.0952
win	-12.0953
▁eun	-12.0958
▁treats	-12.0962
▁sympath	-12.0969
▁mara	-12.0976
▁pett	-12.0986
ester	-12.0993
lev	-12.1008
▁whi	-12.1012
bert	-12.1013
▁ruin	-12.1013
print	-12.1022
uro	-12.1022
▁generat	-12.1032
▁mot	-12.1033
▁wan	-12.104
▁114	-12.1049
▁govern	-12.1054
▁foe	-12.1054
▁spat	-12.1055
▁poison	-12.1055
▁hog	-12.1056
eni	-12.106
▁wei	-12.107
▁beg	-12.1072
▁recogniz	-12.1075
▁rhino	-12.1076
▁barricade	-12.1077
▁gadget	-12.108
▁injection	-12.108
▁dragon	-12.1081
▁slogan	-12.1081
▁programme	-12.1082
▁archive	-12.1083
▁arrangement	-12.1083
zio	-12.1085
▁carmaker	-12.1088
▁128	-12.1088
▁revis	-12.1088
▁gam	-12.1089
boy	-12.1089
83	-12.1102
▁costume	-12.1104
▁speculat	-12.1107
fid	-12.1109
▁mori	-12.1109
▁dori	-12.1113
▁intimidat	-12.1114
▁erupt	-12.1115
▁impeach	-12.1115
▁facilitat	-12.1116
fest	-12.1116
▁accomplish	-12.1117
▁confess	-12.1118
▁plummet	-12.1119
▁bias	-12.1119
▁plots	-12.1119
▁shatter	-12.112
▁exporter	-12.1124
▁luc	-12.1125
down	-12.113
cream	-12.114
▁pont	-12.1141
▁flip	-12.1141
broke	-12.1141
▁hank	-12.1151
▁unconditional	-12.1161
▁reinstate	-12.1162
▁topple	-12.1163
▁albania	-12.1163
▁bike	-12.1164
▁mechanic	-12.1164
▁therap	-12.1165
▁emphasize	-12.1167
▁kuznetsov	-12.1173
▁migrat	-12.1174
▁mario	-12.1175
▁invade	-12.1176
▁bernie	-12.1176
▁abdom	-12.1177
▁hutchins	-12.1177
▁clint	-12.1177
omi	-12.1178
▁censor	-12.1178
▁futurist	-12.1178
▁1957	-12.1178
▁1961	-12.1178
▁1966	-12.1178
▁abolition	-12.1178
▁adidas	-12.1178
▁alejandr	-12.1178
▁arlington	-12.1178
▁awkward	-12.1178
▁backpack	-12.1178
▁bamboo	-12.1178
▁bollea	-12.1178
▁brawl	-12.1178
▁caesar	-12.1178
▁caldwell	-12.1178
▁carnival	-12.1178
▁cheetah	-12.1178
▁cockpit	-12.1178
▁context	-12.1178
▁crouch	-12.1178
▁daschle	-12.1178
▁deflect	-12.1178
▁delinquents	-12.1178
▁deterioration	-12.1178
▁devastation	-12.1178
▁discontent	-12.1178
▁eduardo	-12.1178
▁enclave	-12.1178
▁endeavor	-12.1178
▁escalator	-12.1178
▁flattened	-12.1178
▁fletcher	-12.1178
▁glory	-12.1178
▁grylls	-12.1178
▁illuminat	-12.1178
▁infringement	-12.1178
▁innovation	-12.1178
▁irrawaddy	-12.1178
▁juventu	-12.1178
▁leisure	-12.1178
▁madagascar	-12.1178
▁malnutrition	-12.1178
▁marseille	-12.1178
▁memorandum	-12.1178
▁misconduct	-12.1178
▁mubarak	-12.1178
▁munitions	-12.1178
▁namibia	-12.1178
▁ohmynews	-12.1178
▁omaha	-12.1178
▁outnumber	-12.1178
▁paleontologist	-12.1178
▁palestine	-12.1178
▁pavilion	-12.1178
▁peshawar	-12.1178
▁prevail	-12.1178
▁puppy	-12.1178
▁qualification	-12.1178
▁rainfall	-12.1178
▁rockefeller	-12.1178
▁samphan	-12.1178
▁skeptical	-12.1178
▁skyrocket	-12.1178
▁specimen	-12.1178
▁strategies	-12.1178
▁stuart	-12.1178
▁suitcase	-12.1178
▁sullivan	-12.1178
▁tariq	-12.1178
▁thriving	-12.1178
▁thymus	-12.1178
▁trinidad	-12.1178
▁troubling	-12.1178
▁unarmed	-12.1178
▁unavoidable	-12.1178
▁unhcr	-12.1178
▁unhurt	-12.1178
▁unify	-12.1178
▁vwp	-12.1178
▁wachovia	-12.1178
▁zaidi	-12.1178
▁zvonareva	-12.1178
▁burris	-12.1178
▁fertilizer	-12.1178
▁flawed	-12.1178
▁flaws	-12.1178
▁nowhere	-12.1178
▁swayze	-12.1178
▁thrive	-12.1178
▁asleep	-12.1178
▁aurora	-12.1178
▁sniper	-12.1178
▁flank	-12.1178
▁dismal	-12.1178
▁posco	-12.1178
▁connor	-12.1178
▁sheehan	-12.1178
▁whitmore	-12.1178
▁correa	-12.1178
▁duncan	-12.1178
▁karrada	-12.1179
▁sequel	-12.1179
▁gym	-12.1179
▁superjumbo	-12.1179
▁forehand	-12.1179
▁hackett	-12.1179
▁morici	-12.1179
▁perpetrators	-12.1179
eutic	-12.1179
▁foremost	-12.1179
▁meddl	-12.1179
▁resent	-12.1179
▁calculations	-12.1179
▁appreciation	-12.1179
▁raymond	-12.1179
▁desktop	-12.1179
▁dublin	-12.1179
▁allergi	-12.1179
▁grill	-12.1179
▁whitson	-12.1179
▁mismanagement	-12.1179
otto	-12.1179
▁preview	-12.1179
▁cesar	-12.1179
▁ricard	-12.1179
▁zhe	-12.1179
▁levee	-12.1179
▁touchdown	-12.1179
▁creek	-12.1179
▁frigid	-12.1179
▁inevitable	-12.1179
▁expectancy	-12.1179
▁harassment	-12.1179
▁patron	-12.1179
▁reeling	-12.1179
▁feline	-12.1179
▁sushi	-12.1179
▁ayres	-12.1179
▁namdaemun	-12.1179
▁philippe	-12.1179
▁glea	-12.1179
▁marcus	-12.1179
▁patent	-12.1179
▁tuning	-12.1179
▁muddy	-12.118
▁mercy	-12.118
▁bradley	-12.118
▁consolidation	-12.118
▁confinement	-12.118
▁franklin	-12.118
▁freshwater	-12.118
▁stockholm	-12.118
▁straw	-12.118
▁cement	-12.118
▁lame	-12.118
▁colonies	-12.118
▁liberalization	-12.118
▁nuts	-12.118
▁hopkin	-12.118
▁batman	-12.118
▁architecture	-12.118
▁militiamen	-12.118
▁groom	-12.1181
▁1963	-12.1181
▁splitting	-12.1181
▁chungchon	-12.1181
▁cheese	-12.1181
▁dimensional	-12.1182
▁tevez	-12.1182
elvis	-12.1182
▁journalism	-12.1182
▁connery	-12.1182
▁2013	-12.1182
▁refrigerator	-12.1182
▁911	-12.1182
▁commemoration	-12.1182
▁saber	-12.1183
▁leno	-12.1183
▁marshall	-12.1183
▁colorful	-12.1183
▁columnist	-12.1183
▁fabrication	-12.1183
andy	-12.1183
▁clipper	-12.1184
▁jeon	-12.1184
▁airspace	-12.1184
▁electorate	-12.1184
▁hilar	-12.1184
▁plight	-12.1185
▁crest	-12.1185
▁revival	-12.1185
▁piz	-12.1185
▁unfit	-12.1185
▁duran	-12.1186
▁urine	-12.1186
▁compatible	-12.1187
▁tornadoes	-12.1188
▁thorn	-12.1188
▁eaten	-12.1189
▁4.4	-12.1189
▁hardline	-12.1189
▁hospitalization	-12.1189
▁depiction	-12.1189
▁desirable	-12.119
uku	-12.119
hl	-12.1191
▁mountainside	-12.1191
wc	-12.1191
▁underwater	-12.1192
▁tangib	-12.1193
▁durable	-12.1193
▁windsor	-12.1193
▁temper	-12.1194
▁downward	-12.1195
▁reinstated	-12.1195
▁incomes	-12.1197
▁accelerating	-12.1198
▁flush	-12.1198
▁scary	-12.1198
▁iwc	-12.1198
▁26,000	-12.1198
▁orphans	-12.12
onic	-12.1205
ven	-12.1206
▁randomly	-12.1209
▁overhead	-12.1209
▁centrifuges	-12.1209
▁tumbling	-12.1211
▁worm	-12.1212
▁stam	-12.1213
▁periodic	-12.1213
▁upward	-12.1217
▁stok	-12.1217
▁brady	-12.1219
▁relate	-12.122
grad	-12.122
▁exhausted	-12.1223
▁fey	-12.1225
▁covert	-12.1226
▁ailments	-12.1226
▁outages	-12.1226
asahi	-12.1228
▁shorten	-12.1228
▁indexes	-12.123
▁tele	-12.123
▁candy	-12.1232
▁helmets	-12.1235
▁technicians	-12.1235
▁attendants	-12.1235
▁locally	-12.1235
.50	-12.1236
▁shaha	-12.1236
▁0.6	-12.1238
▁parliamentarian	-12.1243
▁calories	-12.1244
▁plumes	-12.1244
▁decreased	-12.1244
▁poisoning	-12.1245
▁insulting	-12.1245
holm	-12.1246
▁slopes	-12.1248
▁porter	-12.1248
▁roared	-12.1249
▁intercepted	-12.125
▁mistaken	-12.1254
▁hackers	-12.1255
▁booster	-12.1257
▁solved	-12.126
▁instructions	-12.126
▁pharmaceuticals	-12.1261
▁marchers	-12.1262
▁seller	-12.1263
▁alleges	-12.1267
▁generators	-12.127
young	-12.1272
▁borrowing	-12.1273
iers	-12.1273
▁indicator	-12.1275
▁calculate	-12.1277
▁ferr	-12.1279
▁insults	-12.128
▁embarrassed	-12.1282
▁foes	-12.1283
▁donkeys	-12.1287
soon	-12.1291
▁periods	-12.1292
▁permanently	-12.1302
▁inject	-12.1302
leban	-12.1304
▁brooks	-12.1304
▁segments	-12.1305
▁mediators	-12.1305
▁sellers	-12.1306
▁6.6	-12.1309
▁encountered	-12.131
▁interact	-12.1313
▁rovers	-12.1315
▁wrapp	-12.1316
▁850	-12.1319
▁jokes	-12.1321
▁hamm	-12.1321
▁oliver	-12.1329
▁posters	-12.1334
pc	-12.1339
▁saints	-12.134
▁resorts	-12.1341
▁physicians	-12.1348
▁adventures	-12.1349
▁processor	-12.1351
06	-12.1353
▁fuels	-12.1353
▁assertions	-12.1357
▁1,6	-12.1357
cm	-12.1358
▁dev	-12.1358
▁embrac	-12.1358
7.4	-12.1359
▁102	-12.136
▁fulfilled	-12.1362
▁baa	-12.1372
▁pol	-12.1374
▁4.3	-12.1376
doo	-12.1378
pag	-12.138
bach	-12.1381
▁expenses	-12.1383
▁objectives	-12.1383
▁dun	-12.1391
▁encounters	-12.1393
▁assaults	-12.1399
▁tro	-12.1399
▁fences	-12.1401
▁commenting	-12.141
ons	-12.1414
▁patt	-12.1416
▁1,2	-12.1425
▁tel	-12.1426
▁deadlines	-12.1427
▁chickens	-12.1428
▁georgian	-12.1428
▁menus	-12.143
▁skulls	-12.1436
▁carolin	-12.1436
▁rand	-12.1437
▁kh	-12.1438
▁1,0	-12.1438
▁fl	-12.1439
▁objected	-12.144
▁airplanes	-12.1442
▁albe	-12.1445
▁lords	-12.1445
nity	-12.1447
ishi	-12.1448
▁publishers	-12.1448
▁bert	-12.1453
▁predecessors	-12.1454
osa	-12.1455
iba	-12.1458
▁tsa	-12.1465
▁tales	-12.1468
▁peta	-12.1476
▁joan	-12.1482
52	-12.149
▁tick	-12.1501
▁tha	-12.1501
▁serg	-12.1503
▁tal	-12.1508
▁guides	-12.1509
▁moms	-12.1514
ight	-12.1515
▁concepts	-12.1516
▁myth	-12.1523
▁molecul	-12.1528
▁hunted	-12.1539
▁kicking	-12.154
▁sexy	-12.1542
98	-12.155
▁intra	-12.1566
▁gere	-12.1567
▁panels	-12.1576
▁approves	-12.1579
▁pitcher	-12.1583
▁withstand	-12.1585
▁protects	-12.1586
▁heroin	-12.1596
▁drawings	-12.1597
abi	-12.16
kel	-12.1601
▁asha	-12.1608
ngled	-12.1611
▁mosques	-12.1611
▁attitudes	-12.1614
▁kais	-12.1615
▁narrowed	-12.1621
cs	-12.1624
▁sands	-12.1654
▁rods	-12.1664
▁differently	-12.1666
▁glen	-12.1669
▁fri	-12.167
embe	-12.1673
▁plen	-12.1675
▁appointments	-12.1677
tained	-12.1681
▁61,	-12.1685
▁wasted	-12.1686
▁dare	-12.1687
▁boo	-12.172
▁collections	-12.1723
▁consolidate	-12.1724
▁duc	-12.1737
idge	-12.1738
▁pumps	-12.1752
nier	-12.1753
▁168	-12.1755
▁arrives	-12.176
tina	-12.1767
▁rises	-12.1773
rne	-12.1774
▁lav	-12.1776
▁endors	-12.1777
▁bells	-12.1778
▁lal	-12.1778
▁wet	-12.1778
▁lid	-12.1783
▁forge	-12.1787
mul	-12.179
▁wears	-12.1798
▁supervis	-12.1806
▁snub	-12.181
▁colleges	-12.1815
▁exception	-12.1826
▁knees	-12.183
eon	-12.1835
tang	-12.1837
8.6	-12.1842
▁neuro	-12.1844
ates	-12.1844
▁summers	-12.1856
▁185	-12.1858
▁gaps	-12.1859
nmen	-12.1868
▁clerics	-12.1877
▁instruct	-12.1878
▁bearer	-12.1879
▁aden	-12.1883
▁preced	-12.1892
▁124	-12.1897
graph	-12.1902
gy	-12.1903
▁pha	-12.1917
▁bre	-12.193
onian	-12.1932
▁explains	-12.1937
▁alba	-12.1937
cau	-12.194
▁5.3	-12.194
rammed	-12.1946
▁observ	-12.1948
bling	-12.1952
▁rai	-12.1959
▁greg	-12.196
▁320	-12.1961
▁pil	-12.1965
▁relat	-12.1966
▁punch	-12.1969
▁trap	-12.197
fty	-12.1974
▁holi	-12.1977
▁tasks	-12.1979
▁emotion	-12.1984
iti	-12.1984
▁supermarket	-12.1986
▁header	-12.1987
▁330	-12.1988
▁magistrate	-12.1988
▁cannon	-12.1989
▁andrea	-12.1989
▁tattoo	-12.1989
▁vegetable	-12.1989
▁nerve	-12.1989
▁sibling	-12.199
▁generator	-12.199
▁textbook	-12.1991
▁prostitute	-12.1991
▁shu	-12.1992
▁athlete	-12.1992
▁prediction	-12.1993
▁playoff	-12.1994
▁restriction	-12.1996
▁nail	-12.1996
▁slave	-12.1997
▁examples	-12.1997
dong	-12.1997
▁offender	-12.2002
▁employer	-12.2002
59	-12.2004
ele	-12.2007
▁warship	-12.2008
▁doubl	-12.2008
▁enforc	-12.2015
media	-12.202
▁shifts	-12.202
▁shrink	-12.2023
▁disturb	-12.2023
▁inflict	-12.2026
▁fabric	-12.2026
▁server	-12.2028
▁convict	-12.2028
▁admire	-12.203
▁brew	-12.2036
▁jewel	-12.2043
continent	-12.2049
grown	-12.205
league	-12.205
▁stoke	-12.2051
human	-12.2059
▁simpsons	-12.2062
▁borne	-12.2063
uni	-12.2067
▁unanimous	-12.2071
▁postpone	-12.2072
▁compensate	-12.2072
▁surprises	-12.2073
▁3.4	-12.2074
▁pornograph	-12.2076
▁isolate	-12.2078
▁renovat	-12.2083
▁mosquito	-12.2084
▁profession	-12.2085
▁rahm	-12.2086
▁obsess	-12.2087
▁buoy	-12.2087
▁harass	-12.2087
qtada	-12.2087
▁basket	-12.2087
▁awake	-12.2087
▁demographic	-12.2088
▁fluctuat	-12.2088
▁kazakh	-12.2088
▁olympia	-12.2088
▁unwilling	-12.2088
▁abductees	-12.2088
▁accessories	-12.2088
▁advocacy	-12.2088
▁aluminum	-12.2088
▁animosity	-12.2088
▁antenna	-12.2088
▁appalling	-12.2088
▁appetite	-12.2088
▁audiotape	-12.2088
▁balcony	-12.2088
▁ballesteros	-12.2088
▁berezovsky	-12.2088
▁bhumibol	-12.2088
▁bourse	-12.2088
▁bulbs	-12.2088
▁categorical	-12.2088
▁chihuahua	-12.2088
▁clergy	-12.2088
▁compact	-12.2088
▁crawl	-12.2088
▁curtail	-12.2088
▁dawson	-12.2088
▁deceased	-12.2088
▁dillon	-12.2088
▁discourage	-12.2088
▁disqualified	-12.2088
▁disregard	-12.2088
▁divisive	-12.2088
▁diwaniya	-12.2088
▁djamena	-12.2088
▁edmund	-12.2088
▁elusive	-12.2088
▁fayyad	-12.2088
▁fowler	-12.2088
▁fundraiser	-12.2088
▁gadhafi	-12.2088
▁goddess	-12.2088
▁gutierrez	-12.2088
▁hiatus	-12.2088
▁hoffman	-12.2088
▁icahn	-12.2088
▁innovative	-12.2088
▁jeopardy	-12.2088
▁jessica	-12.2088
▁jetliner	-12.2088
▁knives	-12.2088
▁krugman	-12.2088
▁larijani	-12.2088
▁latitude	-12.2088
▁lexicon	-12.2088
▁loophole	-12.2088
▁mafia	-12.2088
▁mantovani	-12.2088
▁mcclaren	-12.2088
▁meadow	-12.2088
▁mekong	-12.2088
▁melanoma	-12.2088
▁module	-12.2088
▁montreal	-12.2088
▁moratorium	-12.2088
▁nargis	-12.2088
▁niigata	-12.2088
▁ordinance	-12.2088
▁outflow	-12.2088
▁paterson	-12.2088
▁petrochemical	-12.2088
▁portfolio	-12.2088
▁psychiatry	-12.2088
▁rachel	-12.2088
▁racism	-12.2088
▁radius	-12.2088
▁rajasthan	-12.2088
▁rethink	-12.2088
▁riyadh	-12.2088
▁rspb	-12.2088
▁rubaie	-12.2088
▁salvage	-12.2088
▁seismic	-12.2088
▁separating	-12.2088
▁skeptics	-12.2088
▁souvenir	-12.2088
▁srebrenica	-12.2088
▁staggering	-12.2088
▁steadfast	-12.2088
▁tanzania	-12.2088
▁timeframe	-12.2088
▁tyranny	-12.2088
▁unclaimed	-12.2088
▁unemployed	-12.2088
▁utilize	-12.2088
▁variation	-12.2088
▁whatsoever	-12.2088
▁xbox	-12.2088
▁yangtze	-12.2088
▁yogyakarta	-12.2088
▁dreamliner	-12.2088
▁dreamworks	-12.2088
▁groundbreaking	-12.2088
▁gwen	-12.2088
▁hottest	-12.2088
▁lisbon	-12.2088
▁obese	-12.2088
▁odell	-12.2088
▁scholes	-12.2088
▁stoppage	-12.2088
▁yelled	-12.2088
▁churn	-12.2088
▁dynamite	-12.2088
▁ericsson	-12.2088
▁outcry	-12.2088
▁quantum	-12.2088
▁sderot	-12.2088
▁evict	-12.2088
▁panicked	-12.2088
▁trunk	-12.2088
▁calf	-12.2088
▁headphones	-12.2088
▁ramadan	-12.2088
▁scoop	-12.2088
▁vanished	-12.2088
▁najaf	-12.2088
▁ontario	-12.2088
▁nurtur	-12.2088
▁erratic	-12.2088
▁unstable	-12.2088
▁jorge	-12.2088
▁mimic	-12.2088
▁bergen	-12.2088
▁malignant	-12.2088
▁peggy	-12.2088
▁pessimistic	-12.2088
▁crescent	-12.2088
▁sleeve	-12.2088
▁norfolk	-12.2088
▁pierce	-12.2088
▁sleet	-12.2088
▁opium	-12.2088
▁awful	-12.2088
▁griev	-12.2088
▁biometric	-12.2088
▁tusk	-12.2088
▁camilla	-12.2088
▁minivan	-12.2088
▁alitalia	-12.2088
▁empower	-12.2088
▁spinning	-12.2088
▁generous	-12.2088
▁solana	-12.2088
▁cowboy	-12.2088
▁abstain	-12.2088
▁spoil	-12.2088
▁governance	-12.2088
▁juice	-12.2088
▁charismatic	-12.2088
▁daegu	-12.2088
▁restructure	-12.2088
▁ariel	-12.2088
▁cardiov	-12.2088
▁fraudulent	-12.2088
▁hedge	-12.2088
▁aceh	-12.2088
▁dismay	-12.2088
▁zuma	-12.2088
▁ratified	-12.2088
▁diaries	-12.2088
▁cruelty	-12.2088
▁cheema	-12.2088
▁flourish	-12.2088
▁cooperating	-12.2088
revor	-12.2088
▁forgery	-12.2088
▁entries	-12.2088
▁eads	-12.2088
▁tanner	-12.2088
▁unbelievable	-12.2088
▁yongsan	-12.2088
▁gallas	-12.2088
▁comfortably	-12.2088
▁flexibility	-12.2088
▁paradise	-12.2088
▁conscience	-12.2088
▁smugglers	-12.2088
▁rushdie	-12.2088
▁richmond	-12.2088
▁birthrate	-12.2088
▁clever	-12.2088
▁furious	-12.2088
▁patriotism	-12.2088
▁luke	-12.2089
▁sponsorship	-12.2089
▁gdp	-12.2089
▁adjustment	-12.2089
▁embarrassment	-12.2089
▁dutt	-12.2089
▁zahir	-12.2089
▁problematic	-12.2089
▁grasp	-12.2089
▁jeju	-12.2089
▁dismantlement	-12.2089
▁frequency	-12.2089
▁artwork	-12.2089
▁liftoff	-12.2089
▁cohen	-12.2089
▁gloves	-12.2089
▁nicholson	-12.209
▁airlift	-12.209
▁cellular	-12.209
▁apache	-12.209
▁terrifi	-12.209
▁arabiya	-12.209
▁chic	-12.209
▁dann	-12.209
▁freak	-12.209
▁cotte	-12.209
▁ancest	-12.209
▁summar	-12.209
▁1940	-12.2091
▁hosseini	-12.2091
▁sophi	-12.2091
▁amass	-12.2091
▁kfa	-12.2091
▁chew	-12.2091
▁porch	-12.2091
▁refinery	-12.2091
▁certifi	-12.2092
▁marketplace	-12.2092
▁maul	-12.2092
▁wyman	-12.2092
▁1948	-12.2092
▁interruption	-12.2092
▁perez	-12.2092
▁takeshima	-12.2092
▁huts	-12.2092
▁thankful	-12.2092
▁ngo	-12.2092
▁sagar	-12.2093
▁luz	-12.2093
▁burke	-12.2093
▁revoked	-12.2093
▁elevated	-12.2093
▁fertile	-12.2093
▁distinguish	-12.2093
▁walt	-12.2093
▁swaying	-12.2094
▁creditors	-12.2094
▁angri	-12.2095
▁lapse	-12.2095
11	-12.2095
▁sack	-12.2095
▁interceptor	-12.2095
▁denis	-12.2096
▁confused	-12.2096
▁barker	-12.2096
▁1,100	-12.2097
▁fearful	-12.2097
▁jur	-12.2097
▁pew	-12.2097
▁crippled	-12.2098
▁airship	-12.2098
▁420	-12.2098
▁ouster	-12.2098
▁liberate	-12.2098
▁xue	-12.2099
▁deteriorated	-12.2099
▁wool	-12.2099
▁6.4	-12.2099
▁scorer	-12.21
▁maure	-12.21
▁heller	-12.21
▁barber	-12.21
▁reactions	-12.21
▁volcanoes	-12.2101
▁registr	-12.2102
▁robertson	-12.2102
▁plaintiffs	-12.2102
▁institutional	-12.2103
hallow	-12.2104
▁saleh	-12.2106
▁jamm	-12.2106
▁glasses	-12.2107
▁299	-12.2108
▁saga	-12.2109
▁singaporean	-12.2109
▁startling	-12.2109
▁poke	-12.2109
▁solicit	-12.2109
▁rug	-12.211
▁qara	-12.2112
▁crusader	-12.2112
▁capitalism	-12.2112
▁exaggerated	-12.2114
▁udp	-12.2115
▁fallon	-12.2115
▁verge	-12.2116
▁brighter	-12.2117
▁renamed	-12.2118
▁shade	-12.212
▁someday	-12.2121
▁preconditions	-12.2121
▁amman	-12.2121
▁polluted	-12.2122
▁conventions	-12.2122
▁hijackers	-12.2122
▁marty	-12.2125
▁shaken	-12.2125
▁stresses	-12.2126
▁ibn	-12.2127
▁budd	-12.2128
mmel	-12.213
▁nutrients	-12.213
▁vendors	-12.213
▁secularist	-12.2132
▁mauric	-12.2133
▁betting	-12.2134
▁icr	-12.2134
▁quicker	-12.2136
▁ansa	-12.2136
▁satisfaction	-12.2137
▁carriages	-12.214
▁foreclosures	-12.214
▁grams	-12.2141
▁loosen	-12.2142
▁westerners	-12.2145
yo	-12.2145
▁choke	-12.2146
▁foundations	-12.2147
▁joked	-12.2147
▁valve	-12.2149
▁machetes	-12.215
hil	-12.215
▁carli	-12.2152
▁punching	-12.2153
▁sacking	-12.2154
▁accomplished	-12.2155
▁6.2	-12.2155
▁ruined	-12.2155
▁insulted	-12.2156
▁protester	-12.2156
▁wired	-12.2157
▁carson	-12.2159
▁carat	-12.2166
▁tzi	-12.2167
▁gators	-12.2168
▁clipp	-12.2169
▁revelations	-12.2169
iki	-12.217
▁zane	-12.217
dependence	-12.2171
▁5.1	-12.2173
▁105	-12.2173
▁laughed	-12.2173
▁56,	-12.2176
▁historically	-12.2178
▁supplements	-12.2178
rai	-12.2181
▁fist	-12.2181
▁magistrates	-12.2188
▁cannons	-12.2188
▁playoffs	-12.2188
75,000	-12.2188
▁sliding	-12.2191
ux	-12.2194
▁paula	-12.2194
▁processes	-12.2194
▁jett	-12.2197
▁injections	-12.2198
tenberg	-12.2201
▁rivera	-12.2202
▁ev	-12.2202
.75	-12.2203
▁nails	-12.2205
▁planners	-12.2207
▁sleepy	-12.2211
▁hay	-12.2213
▁boasted	-12.2213
▁onboard	-12.2217
▁trainers	-12.2218
▁uneas	-12.2219
▁drm	-12.222
idf	-12.2221
▁bras	-12.2221
▁resisting	-12.2226
▁mills	-12.2226
ification	-12.223
▁abolished	-12.2231
▁borg	-12.2232
▁destroyer	-12.2235
▁cubs	-12.2238
▁surfing	-12.2242
▁practiced	-12.2243
▁ambassadors	-12.2244
▁birdie	-12.2248
▁foray	-12.2249
▁distressed	-12.2254
▁julian	-12.2255
▁updates	-12.2256
▁shui	-12.2257
▁africans	-12.2259
▁sparks	-12.2259
▁7.7	-12.2266
▁expressions	-12.2266
▁das	-12.2267
▁pas	-12.2271
▁singers	-12.2272
▁nominate	-12.2274
▁demi	-12.2279
▁denials	-12.2284
▁belts	-12.2285
▁sali	-12.2288
▁jeans	-12.2292
▁exams	-12.2294
▁lonely	-12.23
▁vit	-12.23
▁listing	-12.2302
▁detectives	-12.2303
▁administrators	-12.2303
▁backs	-12.2304
▁stampede	-12.2307
▁beak	-12.2308
▁boob	-12.2311
▁darre	-12.2312
▁gui	-12.2321
▁casinos	-12.2323
▁disruptions	-12.2323
▁painter	-12.2325
igh	-12.2326
.04	-12.2333
▁functions	-12.2334
[...]
