.	-3.2644
<s>	0
</s>	0
<unk>	0
을	-3.66488
의	-3.79562
▁	-3.8859
를	-4.12648
는	-4.16321
은	-4.39953
가	-4.44397
,	-4.45745
에	-4.47126
이	-4.49106
고	-5.05875
한	-5.20716
에서	-5.2265
로	-5.27243
▁이	-5.31833
일	-5.31859
인	-5.32623
▁있다	-5.50409
과	-5.52949
으로	-5.52998
▁고	-5.57581
와	-5.64566
▁수	-5.66495
▁밝혔다	-5.7246
▁말했다	-5.74764
도	-5.76051
할	-5.81754
년	-5.86983
▁있는	-5.92072
▁그	-6.03416
지	-6.09267
하고	-6.09929
▁그는	-6.106
▁2	-6.13015
하는	-6.16706
▁1	-6.18204
▁전	-6.19452
다	-6.20944
▁대한	-6.22802
▁위해	-6.24739
▁이번	-6.30235
▁한	-6.31017
했다	-6.31103
▁미국	-6.32457
▁전했다	-6.32551
월	-6.32696
▁3	-6.37158
만	-6.37735
▁지난	-6.40062
▁현지시간	-6.42974
된	-6.47891
▁대해	-6.50355
해	-6.53066
▁며	-6.53272
▁중	-6.55061
▁미	-6.55124
▁것으로	-6.58203
기	-6.62308
▁것이라고	-6.63207
에게	-6.64446
▁것	-6.64492
명이	-6.65697
▁있다고	-6.69298
▁4	-6.71098
▁그러나	-6.72066
▁것을	-6.72513
자	-6.7798
▁이라크	-6.79404
s	-6.79428
▁더	-6.79785
▁6	-6.79913
▁5	-6.83751
▁다른	-6.8564
게	-6.8737
스	-6.91051
▁대통령	-6.91746
히	-6.92663
하게	-6.9293
▁10	-6.93817
▁중국	-6.93927
운	-6.95898
▁한편	-6.97175
나	-6.98455
▁이라고	-7.00106
▁약	-7.00389
▁북한	-7.00489
던	-7.0485
▁등	-7.0616
들이	-7.07176
하기	-7.0791
명의	-7.08309
▁후	-7.08379
며	-7.08644
시	-7.10956
▁많은	-7.1207
▁오바마	-7.12305
▁위한	-7.12371
▁통해	-7.13756
▁이후	-7.14273
▁부시	-7.14456
▁내	-7.14573
▁정부	-7.14597
하지	-7.14954
▁에	-7.15015
▁주	-7.1553
▁또	-7.15693
적인	-7.1619
▁대통령은	-7.1657
▁두	-7.19436
▁가장	-7.19485
▁8	-7.19905
▁관련	-7.20613
▁영국	-7.21443
▁동안	-7.21679
▁같은	-7.22046
▁것이다	-7.23543
▁7	-7.24511
▁대변인은	-7.2523
▁한국	-7.26975
리	-7.28267
대	-7.3063
될	-7.31079
명	-7.3358
들은	-7.34246
▁세계	-7.34574
▁주장했다	-7.34594
8	-7.36223
▁될	-7.36478
라	-7.36638
▁할	-7.37038
▁한다	-7.37474
▁것은	-7.37485
주	-7.37515
▁현재	-7.37535
이다	-7.37759
▁가	-7.38291
▁또한	-7.39255
▁바	-7.40224
▁알	-7.41629
드	-7.42112
까지	-7.42119
▁때	-7.42153
▁12	-7.42395
했다고	-7.42761
서	-7.43344
▁the	-7.44729
▁이상	-7.44786
▁보도했다	-7.44796
▁9	-7.45167
▁최근	-7.45514
사	-7.45599
▁덧붙였다	-7.45759
세	-7.4581
및	-7.46015
▁경우	-7.46044
▁했다	-7.4655
트	-7.46794
▁있었다	-7.47149
▁영화	-7.47997
하며	-7.48965
▁않았다	-7.49098
했던	-7.49149
▁문제	-7.49329
개	-7.51099
▁자신의	-7.51616
▁모든	-7.51679
▁11	-7.52022
▁20	-7.53544
▁일부	-7.53933
어	-7.54076
▁새로	-7.54698
▁함께	-7.55852
▁것이	-7.56239
하	-7.56284
▁당시	-7.56362
▁라고	-7.56983
했으며	-7.59344
▁미군	-7.59634
▁경제	-7.60221
▁그리고	-7.6067
야	-7.60783
됐다	-7.61035
수	-7.61157
성	-7.61247
▁일본	-7.61453
▁때문에	-7.61972
▁뒤	-7.63709
▁cnn	-7.64256
▁우리	-7.65001
▁30	-7.66137
▁수도	-7.66267
▁예정이다	-7.66584
▁모두	-7.67752
▁설명했다	-7.67861
▁몇	-7.68258
▁있습니다	-7.68686
면	-7.69029
▁있으며	-7.69288
들을	-7.6969
▁to	-7.69884
▁조사	-7.70203
▁나	-7.708
▁경찰은	-7.71
라고	-7.7101
르	-7.72248
▁프랑스	-7.72467
▁정부는	-7.72749
에는	-7.73259
▁유엔	-7.74117
▁일	-7.74259
▁이들	-7.75184
▁큰	-7.75405
▁계속	-7.75757
▁말	-7.7643
▁하는	-7.76602
▁파키스탄	-7.76744
비	-7.771
아	-7.77562
진	-7.77604
해야	-7.77881
▁에서	-7.78735
▁러시아	-7.79435
▁제	-7.80566
▁결과	-7.80595
니	-7.80741
▁없다	-7.81068
▁지난해	-7.8154
▁로	-7.81634
보다	-7.81769
▁공격	-7.82019
▁올해	-7.82103
▁15	-7.8219
▁국가	-7.82365
▁대통령이	-7.82937
적	-7.83005
억	-7.83593
▁사실	-7.83606
▁않을	-7.83783
▁사고	-7.83964
▁민주당	-7.83978
▁19	-7.84169
▁계획	-7.84252
상	-7.84598
1	-7.84827
▁지	-7.85027
▁시	-7.85079
하다	-7.85257
▁클린턴	-7.85682
▁s	-7.85848
▁열린	-7.8595
▁경기	-7.86127
▁비	-7.86161
▁이스라엘	-7.86524
▁이날	-7.86899
명을	-7.86971
크	-7.87227
▁지역	-7.8761
차	-7.89397
▁총리는	-7.89872
▁경찰	-7.89983
한다	-7.90087
▁발표했다	-7.91118
▁사	-7.91574
▁하고	-7.91684
▁발생한	-7.91794
▁16	-7.92007
▁이란	-7.92158
▁받고	-7.9261
에서는	-7.92722
부	-7.93175
2	-7.93858
길	-7.93947
▁미국의	-7.94144
▁존	-7.94145
했습니다	-7.94578
도록	-7.94896
원	-7.94952
▁회담	-7.95028
치	-7.95032
▁있을	-7.95195
▁a	-7.95937
분	-7.96084
▁테러	-7.96087
▁아직	-7.96428
▁of	-7.97036
▁달러	-7.97365
▁후보	-7.97776
▁반	-7.97956
▁가운데	-7.98193
▁핵	-7.98637
▁사람들이	-7.9927
소	-7.99808
이라고	-8.00364
당	-8.00905
▁정부가	-8.00947
적으로	-8.01124
▁18	-8.01203
▁의해	-8.01435
▁주요	-8.01461
이나	-8.01761
▁된다	-8.01966
▁마	-8.02532
▁지원	-8.02571
부터	-8.02693
▁아	-8.0326
▁국제	-8.03743
▁다시	-8.03813
▁데	-8.04341
즈	-8.04369
▁우리는	-8.04477
▁여성	-8.0451
▁됐다	-8.0517
용	-8.05211
▁사건	-8.0537
▁인해	-8.05378
입니다	-8.05421
▁군	-8.05458
▁관계	-8.06223
화	-8.0628
에도	-8.06638
▁13	-8.06886
▁선거	-8.07106
▁거	-8.0725
라는	-8.07257
▁해	-8.07268
▁않은	-8.07278
▁첫	-8.07877
전	-8.08034
보	-8.08097
▁달	-8.08168
선	-8.08226
▁안	-8.08776
▁보고	-8.09183
▁25	-8.09189
▁총리	-8.09754
m	-8.09859
6	-8.10506
▁14	-8.10879
▁있다는	-8.1115
▁혐의로	-8.11191
▁아프간	-8.11227
▁tv	-8.11303
▁이미	-8.11767
▁지금	-8.12004
에따르면	-8.1212
▁오	-8.12214
▁50	-8.12368
간	-8.12623
으며	-8.12687
지만	-8.12738
마	-8.1293
장	-8.13058
위	-8.13064
면서	-8.13239
▁대	-8.1403
여	-8.14086
▁원문기사	-8.14177
▁22	-8.14231
▁다	-8.14338
▁연구	-8.14356
▁시위	-8.14737
▁조치	-8.15203
e	-8.1547
하면서	-8.15529
보기	-8.15977
▁위치한	-8.16033
바	-8.1616
▁매우	-8.16255
▁총	-8.16346
▁시간	-8.16487
었다	-8.16669
들	-8.17286
▁부	-8.17293
▁결정	-8.17336
▁받았다	-8.17407
▁세	-8.17474
▁없는	-8.1781
▁팔레스타인	-8.17852
km	-8.18005
시간	-8.18328
프	-8.18462
▁이슬람	-8.18563
타	-8.18623
▁줄	-8.18911
▁17	-8.19098
▁이는	-8.19853
5	-8.19877
되어	-8.19933
?	-8.19947
▁추가	-8.20005
▁유럽	-8.20144
▁발표	-8.20267
로부터	-8.20347
▁피해	-8.20355
우	-8.20759
▁조	-8.2144
질	-8.21595
▁노	-8.21626
▁정보	-8.21739
하여	-8.22
▁않고	-8.2204
▁뉴욕	-8.22062
티	-8.22291
▁오늘	-8.22301
돼	-8.22408
레	-8.22513
▁한다고	-8.22589
▁사람들	-8.22625
파	-8.22634
▁채	-8.22645
▁초	-8.22897
▁대부분	-8.23654
▁탈레반	-8.23745
▁승리	-8.23764
되는	-8.23903
제	-8.2394
▁조지	-8.24175
▁대선	-8.24202
▁강	-8.24533
▁관계자는	-8.24552
▁아이	-8.24642
d	-8.2486
▁in	-8.25153
▁호주	-8.25291
▁라	-8.25573
▁어떤	-8.25881
▁인도	-8.25887
3	-8.26038
▁24	-8.26212
▁회사	-8.26283
▁명의	-8.26316
▁지적했다	-8.26491
▁방문	-8.26625
▁활동	-8.26858
▁기록	-8.27074
▁27	-8.27324
▁그들은	-8.27574
식	-8.27651
▁혐의	-8.27933
▁독일	-8.28142
▁소속	-8.285
▁포함	-8.28633
▁인터넷	-8.28664
▁잘	-8.2876
▁시장	-8.2893
▁내용	-8.28964
▁감독	-8.29088
ing	-8.29337
번	-8.29381
미	-8.29461
조	-8.29479
디	-8.29505
코	-8.29696
되고	-8.29838
▁새	-8.29877
▁21	-8.30115
▁관리	-8.30183
▁우려	-8.30286
▁이라며	-8.30478
▁당국은	-8.30496
처럼	-8.31248
달러	-8.31357
▁100	-8.31875
▁성	-8.31988
▁최고	-8.3214
▁상원의원	-8.32223
▁없다고	-8.32239
▁이에	-8.32274
▁40	-8.32428
린	-8.32445
▁23	-8.32617
▁하지	-8.32676
려	-8.32861
▁2006	-8.33146
표	-8.33313
▁지지	-8.33374
▁여러	-8.33381
▁대학	-8.33422
년간	-8.33507
▁받은	-8.33618
▁않는다	-8.33641
▁하	-8.33703
개월	-8.34463
▁못했다	-8.34597
▁하지만	-8.34947
▁협상	-8.35149
▁w	-8.35305
토	-8.3543
▁부상	-8.35644
▁간	-8.35697
▁프로그램	-8.35789
▁매케인	-8.35892
▁판매	-8.36127
▁예정	-8.36391
산	-8.36847
국	-8.36856
이며	-8.36902
되지	-8.36959
▁폭탄	-8.37094
들의	-8.37313
▁많	-8.37608
▁올림픽	-8.37645
내	-8.37663
▁카	-8.38157
▁오후	-8.38284
▁26	-8.38332
회	-8.38636
구	-8.38852
▁보	-8.38853
▁사람	-8.38903
러	-8.39045
▁있던	-8.39269
▁차	-8.39666
권	-8.39922
▁입장	-8.40102
▁북한이	-8.40107
▁기	-8.40252
▁전쟁	-8.40693
▁사망	-8.40775
▁원	-8.41015
▁2005	-8.41038
오	-8.41641
▁불	-8.41885
▁기술	-8.41908
▁미얀마	-8.42006
ed	-8.42348
y	-8.42432
▁인터뷰에서	-8.42469
명은	-8.42709
▁차량	-8.42721
▁구	-8.42784
▁자동차	-8.43053
▁기자	-8.43115
▁준비	-8.43382
▁나는	-8.43466
카	-8.43542
▁공화당	-8.43561
▁비난	-8.43705
호	-8.43835
▁우주	-8.43935
▁피	-8.43964
▁무	-8.4401
▁컴퓨터	-8.44055
▁있어	-8.44197
▁앞으로	-8.44326
▁이러	-8.44365
▁경찰이	-8.44385
▁것에	-8.44501
▁된	-8.4454
▁석방	-8.44718
▁갖고	-8.45337
개의	-8.45344
였다	-8.45456
▁시작	-8.45746
▁터키	-8.45793
▁마지막	-8.46139
▁있도록	-8.46145
▁강조했다	-8.46427
모	-8.46466
▁병원	-8.4659
했고	-8.46927
▁현지	-8.47347
▁개발	-8.47431
▁생각	-8.47512
▁상	-8.47542
▁인쇄	-8.4779
▁ap	-8.47821
▁떨어진	-8.4791
▁가진	-8.48094
브	-8.48476
▁오는	-8.4878
▁그녀는	-8.48812
▁당	-8.48875
▁변화	-8.49088
▁폭발	-8.49382
▁사진	-8.49386
9	-8.49417
▁오전	-8.49527
하는데	-8.49547
▁방송	-8.49693
정	-8.49756
▁물	-8.49859
▁사이	-8.49969
▁비난했다	-8.49989
▁해결	-8.50049
▁의사	-8.50232
▁정	-8.50303
▁처음	-8.50415
▁정책	-8.50452
▁재	-8.50638
▁미국과	-8.5064
점	-8.50665
▁독해	-8.50712
▁이어	-8.50733
▁평화	-8.51166
이었다	-8.51297
설명	-8.51399
▁앞서	-8.51401
▁버락	-8.51425
▁29	-8.51571
▁규모	-8.51644
▁자신이	-8.51778
▁원문	-8.51933
▁장관은	-8.51994
▁joins	-8.52023
▁발생	-8.52023
릴	-8.52047
▁처음으로	-8.52072
신	-8.52148
▁스페인	-8.52165
노	-8.52171
▁상황	-8.52177
▁그녀	-8.52496
▁검찰	-8.52549
▁증가	-8.52623
에따라	-8.52623
물	-8.52791
▁남자	-8.52847
하기로	-8.52928
들에게	-8.52998
▁성명	-8.53167
▁도	-8.53269
▁다음	-8.53286
데	-8.5341
▁미국이	-8.53509
▁이를	-8.53619
▁아시아	-8.53708
했지만	-8.53712
▁주장	-8.53775
▁도시	-8.53837
▁김	-8.53906
▁파	-8.5392
▁인근	-8.53942
▁노력	-8.53967
▁지난달	-8.54255
▁없었다	-8.54279
▁투표	-8.54672
거나	-8.54677
▁합의	-8.54677
▁위협	-8.54791
▁사용	-8.54898
▁자	-8.55056
되었다	-8.55118
직	-8.55174
▁금융	-8.5551
▁치료	-8.55511
▁유	-8.55831
▁사람들은	-8.55953
▁좋은	-8.55963
▁이탈리아	-8.55963
▁미국은	-8.56098
▁28	-8.56408
살	-8.56434
▁모	-8.56464
▁지역에서	-8.5651
▁힐러리	-8.56688
▁볼	-8.5673
▁있지만	-8.56826
▁관한	-8.5693
▁날	-8.56953
난	-8.56956
▁없이	-8.57
▁남부	-8.57093
법	-8.57137
▁연방	-8.57156
중	-8.57405
▁이용	-8.57432
▁반대	-8.58223
▁의회	-8.58233
▁사망자	-8.58298
▁매	-8.58549
▁점	-8.58573
온	-8.58574
▁이런	-8.58779
▁개	-8.58872
했으나	-8.58919
▁보인다	-8.59025
▁양	-8.59103
▁신	-8.59309
관	-8.59467
▁이들은	-8.59487
습니다	-8.59618
▁사망했다	-8.59779
▁이름	-8.59809
▁발	-8.59836
계	-8.59854
▁대표	-8.59896
▁여행	-8.59928
루	-8.60317
으로부터	-8.60458
▁리	-8.60479
발	-8.60622
▁않다	-8.60688
▁만에	-8.60754
▁안전	-8.60942
▁최소	-8.60956
▁산	-8.61244
▁당국	-8.61389
▁보도	-8.61419
▁중단	-8.61482
▁불법	-8.6152
▁가능성	-8.6221
▁생산	-8.62395
▁영향	-8.62447
됐다고	-8.62737
▁2005.0	-8.62901
▁2008	-8.62992
▁미사일	-8.63022
▁행사	-8.63055
▁연기	-8.63403
▁이전	-8.63501
▁중요한	-8.63558
▁밤	-8.63561
번째	-8.63591
▁정도	-8.63931
▁공식	-8.64013
▁와	-8.64101
c	-8.64106
터	-8.64202
▁비행기	-8.64292
al	-8.6435
▁보다	-8.64589
▁논의	-8.64706
▁article	-8.64863
▁상태	-8.65357
▁주둔	-8.65405
포	-8.6546
▁타	-8.65534
▁야당	-8.65659
▁for	-8.65737
▁돈	-8.65784
▁알카에다	-8.65893
▁까지	-8.65917
▁공	-8.66127
체	-8.66296
▁알려졌다	-8.66299
▁반군	-8.66474
▁박사는	-8.66515
▁외	-8.66597
▁역사	-8.66634
종	-8.66655
▁코	-8.66839
▁정치	-8.67068
단	-8.67281
▁사태	-8.67282
▁무샤라프	-8.67296
들과	-8.67405
▁발언	-8.67599
됐으며	-8.67659
▁불구하고	-8.67758
▁대통령과	-8.68001
▁용의자	-8.68183
방	-8.68333
n	-8.688
▁정치적	-8.68868
2005.0	-8.68926
▁말했습니다	-8.68982
▁법원	-8.69053
▁지구	-8.69072
▁가격	-8.69124
▁이야기	-8.6919
동	-8.69238
t	-8.69316
▁발생했다	-8.6939
이라는	-8.69509
▁관심	-8.69511
▁반면	-8.69576
▁사망한	-8.69958
▁것입니다	-8.70026
▁역할	-8.70171
▁열	-8.70241
▁60	-8.70332
는데	-8.70352
▁팀	-8.70439
▁백악관	-8.70788
b	-8.70805
했었다	-8.70848
▁필요	-8.70888
와의	-8.70933
츠	-8.71039
▁무기	-8.71043
▁거래	-8.71119
▁코리아	-8.7116
▁주민들	-8.71307
▁인질	-8.7163
▁심	-8.71729
▁자신들	-8.71734
▁자금	-8.71884
▁살해	-8.71924
▁위험	-8.71943
▁런던	-8.72072
▁서비스	-8.7209
▁장	-8.72169
▁회장	-8.72173
▁e	-8.72365
▁조직	-8.72435
▁자신	-8.72475
p	-8.72513
▁학교	-8.72545
▁공급	-8.72721
력	-8.72875
든	-8.72923
▁최대	-8.73035
u	-8.73192
▁배	-8.73245
▁것이라는	-8.73316
▁기업	-8.7338
▁집	-8.73713
더	-8.73899
7	-8.74131
▁전에	-8.74216
피	-8.7423
▁사망했다고	-8.74528
▁고위	-8.74541
▁높은	-8.74634
▁출신	-8.74665
▁부족	-8.7473
임	-8.74824
▁군사	-8.74836
▁가족	-8.74933
▁북부	-8.74983
▁올	-8.75003
▁지난주	-8.75307
▁바그다드	-8.75446
▁은행	-8.75496
▁의하면	-8.7561
▁모습을	-8.75622
▁언론	-8.75672
▁발견	-8.76045
▁가능성이	-8.76077
▁건물	-8.76104
사전	-8.76347
마리	-8.76369
▁공동	-8.76518
▁요구	-8.76604
▁알고	-8.77088
▁벌이	-8.77099
▁더욱	-8.77158
▁뜻	-8.77171
▁성명에서	-8.77205
▁지역에	-8.77214
슨	-8.77318
▁발사	-8.77359
▁수사	-8.77374
▁상승	-8.77678
▁지도자	-8.7788
▁왔다	-8.77885
형	-8.78147
▁것이며	-8.78282
된다	-8.78357
▁선	-8.78393
▁소	-8.78537
▁국경	-8.78745
▁2004	-8.78777
▁아버지	-8.79082
▁게임	-8.7916
키	-8.7923
안	-8.79284
▁말을	-8.79355
시킬	-8.79452
▁않는	-8.79668
▁이와	-8.79693
경	-8.79822
▁서울	-8.80041
▁부토	-8.80164
▁검사	-8.80244
▁나라	-8.80422
세의	-8.80448
▁아니다	-8.8046
▁필요한	-8.80669
▁어제	-8.80765
▁핵무기	-8.81057
▁의원	-8.81065
▁총리가	-8.81134
▁포	-8.81216
천	-8.81242
▁서	-8.81272
▁금지	-8.81334
▁자살	-8.81359
▁감소	-8.81361
▁병력	-8.81413
com	-8.81442
er	-8.81462
▁되는	-8.81488
배	-8.81775
▁법	-8.81976
▁우승	-8.81987
▁않았다고	-8.82135
였던	-8.82194
▁우	-8.8239
▁사르코지	-8.82393
▁뉴스	-8.82505
▁건강	-8.82673
▁단체	-8.82742
▁위기	-8.82757
하겠다고	-8.82785
▁하마스	-8.82995
▁투자	-8.83043
▁작업	-8.83109
▁스	-8.83129
▁충돌	-8.83223
▁체포	-8.8324
▁행위	-8.83372
▁결국	-8.83418
▁라이스	-8.83456
거	-8.83624
다고	-8.83715
▁독립	-8.83737
▁폭탄테러	-8.83818
하던	-8.83842
실	-8.83888
군	-8.83942
▁동영상	-8.84004
▁행동	-8.8407
▁아침	-8.84096
▁보호	-8.84224
▁하나	-8.8425
▁있고	-8.84253
▁인용	-8.84271
▁이제	-8.84273
▁아이들	-8.84461
▁어	-8.84481
▁31	-8.84503
▁아니라	-8.84619
▁기자회견에서	-8.84658
▁아들	-8.84752
▁korea	-8.84837
▁전화	-8.84893
▁직접	-8.84952
▁공항	-8.85013
▁콜롬비아	-8.85119
▁티베트	-8.85119
▁위	-8.85162
▁각	-8.8526
년에	-8.8566
▁국방부	-8.85869
▁브라운	-8.8617
하자	-8.86189
억원	-8.86265
▁인	-8.86341
4	-8.86354
▁시도	-8.86362
▁레	-8.86548
유	-8.8661
문	-8.86646
▁여부	-8.86749
▁캘리포니아	-8.86787
▁and	-8.86882
▁진행	-8.86886
▁타고	-8.86972
▁워싱턴	-8.87006
▁받을	-8.8723
차례	-8.8729
해서	-8.87296
▁la	-8.87304
▁재개	-8.87413
간의	-8.87494
▁노무현	-8.87566
▁보안	-8.87734
▁주택	-8.87771
한다고	-8.87842
g	-8.87887
날	-8.88026
▁신문	-8.8809
친	-8.88101
석	-8.88102
▁방법	-8.88115
▁비행	-8.8816
년까지	-8.88416
▁앞	-8.88471
▁eu	-8.88654
▁번째	-8.88917
▁사람이	-8.89195
▁이같	-8.89254
급	-8.89256
▁2003	-8.89376
란	-8.89496
▁하루	-8.89522
네	-8.89579
▁역시	-8.89745
▁건설	-8.89832
지는	-8.90082
만달러	-8.90138
▁어떻게	-8.90439
그	-8.90534
▁시신	-8.90552
▁공개	-8.90589
▁문	-8.90848
▁열리는	-8.91115
▁회의	-8.91129
공	-8.91196
교	-8.91431
스트	-8.91479
울	-8.91566
▁이유로	-8.91604
▁문제에	-8.91657
▁음악	-8.91695
▁베이징	-8.91723
▁사건에	-8.92056
▁협력	-8.92062
▁기간	-8.92133
▁납치	-8.92183
▁철수	-8.92304
▁곧	-8.92335
▁연설	-8.92444
▁골	-8.92498
▁폴	-8.9258
▁판결	-8.92616
▁최초	-8.92643
▁호텔	-8.92717
a	-8.92854
연	-8.92869
▁빌	-8.92891
▁손	-8.92961
▁국무부	-8.9303
감	-8.93277
반	-8.93285
재	-8.93291
▁남	-8.93318
년대	-8.93446
▁숨졌다	-8.93503
▁한나라당	-8.93702
▁타임즈	-8.93787
o	-8.93798
▁이동	-8.93799
▁에너지	-8.93825
▁방	-8.93885
▁석유	-8.93908
▁범죄	-8.93939
▁곳	-8.9397
졌다	-8.93984
▁구조	-8.94112
▁데이비드	-8.9415
긴	-8.94367
▁주변	-8.94562
하면	-8.94599
▁한국인	-8.94626
▁f	-8.94717
포인트	-8.94785
▁살	-8.9486
▁0	-8.94875
▁아프가니스탄	-8.95118
학	-8.95234
▁예정이라고	-8.95352
▁있게	-8.95436
▁기회	-8.95728
▁못	-8.95764
k	-8.95795
▁언급	-8.95833
▁전문가들은	-8.95864
▁대선후보	-8.96062
▁말하는	-8.96083
▁상원	-8.96101
이자	-8.96117
▁선수	-8.96158
▁있기	-8.96274
영	-8.96302
판	-8.96336
하려는	-8.96465
▁시작했다	-8.965
▁폐쇄	-8.96619
▁확인	-8.96689
▁현	-8.96708
버	-8.96743
▁기상	-8.9684
▁200	-8.96941
▁같다	-8.96944
건	-8.96985
▁인구	-8.96987
▁증거	-8.97016
▁하락	-8.9705
▁애	-8.97093
▁또는	-8.97101
▁생활	-8.97493
▁부인	-8.97555
▁과학자들	-8.97617
▁훈련	-8.97763
▁co	-8.97771
▁보였다	-8.97798
요	-8.9783
▁메	-8.97929
▁교육	-8.97995
▁전세계	-8.98007
만명	-8.98057
▁수술	-8.98083
▁눈	-8.98242
▁보고서	-8.98294
▁너무	-8.98305
▁요구했다	-8.9835
▁드	-8.98413
▁사회	-8.98453
▁내년	-8.98524
강	-8.98695
▁2000	-8.98747
▁멕시코	-8.98791
▁대규모	-8.98798
위원회	-8.9894
층	-8.99006
▁생각한다	-8.99094
▁개인	-8.99234
▁온	-8.99428
▁정상	-8.99449
▁발견했다	-8.99512
▁사업	-8.99634
론	-8.99853
▁성공	-8.99927
▁의견	-9.00048
민	-9.00107
청	-9.00146
▁난	-9.00218
▁어린이	-9.00362
심	-9.00381
▁비디오	-9.00394
명과	-9.00423
장은	-9.00434
▁제안	-9.00483
▁저장	-9.00493
만원	-9.00506
▁도로	-9.00532
▁길	-9.00595
▁법안	-9.00643
▁특히	-9.00812
▁결혼	-9.01144
▁화재	-9.01184
▁약어	-9.01205
▁나타났다	-9.01234
져	-9.01372
▁대변인	-9.01393
설	-9.01454
▁앞두고	-9.01605
▁했다고	-9.01676
▁대사관	-9.01841
▁포함한	-9.01862
▁입	-9.01908
초	-9.01982
▁그들의	-9.02091
하려	-9.02272
▁민간인	-9.02311
▁사망하고	-9.02425
▁2007	-9.02536
▁성장	-9.0254
▁딸	-9.02556
▁명	-9.02584
억달러	-9.02611
▁심각한	-9.02627
▁레바논	-9.02708
▁로버트	-9.02842
▁판사	-9.0295
▁관할	-9.02998
▁p	-9.03036
▁적	-9.03199
혀	-9.0323
▁전체	-9.03242
일간	-9.03267
▁전망	-9.0355
▁인간	-9.03621
▁아닌	-9.0367
▁있었던	-9.03672
▁인정	-9.037
속	-9.03799
▁해외	-9.03971
▁들	-9.04033
▁여전	-9.04107
▁b	-9.0421
▁승인	-9.04453
▁시설	-9.04482
▁안에	-9.04499
▁통	-9.04505
▁경선	-9.04636
▁태국	-9.04644
▁방안	-9.0486
▁당신	-9.04883
▁교수는	-9.05148
행	-9.05465
▁us	-9.05667
▁가지	-9.05814
▁일을	-9.06041
▁본	-9.06076
▁의원은	-9.06081
▁부부	-9.06113
▁네	-9.06176
▁인도네시아	-9.06293
시켰다	-9.06312
▁대신	-9.06609
으나	-9.06631
▁아무	-9.0664
▁2002	-9.06656
병	-9.06855
▁가지고	-9.06857
▁작전	-9.06904
▁수입	-9.06908
▁촉구했다	-9.06913
함	-9.06926
▁막	-9.06937
▁비롯	-9.07021
▁작은	-9.07029
▁베	-9.07174
▁그들이	-9.07191
▁수치	-9.07196
▁친구	-9.07273
▁입은	-9.0748
▁밝혀졌다	-9.07483
▁친	-9.07491
퍼센트	-9.07492
▁운영	-9.07662
▁장관	-9.07669
▁경기에서	-9.07739
▁요청	-9.0778
▁산업	-9.07834
▁만	-9.07841
수지	-9.07885
위를	-9.08271
▁헬기	-9.08409
월에	-9.08678
▁선택	-9.08755
▁푸틴	-9.08782
▁최종	-9.08785
▁마을	-9.08789
에서도	-9.08819
▁열차	-9.08836
▁규정	-9.0887
▁이상이	-9.08937
▁대회	-9.08974
▁경쟁	-9.08975
▁아기	-9.0899
▁운동	-9.09082
팀	-9.09094
▁경고	-9.09131
▁저	-9.09213
통	-9.09216
▁마이클	-9.0922
▁제재	-9.09263
▁국민	-9.09361
▁속	-9.09377
▁입었다	-9.09381
▁알리	-9.09385
▁c	-9.09412
▁스타	-9.09542
했을	-9.09545
로서	-9.09642
▁바로	-9.09692
▁맞	-9.09703
▁안보	-9.09892
▁받아	-9.10033
▁실	-9.10133
▁호	-9.10188
▁온라인	-9.10222
너	-9.10318
▁살고	-9.10374
▁수준	-9.10503
▁무장	-9.10594
▁배우	-9.10612
▁개선	-9.10615
▁예상	-9.10752
▁전투	-9.10757
있는	-9.10826
▁출전	-9.10963
▁국민들	-9.10989
류	-9.11007
▁폭력	-9.11082
▁연료	-9.1109
▁여자	-9.11196
▁명이	-9.11318
작	-9.11342
▁팔	-9.11351
▁사임	-9.11362
▁이라크에서	-9.11422
▁말한다	-9.11695
▁행정부	-9.11761
▁얼마	-9.11852
▁미국인	-9.11876
▁메시지	-9.11892
▁인권	-9.11895
무	-9.11984
▁라디오	-9.11995
▁담당	-9.12055
▁un	-9.12139
하라	-9.12232
▁통과	-9.12321
▁없을	-9.12344
▁종	-9.12349
▁동물	-9.12362
▁환경	-9.12481
워	-9.12493
▁관계자가	-9.12582
▁광고	-9.12609
▁밝힌	-9.12802
▁대의원	-9.1281
▁그런	-9.13031
▁중인	-9.13041
▁경고했다	-9.13223
▁부대	-9.13245
▁만약	-9.1327
▁치	-9.13321
▁아프리카	-9.1347
▁필요하다	-9.13562
▁걸	-9.13639
▁일이	-9.13869
▁시위대	-9.13875
▁도움	-9.139
엔	-9.13955
후	-9.13989
▁수단	-9.14068
▁힐	-9.14107
▁서로	-9.14116
▁동	-9.14127
▁출연	-9.14252
▁원인	-9.143
▁분	-9.14405
▁발표한	-9.14407
▁박	-9.1444
▁남편	-9.14593
▁빈	-9.14671
▁외국인	-9.14712
▁확보	-9.14741
▁반응	-9.14791
▁화요일	-9.14794
▁책임	-9.15048
▁보내	-9.15055
▁n	-9.15122
▁항공	-9.15193
▁계약	-9.15201
▁암	-9.15281
▁대만	-9.15548
▁벌였다	-9.15864
▁주식	-9.15941
▁비해	-9.16075
▁세금	-9.16139
▁얻	-9.16145
▁담	-9.16314
▁제작	-9.16359
▁지방	-9.16502
증	-9.16553
▁외국	-9.16571
년부터	-9.1676
▁가치	-9.16819
▁홍콩	-9.16831
▁시스템	-9.16856
▁벌	-9.16862
▁스미스	-9.16986
▁지역의	-9.17157
▁과거	-9.17426
▁짐바브웨	-9.17462
▁양국	-9.17524
▁후보가	-9.17534
합니다	-9.17548
두	-9.17605
씨는	-9.17639
케	-9.17702
▁같이	-9.17982
▁on	-9.18078
▁공연	-9.18116
▁학생	-9.18223
▁예	-9.18235
▁기록했다	-9.18369
▁중동	-9.18555
▁내렸다	-9.18609
▁80	-9.18648
▁구성	-9.18675
▁여	-9.18699
▁단	-9.18749
▁시즌	-9.18757
▁만나	-9.18768
▁시아파	-9.18904
▁연	-9.18904
출	-9.18951
▁미국에서	-9.19086
▁거리	-9.19168
▁일정	-9.19272
▁국영	-9.19479
▁브라질	-9.19501
de	-9.19526
▁임무	-9.19572
이었던	-9.19686
▁밖에	-9.19808
▁시험	-9.19883
▁일본의	-9.20093
▁기대	-9.20229
▁제품	-9.20231
▁총선	-9.20297
하거나	-9.20324
▁평균	-9.20369
▁각각	-9.20378
▁작품	-9.20427
▁권리	-9.20439
i	-9.20508
▁앤	-9.20577
▁유지	-9.20599
▁관리들	-9.20822
▁웹사이트	-9.20873
▁부통령	-9.20882
▁해군	-9.21096
▁파업	-9.21244
약	-9.21306
▁비용	-9.21362
▁환자	-9.21449
▁개최	-9.21471
측	-9.2152
▁않아	-9.21528
▁인상	-9.21637
▁500	-9.2165
▁대변인이	-9.21674
▁편	-9.21738
래	-9.21752
▁가스	-9.21765
▁디	-9.21837
▁다리	-9.21842
▁사건이	-9.21924
품	-9.21968
되기	-9.22046
▁주민	-9.22128
▁다양	-9.22193
장을	-9.22202
▁번	-9.22209
▁나오	-9.22226
▁키	-9.22467
▁처리	-9.22665
▁놓	-9.2288
▁사이에	-9.22884
색	-9.22922
달	-9.22932
▁약속	-9.22949
▁국내	-9.23011
▁돌	-9.23056
▁텍사스	-9.23121
▁주말	-9.23223
▁직원	-9.23332
▁강제	-9.23431
▁과정에서	-9.2345
▁감시	-9.23656
▁연합	-9.23771
▁내무부	-9.23868
▁여름	-9.23871
▁여객기	-9.23871
▁걸쳐	-9.23886
▁힘	-9.23983
▁목표	-9.24037
일까지	-9.24158
▁변호사	-9.24239
▁평가	-9.2436
인한	-9.24457
▁발견됐다	-9.24469
▁선고	-9.24494
▁희망	-9.24499
▁것과	-9.24616
▁하기	-9.24771
▁완전	-9.24861
▁경찰에	-9.24896
▁추	-9.24929
▁경	-9.25038
▁무장세력	-9.25158
▁제한	-9.25309
시켜	-9.25334
캐스터	-9.25411
량	-9.25624
▁몸	-9.25859
▁동부	-9.25923
▁갈	-9.25956
▁케냐	-9.25975
▁이곳	-9.26005
st	-9.26029
▁자유	-9.2606
록	-9.26186
▁결정했다	-9.26472
▁그룹	-9.26529
▁소송	-9.26558
▁대상으로	-9.26648
▁제공	-9.26845
줄	-9.26897
▁d	-9.26925
▁유일	-9.26928
▁온몸	-9.26969
▁북핵	-9.2697
▁사퇴	-9.26974
▁주재	-9.26998
▁지명	-9.27021
▁주도	-9.27478
le	-9.27496
▁후세인	-9.27531
▁강화	-9.27591
▁이유	-9.27591
▁g	-9.27669
▁be	-9.27845
▁바란다	-9.28032
여명	-9.28064
▁35	-9.28067
대로	-9.28101
▁어머니	-9.28176
▁대해서는	-9.28272
▁캐나다	-9.28383
한다는	-9.28482
▁관계자들은	-9.28483
r	-9.28485
f	-9.2851
▁베네수엘라	-9.28556
▁이에앞서	-9.28556
▁바이러스	-9.28558
▁알려진	-9.28566
es	-9.28573
쳐	-9.28581
업	-9.28629
▁익명	-9.28987
▁서부	-9.29026
▁남성	-9.29057
▁이명박	-9.29091
▁기사	-9.29272
▁상대로	-9.29519
▁후보는	-9.29543
▁부상했다	-9.29546
▁발견된	-9.29603
▁누	-9.29677
▁해안	-9.29713
▁받는	-9.29805
▁커	-9.30151
▁파병	-9.30169
▁차베스	-9.30173
▁불만	-9.30186
▁90	-9.30273
▁무역	-9.30319
▁사는	-9.30361
▁수출	-9.30393
▁항공사	-9.30414
▁집단	-9.30418
▁인기	-9.30484
▁회복	-9.30498
중인	-9.30517
▁여론	-9.30542
▁한다는	-9.30585
▁북	-9.30761
▁민주주의	-9.30792
▁실시	-9.3088
▁소녀	-9.30936
▁아직까지	-9.30943
▁플로리다	-9.30991
▁별	-9.31072
기구	-9.31139
기도	-9.31147
▁로마	-9.31246
▁중국은	-9.31291
▁변호사는	-9.31297
스는	-9.31365
테	-9.31366
▁엘	-9.31492
▁남한	-9.31524
▁왕자	-9.31715
▁하원	-9.31733
▁논쟁	-9.31801
▁진압	-9.31812
▁크게	-9.31855
▁되어	-9.31912
▁있지	-9.32041
▁받지	-9.32158
▁기소	-9.32297
힌	-9.32357
▁밝혔습니다	-9.32363
탄	-9.32417
▁사과	-9.32429
▁책	-9.32461
▁예상된다	-9.32478
른	-9.32496
▁위성	-9.32514
쉬	-9.32565
가지	-9.32583
▁총격	-9.32588
▁거대	-9.32598
▁재판	-9.3267
▁특별	-9.32699
▁때까지	-9.32732
역	-9.32782
▁접근	-9.329
▁선정	-9.32906
▁복귀	-9.32917
▁병	-9.32925
료	-9.32935
▁버스	-9.32975
▁페	-9.33183
등	-9.332
▁유권자들	-9.33279
▁루	-9.33345
▁되고	-9.33441
▁적이	-9.33516
▁찾아	-9.33642
하겠다	-9.33752
지역	-9.33788
▁거부	-9.33901
▁강한	-9.34001
▁발전	-9.3402
▁인터뷰	-9.34026
일부터	-9.34029
▁탑승	-9.34035
▁마련	-9.34172
▁정권	-9.34208
▁파괴	-9.34277
▁수상	-9.34296
금	-9.34305
업체	-9.34358
생	-9.34379
▁최악	-9.34603
▁쿠바	-9.34634
▁무장단체	-9.34641
▁나온	-9.34668
▁합니다	-9.3474
▁차이	-9.34856
▁정부와	-9.34913
▁사람은	-9.34985
▁마크	-9.35008
▁암살	-9.35034
처	-9.35046
▁차례	-9.35058
▁전국	-9.35109
▁아니라고	-9.35114
▁따른	-9.35176
▁잡	-9.3521
승	-9.35239
▁실험	-9.35313
▁그것은	-9.354
▁건	-9.35443
▁음식	-9.35525
▁머리	-9.35544
▁도움이	-9.35592
▁위해서는	-9.35747
▁정부에	-9.35873
▁동료	-9.35913
▁국회	-9.35983
l	-9.36008
저	-9.3605
▁수색	-9.36134
▁지나	-9.36196
▁장면	-9.36207
▁의료	-9.3632
▁정당	-9.36351
▁자료	-9.36363
▁받게	-9.36376
▁2001	-9.36447
본	-9.36462
▁임기	-9.36513
시키는	-9.36647
▁두고	-9.36761
▁강력한	-9.3677
개국	-9.36801
▁의미	-9.36827
해왔다	-9.36853
▁들어	-9.3688
▁성폭행	-9.36888
▁수많은	-9.36894
▁명령	-9.36921
▁참가	-9.36962
▁못하고	-9.36996
▁긴장	-9.37063
골	-9.37087
▁기지	-9.37118
▁질문	-9.37264
▁상원의원이	-9.37306
▁nasa	-9.37476
▁u	-9.37553
편	-9.3764
▁월요일	-9.37789
▁북한에	-9.37854
▁여론조사	-9.3787
메	-9.38006
▁압력	-9.38009
▁못한	-9.38095
▁있음	-9.38097
▁매년	-9.38105
▁70	-9.38132
양	-9.38144
▁파리	-9.38214
▁달리	-9.38295
▁가능한	-9.38322
▁위원회	-9.38445
▁가자지구	-9.38528
▁통제	-9.38551
▁확인했다	-9.38598
▁re	-9.38688
▁필리핀	-9.38692
▁가졌다	-9.38952
들에	-9.39072
▁비밀	-9.39082
▁상황이	-9.39195
▁어느	-9.39246
▁보고서는	-9.39252
▁언급했다	-9.39287
▁공격으로	-9.39326
▁h	-9.3933
▁이집트	-9.39356
▁나왔다	-9.39416
▁인수	-9.39441
▁계획이다	-9.39658
▁항공기	-9.39737
▁주지사	-9.39776
▁선수들	-9.39809
▁뇌	-9.39822
▁사우디	-9.39839
▁밝히지	-9.39921
▁시리아	-9.39931
▁개혁	-9.40002
자회담	-9.40008
됐	-9.40038
▁맥	-9.40087
▁중에	-9.40117
▁고용	-9.40154
하였다	-9.40296
동안	-9.40384
▁인물	-9.40412
▁외교	-9.40476
▁신고	-9.40595
▁부상자	-9.40597
▁보냈다	-9.40635
▁병사	-9.40699
▁세력	-9.40713
▁붕괴	-9.40729
0	-9.40813
▁300	-9.40851
▁학생들	-9.40939
▁군대	-9.4094
▁나머지	-9.41037
▁이끄는	-9.41038
▁만들어	-9.41115
▁영어	-9.41135
만한	-9.41144
▁사랑	-9.41247
▁증시	-9.41318
곳	-9.41386
▁쇼	-9.41505
▁넘	-9.41507
h	-9.41527
▁사람들에게	-9.41611
▁권력	-9.41665
▁칸	-9.41707
▁사형	-9.41711
▁끝	-9.41735
▁향해	-9.41752
▁희생자	-9.41847
on	-9.41849
센터	-9.42027
▁업체	-9.42032
▁설명	-9.4216
▁관해	-9.42179
▁있다며	-9.42207
▁식량	-9.42245
▁후에	-9.42246
▁중앙	-9.42326
▁올랐다	-9.42369
▁공습	-9.42407
▁요청했다	-9.42469
▁기관	-9.42544
▁천	-9.42574
▁표	-9.42632
▁국무장관	-9.42636
▁주지사는	-9.42637
▁안정	-9.42666
▁흑인	-9.42686
▁교수	-9.42707
▁지진	-9.42837
▁제임스	-9.42865
▁일자리	-9.4288
▁정말	-9.42882
▁사실이	-9.42951
▁변	-9.43151
▁아내	-9.43197
명으로	-9.4325
▁허가	-9.4337
▁위반	-9.43375
▁잘못	-9.43485
▁충격	-9.43485
▁참석	-9.43492
▁소재	-9.4351
베	-9.43647
▁금	-9.437
▁되었다	-9.43763
▁되지	-9.43897
▁진	-9.43952
▁다음달	-9.44129
갈	-9.4414
▁부모	-9.44169
▁임시	-9.44176
▁막기	-9.44275
▁토	-9.44296
▁질	-9.44419
정부	-9.44527
▁만큼	-9.44586
▁미군이	-9.44644
▁목숨	-9.4473
▁해리	-9.44786
▁전시	-9.44811
▁설치	-9.45002
톤	-9.4509
▁올라	-9.4516
▁받았다고	-9.4516
▁이것은	-9.45168
▁주장하고	-9.45288
▁헌법	-9.45341
▁오른	-9.45373
▁t	-9.45391
하기도	-9.45423
▁45	-9.45431
▁숨지고	-9.45444
▁오바마가	-9.4548
자들	-9.45511
되었다고	-9.45565
▁32	-9.45643
▁야후	-9.45678
▁해야	-9.45682
▁1000	-9.45692
▁감	-9.45862
▁전기	-9.45916
▁구매	-9.4593
남	-9.4596
▁자체	-9.46006
▁살인	-9.46018
▁국방장관	-9.46051
락	-9.46163
였습니다	-9.46244
▁질문에	-9.46274
▁나이	-9.46475
▁정도로	-9.4654
▁시민	-9.46563
▁어떠한	-9.46628
▁허리케인	-9.46628
▁모델	-9.46632
w	-9.46667
▁비판	-9.46768
▁전력	-9.46842
▁팬들	-9.46846
▁유권자	-9.46853
▁쿠	-9.47258
▁소말리아	-9.4727
▁소리	-9.47439
▁씨	-9.47454
▁마음	-9.47463
▁시기	-9.47648
▁j	-9.47704
자들은	-9.47711
▁항의	-9.47743
▁귀	-9.47855
튼	-9.47863
▁확대	-9.47915
▁삶	-9.47915
▁끝에	-9.47944
▁적어도	-9.47946
▁물론	-9.47948
▁마약	-9.4795
▁곳에서	-9.47992
▁라며	-9.48028
▁선출	-9.48042
▁뿐	-9.48067
각	-9.48143
▁넘는	-9.48288
▁교통	-9.48388
▁사원	-9.48414
▁시카고	-9.48443
▁따라	-9.48478
커	-9.48484
▁외무부	-9.48582
▁배치	-9.48604
▁야	-9.48649
▁문화	-9.48688
세기	-9.48744
▁촬영	-9.48745
▁수십	-9.4886
▁섬	-9.4892
거리	-9.49065
▁당선인	-9.49092
▁전문가	-9.49213
▁항상	-9.49236
▁것이라	-9.49283
▁시행	-9.49324
▁목적	-9.49452
▁수요일	-9.4954
▁입고	-9.4959
▁자리	-9.49744
▁과	-9.4981
▁여성이	-9.49921
▁패	-9.49954
▁상당	-9.49956
v	-9.4996
▁접촉	-9.49966
▁이래	-9.5003
▁존스	-9.50068
▁교황	-9.50087
여명이	-9.50146
복	-9.50172
▁이란이	-9.50202
▁허용	-9.50298
▁시간이	-9.50355
▁대화	-9.50368
▁유명한	-9.50393
▁추진	-9.50459
▁베컴	-9.5054
▁로켓	-9.50544
▁샤	-9.50548
▁감염	-9.50587
▁칼	-9.50666
▁선언	-9.50767
▁사이트	-9.50818
▁고통	-9.50871
▁교전	-9.50892
▁종교	-9.51014
▁사장	-9.51149
▁혼란	-9.51177
▁fbi	-9.51208
▁이달	-9.51215
▁수천명	-9.51264
▁추락	-9.51317
▁내려	-9.5134
▁경제적	-9.51365
▁이라크에	-9.51367
▁검토	-9.51394
▁발생해	-9.51438
▁발생했다고	-9.51484
▁대중	-9.5153
▁수천	-9.5163
리자	-9.51637
▁되	-9.51642
▁어려움	-9.51877
en	-9.51892
▁출마	-9.51898
▁아베	-9.51959
런	-9.52094
▁사상	-9.52099
▁연구소	-9.52113
▁심장	-9.52135
▁수익	-9.52183
▁피해자	-9.52193
▁직원들	-9.52207
망	-9.52208
▁쉬	-9.52302
▁듯	-9.52312
▁제조	-9.52355
▁일요일	-9.52393
▁아주	-9.52418
▁대표는	-9.52546
▁좀	-9.52551
▁휴대폰	-9.52552
▁긴급	-9.52554
▁찰스	-9.5257
5000	-9.526
▁상대	-9.52668
▁부분	-9.52669
▁집중	-9.52788
50	-9.52789
왔다	-9.5296
▁버	-9.5304
ar	-9.53046
▁관광	-9.53054
▁게	-9.53075
▁합의했다	-9.5309
▁new	-9.53125
▁관련해	-9.5317
▁미래	-9.53193
▁수행	-9.53211
▁병원에	-9.53223
▁외무장관	-9.53244
▁최고의	-9.53282
an	-9.53304
▁진출	-9.53347
▁연장	-9.53351
▁자국	-9.53416
▁사항	-9.53418
▁지도자인	-9.53587
림	-9.53597
▁대해서	-9.53624
▁비슷	-9.53642
▁전달	-9.53644
리아	-9.53668
▁백	-9.53682
▁신원	-9.53784
▁시상식	-9.53917
▁아무런	-9.53928
퍼	-9.53956
▁주민들이	-9.54139
▁승객	-9.54147
주의	-9.54302
▁당선	-9.54306
▁착륙	-9.54351
▁않았지만	-9.54606
▁국제사회	-9.54618
▁선두	-9.54626
채	-9.54771
▁요	-9.54999
▁수백	-9.55121
시키고	-9.55134
▁파견	-9.55152
있다	-9.55158
▁작년	-9.55175
▁싶다	-9.55254
▁분쟁	-9.55257
▁걱정	-9.55301
▁게이츠	-9.55304
▁사무실	-9.55315
▁절차	-9.55323
투	-9.55337
▁현장	-9.55376
▁것인지	-9.55452
▁인사	-9.55453
▁공군	-9.55478
되었습니다	-9.55491
▁강력	-9.5551
▁교회	-9.55629
▁가질	-9.5563
▁일반	-9.55735
▁씨는	-9.55794
자인	-9.5581
▁그리스	-9.55839
▁젊은	-9.55954
▁위치	-9.55978
▁구속	-9.56125
▁카운티	-9.56177
▁선거에서	-9.56215
▁순간	-9.56234
▁유명	-9.56246
▁고문	-9.56278
▁폭력사태	-9.56355
▁목표로	-9.5638
절	-9.56477
▁언론은	-9.56653
협회	-9.56674
▁사건은	-9.56684
▁국립	-9.56707
tal	-9.56714
빌	-9.5678
▁추정	-9.56791
▁목요일	-9.56833
월부터	-9.56835
▁체포됐다	-9.56839
▁군인	-9.56951
▁영	-9.56965
▁해제	-9.56965
▁정상회담	-9.56983
or	-9.57164
▁반대하는	-9.57266
▁방문한	-9.57359
▁결	-9.57398
▁숨진	-9.57447
2006.0	-9.57522
▁is	-9.57552
▁대법원	-9.5765
▁보장	-9.57654
▁출발	-9.5766
▁관계자들	-9.57679
▁노조	-9.57745
▁2006.0	-9.57761
▁id	-9.57851
▁개의	-9.57867
▁수석	-9.58103
싼	-9.58128
▁표현	-9.58134
했는데	-9.58179
▁주의	-9.58184
▁대응	-9.58276
▁2007.0	-9.58388
▁제기	-9.58421
지도	-9.58538
기로	-9.5854
▁임명	-9.58594
▁대비	-9.58697
자들이	-9.58744
▁왕	-9.5877
▁단지	-9.58819
▁코소보	-9.58847
▁동결	-9.58859
▁총기	-9.58891
쿠	-9.58962
뉴스	-9.59012
▁이라크전	-9.59033
때	-9.59034
▁실패	-9.59044
▁가까	-9.5907
▁전략	-9.59135
▁퍼	-9.59211
▁저는	-9.59295
▁보이는	-9.59327
▁k	-9.59392
▁남북	-9.59429
렸다	-9.59455
▁보여주	-9.59485
▁마리	-9.5951
▁센터	-9.59541
▁나타나	-9.59572
상을	-9.5958
▁도착	-9.59864
▁패배	-9.59964
▁들고	-9.6001
렌	-9.60059
▁제거	-9.60089
▁넣	-9.60182
▁잉글랜드	-9.60302
▁몇몇	-9.60302
in	-9.60324
▁신화통신	-9.60335
만이	-9.60341
▁유세	-9.60699
▁차기	-9.60763
▁지역을	-9.60943
▁판단	-9.61066
▁마무리	-9.61069
▁왜	-9.61073
액	-9.61167
▁판	-9.61174
▁도중	-9.61177
▁도전	-9.61261
▁윌리엄	-9.61351
▁소비자	-9.61409
박	-9.61499
시키기	-9.61593
▁버지니아	-9.61649
자가	-9.61675
▁매일	-9.61679
▁bbc	-9.61781
▁운행	-9.61781
▁고양이	-9.61785
▁유죄	-9.61786
▁연속	-9.61796
▁밝혀지지	-9.61817
▁조건	-9.61819
▁그들	-9.61869
▁카메라	-9.61872
으로서	-9.61895
▁스위스	-9.61921
▁회담에서	-9.6194
▁연합군	-9.61961
▁있는지	-9.61982
▁압박	-9.61983
것	-9.62023
태	-9.62175
하다고	-9.62301
▁도쿄	-9.62426
▁다이애나	-9.62481
▁없어	-9.62496
▁약물	-9.62505
cat	-9.6251
집	-9.62516
▁대형	-9.62595
▁스포츠	-9.62609
▁약간	-9.62623
▁나토	-9.62625
▁관광객	-9.6272
▁자주	-9.62731
다면	-9.62733
측은	-9.62763
▁영국의	-9.62861
▁한국은	-9.62869
▁가량	-9.6289
▁여당	-9.62988
▁전까지	-9.62992
▁자녀	-9.63116
▁지도자들	-9.63254
▁블레어	-9.63276
▁올메르트	-9.63276
▁스스로	-9.63277
▁하며	-9.63286
▁지지자들	-9.63308
▁분노	-9.6331
▁노래	-9.63317
로써	-9.63395
▁노동	-9.63397
▁군부	-9.63513
독	-9.63607
▁연설에서	-9.63847
▁만든	-9.63867
▁오래	-9.63883
▁당했다	-9.6394
▁오랫동안	-9.64033
▁할리우드	-9.64033
▁탁신	-9.64033
▁환영	-9.64079
▁핵심	-9.64098
▁홍보	-9.64135
▁실수	-9.64165
▁아마	-9.64302
▁한반도	-9.64345
씨	-9.64441
▁장기	-9.64472
았다	-9.64533
▁내부	-9.64539
▁병원에서	-9.64644
▁빠른	-9.64797
▁36	-9.64799
▁비상사태	-9.64799
열	-9.64802
▁확실히	-9.64832
기간	-9.64844
▁참여	-9.64882
입	-9.64939
▁옷	-9.64948
▁분석	-9.65013
언	-9.65037
▁공장	-9.65094
▁근무	-9.65231
▁곳에	-9.65265
▁전통	-9.65307
▁보기	-9.65328
▁이와같	-9.65426
▁korean	-9.65488
▁생	-9.65534
▁겪고	-9.65566
▁그렇게	-9.65566
▁직후	-9.65575
▁축구	-9.65616
▁집회	-9.657
샤	-9.65798
▁후보에	-9.65902
▁지배	-9.65914
현	-9.65942
▁뉴	-9.65958
▁체포했다	-9.66007
▁성적	-9.66012
격	-9.66038
▁주가	-9.66046
▁통신	-9.66056
은행	-9.66064
▁보건	-9.66067
▁높이	-9.66071
대가	-9.6609
▁문서	-9.6618
▁협의	-9.66341
▁그에게	-9.6635
▁개봉	-9.66355
▁사기	-9.66359
▁담배	-9.66371
▁투	-9.66465
▁동시	-9.66483
▁구호	-9.66519
센	-9.66561
▁투입	-9.66568
페	-9.66616
▁실제	-9.66654
▁떠나	-9.66723
▁보여	-9.66747
▁효과	-9.66778
▁취소	-9.66813
▁프로젝트	-9.66815
▁제출	-9.66979
▁법률	-9.66994
▁탄	-9.67049
tp	-9.6712
▁낮은	-9.67122
▁감축	-9.67128
▁오랜	-9.67136
만명이	-9.67137
▁산불	-9.67138
담	-9.67152
▁조작	-9.6717
▁여성들	-9.67186
▁화성	-9.67199
▁테	-9.67217
▁기억	-9.6724
합	-9.67243
▁글	-9.67245
▁의원이	-9.67303
ch	-9.67303
▁맞아	-9.67348
▁보좌관	-9.67451
▁수가	-9.67514
매	-9.67528
▁집행	-9.67529
▁대책	-9.67566
▁이밖에	-9.6791
▁처벌	-9.67912
▁원자로	-9.6793
▁조금	-9.67948
▁ms	-9.68004
▁알게	-9.68119
▁능력	-9.68133
준	-9.68143
▁북한과	-9.68156
이지만	-9.68208
▁관	-9.6836
▁완화	-9.68374
▁잠	-9.68403
▁애플	-9.68422
▁난민	-9.68519
▁차지했다	-9.6852
▁400	-9.68544
국가	-9.68548
백	-9.68557
▁초기	-9.68648
▁중심	-9.68688
▁크리스마스	-9.687
▁소식을	-9.68703
▁떨어져	-9.68703
▁우크라이나	-9.68703
▁빠르	-9.68708
▁스피어스	-9.68723
▁내각	-9.68801
▁집에서	-9.68826
▁경찰과	-9.68964
▁실시된	-9.68985
▁그러	-9.69015
링	-9.6902
▁관계자	-9.69043
▁대사	-9.69052
▁보이고	-9.69055
▁망명	-9.69064
▁대화를	-9.69077
되	-9.6912
▁윌리엄스	-9.69163
▁측	-9.69301
▁둔	-9.69323
▁고래	-9.69331
▁2009	-9.69451
▁허	-9.69468
▁폭풍	-9.69478
▁iaea	-9.69503
함으로써	-9.69516
▁위기에	-9.69539
▁크리스토퍼	-9.69562
▁전자	-9.69566
▁나타냈다	-9.69576
▁만들	-9.69585
▁보안관	-9.69645
책	-9.69683
리스	-9.69735
근	-9.698
▁향	-9.6984
▁말하고	-9.69932
월까지	-9.69956
대의	-9.69968
▁조정	-9.70053
▁부인했다	-9.70134
▁여왕	-9.70176
▁그중	-9.70243
▁받기	-9.70302
▁높다	-9.7031
▁무가베	-9.7031
▁일어난	-9.70313
▁cia	-9.7032
▁시작된	-9.70428
추	-9.70439
▁수정	-9.70451
▁영상	-9.70454
되면서	-9.70505
예	-9.70533
▁블로그에	-9.70536
▁모습	-9.70638
회의	-9.70718
▁속에	-9.70724
▁현대	-9.70756
▁중이다	-9.70765
▁가수	-9.70775
▁소식통은	-9.70818
▁청와대	-9.70839
▁유로	-9.7088
▁발생할	-9.70918
▁말레이시아	-9.70951
주년	-9.71047
th	-9.71116
▁네덜란드	-9.71123
▁찾기	-9.71123
▁프리	-9.71172
말	-9.71185
▁소장	-9.71191
▁치안	-9.71229
▁법적	-9.71239
▁단어	-9.7126
▁감사	-9.71262
▁않겠다	-9.71391
▁상황에서	-9.71542
▁부정	-9.71558
▁날씨	-9.71562
범	-9.7157
▁누구	-9.71583
▁후보로	-9.7161
▁중국이	-9.71617
▁성인	-9.71652
▁극	-9.7168
▁나무	-9.71683
▁작가	-9.71746
▁찬성	-9.71754
▁예측	-9.71764
단체	-9.71789
▁주에서	-9.71857
▁이미지	-9.7189
ra	-9.71893
▁먼저	-9.71947
▁스티브	-9.71948
▁넘어	-9.72003
▁증가했다	-9.72012
사는	-9.72054
▁남성이	-9.72067
▁사망했으며	-9.72135
▁이전에	-9.7214
▁150	-9.72227
▁목소리	-9.72248
▁마감	-9.72308
▁보낸	-9.72369
볼	-9.7239
▁전문	-9.72403
▁장소	-9.72446
▁과학	-9.72468
▁구성된	-9.72488
▁수백명	-9.72532
▁an	-9.72554
랑	-9.7261
▁위험한	-9.72613
▁술	-9.72655
블	-9.72662
다른	-9.72701
▁민병대	-9.72709
▁등록	-9.72755
▁하워드	-9.72776
▁엄마	-9.72776
▁긴	-9.72782
▁ht	-9.72797
인지	-9.72802
▁기후	-9.72813
▁프라이머리	-9.72901
▁나가	-9.72943
▁확산	-9.73003
▁고든	-9.73005
▁비상	-9.73022
▁기자회견	-9.73051
▁의혹	-9.73053
▁위원장은	-9.73082
▁방해	-9.73099
joins	-9.73245
▁이용해	-9.733
겠다	-9.73503
▁의한	-9.73506
▁사용하는	-9.73513
흐	-9.73556
▁north	-9.73602
▁나섰다	-9.73602
▁규제	-9.73604
▁있었으며	-9.73611
asp	-9.73612
▁37	-9.73615
▁폐	-9.73618
▁사례	-9.73622
▁연루	-9.73635
▁대표팀	-9.73654
▁마드리드	-9.73683
ation	-9.73703
▁지급	-9.73704
▁이라	-9.7375
▁밀	-9.739
▁제시	-9.73972
▁수니파	-9.74037
20	-9.74037
▁태	-9.74042
▁사상자	-9.74196
회사	-9.7425
했다는	-9.7437
▁임	-9.74381
▁가족들	-9.74403
▁머물	-9.74434
▁헤	-9.7444
▁찾는	-9.74443
▁다쳤다	-9.74468
광	-9.74493
▁대단	-9.74532
▁대표단	-9.74746
▁못할	-9.75101
▁캠프	-9.7529
▁네팔	-9.75294
▁알려져	-9.75294
▁침체	-9.75295
▁현장에	-9.75296
▁배럴	-9.75296
▁진입	-9.753
시킨	-9.75301
▁1999	-9.75303
▁교체	-9.75306
▁최소한	-9.75312
▁창	-9.75397
▁대피	-9.75437
▁시민들	-9.75443
▁영향력	-9.75455
외	-9.75497
▁연구진	-9.75501
▁실시한	-9.75584
▁캐	-9.75592
마일	-9.75601
하지만	-9.75632
▁말한	-9.75657
▁대통령에게	-9.75775
▁따	-9.75832
▁것처럼	-9.75844
▁이끌	-9.759
▁증언	-9.75964
▁소지	-9.75998
▁집계	-9.76006
▁급	-9.76041
었습니다	-9.76067
▁과정	-9.76068
▁쿠르드	-9.7614
▁아바스	-9.76182
▁시작됐다	-9.76201
▁체	-9.76257
▁아부	-9.76353
▁소식	-9.76398
▁태도	-9.76496
▁돼	-9.76545
하려고	-9.76586
▁굴	-9.76628
▁홍수	-9.76669
방송	-9.76691
ment	-9.76708
목	-9.76709
▁적용	-9.76744
결	-9.76751
▁경찰관	-9.76974
▁모하메드	-9.77008
▁분위기	-9.77009
▁장난감	-9.7701
▁만드는	-9.77038
▁알려지	-9.77062
▁원조	-9.77084
▁나와	-9.77217
백만	-9.77217
▁집권	-9.77342
▁연결	-9.77355
됐지만	-9.77357
▁테러로	-9.77412
▁웹사이트에	-9.77436
▁취임	-9.77477
▁한미	-9.77488
▁니콜라	-9.7749
▁근	-9.77557
▁얼굴	-9.77595
▁없다는	-9.77634
해졌다	-9.77652
▁세르비아	-9.77685
▁들어가	-9.77686
re	-9.778
음	-9.77825
사건	-9.77825
▁인정했다	-9.7784
▁경계	-9.77846
▁빨리	-9.77876
▁없습니다	-9.77876
▁정확한	-9.77876
▁farc	-9.77878
▁구글	-9.77888
▁점령	-9.77894
▁손실	-9.77911
▁박사	-9.7794
▁이란은	-9.7796
▁자연	-9.77971
▁동의	-9.77972
▁주로	-9.77977
겠다고	-9.77979
se	-9.78075
▁맺	-9.78143
▁얻었다	-9.78156
▁비자	-9.78156
턴	-9.7818
변	-9.78187
▁시리즈	-9.78212
▁하락했다	-9.78316
▁본부	-9.7834
▁위해서	-9.78358
▁들었다	-9.78401
▁실제로	-9.78454
▁슈	-9.78458
us	-9.78466
▁확신	-9.7849
▁역사적	-9.78511
▁깊	-9.78636
▁의심	-9.78675
▁그것	-9.78685
▁등이	-9.78748
▁저녁	-9.78754
▁태풍	-9.78757
▁피터	-9.78807
▁지불	-9.78815
경기	-9.78832
장이	-9.78875
▁기타	-9.78878
▁사무총장은	-9.78893
▁쉽게	-9.78964
맨	-9.78986
▁주고	-9.79018
름	-9.79024
▁박물관	-9.79064
이었다고	-9.79202
▁밝혀	-9.79417
▁전문가들	-9.79432
▁부동산	-9.79548
▁문제로	-9.796
▁south	-9.79639
▁아르헨티나	-9.79639
▁테이프	-9.79639
▁보이지	-9.79646
▁축하	-9.79649
▁당한	-9.79652
분기	-9.79687
마다	-9.79707
놓고	-9.79708
▁있는데	-9.79761
▁삼	-9.79783
▁민간	-9.79819
ic	-9.79835
▁가격이	-9.79841
▁놀라	-9.79869
▁촉구	-9.79942
▁자신들이	-9.80103
안을	-9.80185
▁유사	-9.80247
▁강도	-9.80259
▁기자는	-9.80496
!	-9.80531
▁말리키	-9.80532
▁김정일	-9.80532
▁토요일	-9.80532
▁콘돌	-9.80534
▁원유	-9.80588
▁소년	-9.80626
▁사용할	-9.80674
▁중요하다	-9.80725
▁후반	-9.80728
▁떨어졌다	-9.80764
▁상황에	-9.80791
▁운전	-9.80964
▁소비	-9.81011
ly	-9.81045
▁송	-9.8105
▁한국과	-9.81081
kg	-9.8112
▁살해한	-9.81167
ce	-9.81342
▁개입	-9.81374
▁with	-9.81432
▁활용	-9.81439
▁뛰어	-9.81446
▁타격	-9.81453
▁신속	-9.81473
▁침해	-9.81476
ro	-9.81483
▁ac	-9.81493
▁즉시	-9.8151
▁입국	-9.8152
▁반발	-9.81548
▁숨	-9.8158
렸	-9.81631
▁at	-9.81649
▁주는	-9.8167
▁무사	-9.81674
▁만들었다	-9.81694
였다고	-9.81715
▁42	-9.81769
▁승무원	-9.81846
▁접	-9.8199
▁오하이오	-9.82191
개월간	-9.82203
▁남북한	-9.82252
▁38	-9.82267
▁물질	-9.82289
시설	-9.82302
▁징역	-9.82326
명에	-9.8233
▁휴가	-9.82356
▁연락	-9.82357
▁멋	-9.8237
센트	-9.82402
▁시대	-9.82403
▁정신	-9.82407
▁지출	-9.82424
▁웹	-9.82481
▁우주선	-9.82526
▁않으면	-9.82544
▁힐튼	-9.82548
▁해고	-9.82757
▁장치	-9.82822
▁불안	-9.82917
▁요구한	-9.83089
▁억류	-9.83104
▁영국에서	-9.83117
▁하다	-9.83154
▁설립	-9.83192
관계	-9.83197
▁이곳에서	-9.8322
▁참석한	-9.83235
▁마치	-9.83263
했는지	-9.83266
▁매장	-9.8327
▁이들이	-9.83297
▁검색어	-9.83301
▁미국에	-9.83338
▁결혼식	-9.83439
먼	-9.83475
까	-9.83478
자는	-9.83532
▁아파트	-9.83645
▁복제	-9.83659
▁영국군	-9.83661
▁월드컵	-9.83703
▁조종사	-9.83751
▁자산	-9.83756
▁인식	-9.83788
▁어린	-9.83834
▁움직임	-9.83957
활동	-9.83965
▁범인	-9.83991
2007.0	-9.84013
▁대처	-9.84014
냐	-9.84115
▁토론	-9.84147
▁기구	-9.84151
▁긍정적	-9.84185
▁협조	-9.84185
▁엘리자베스	-9.84185
▁드라마	-9.84186
▁1997	-9.84191
▁fta	-9.84194
▁페르베	-9.84196
▁유럽연합	-9.84207
▁형성	-9.84246
▁해당	-9.8426
▁재산	-9.84274
▁최신	-9.84291
▁외교부	-9.84297
▁시위자들	-9.84359
주간	-9.84415
▁모른다	-9.8447
▁일본은	-9.84482
스러운	-9.84529
▁때문	-9.84532
▁요구하는	-9.84568
었던	-9.84592
▁상품	-9.84601
플	-9.84606
lo	-9.84637
▁의장	-9.84674
▁국장	-9.84675
위로	-9.84715
▁제외	-9.84718
▁약속했다	-9.84793
▁속에서	-9.84827
수가	-9.84849
▁수감	-9.84934
▁가정	-9.84981
▁수용	-9.84984
▁차지	-9.84985
▁페일린	-9.8512
▁죽음	-9.85134
▁결론	-9.85135
▁끝난	-9.85149
▁대출	-9.85179
▁벨	-9.85186
▁협정	-9.85195
▁민	-9.85272
▁통화	-9.85283
▁개정	-9.85285
지를	-9.85313
▁저지	-9.85349
▁구체적인	-9.85385
▁방식	-9.85389
▁수반	-9.85586
▁오픈	-9.85591
율	-9.85682
불	-9.85709
▁재정	-9.85742
▁동맹	-9.85745
빈	-9.85818
▁이것이	-9.85851
▁공화당의	-9.85941
▁현장에서	-9.8605
▁언제	-9.86054
▁잭슨	-9.86063
▁매들린	-9.86063
▁싱가포르	-9.86063
▁대사는	-9.86068
▁토니	-9.86076
▁갖추	-9.86086
▁신용	-9.86107
▁소프트웨어	-9.86112
▁역	-9.86119
▁귀국	-9.86119
었으며	-9.86131
▁벌금	-9.8617
▁방어	-9.86212
▁소유	-9.86228
▁절반	-9.86234
스타	-9.86261
▁예방	-9.86323
▁격	-9.86384
▁의장은	-9.86479
▁임신	-9.8648
씩	-9.86559
▁고려	-9.86565
령	-9.86625
▁클럽	-9.8668
▁걸어	-9.86693
▁문제는	-9.86698
▁즉	-9.86834
▁포함되어	-9.86851
족	-9.86854
▁체포된	-9.86906
▁받았	-9.8697
▁리버풀	-9.87016
▁핵실험	-9.87018
▁사이클론	-9.87021
▁변경	-9.87039
달러를	-9.87063
▁이틀	-9.87145
▁이르는	-9.87153
▁조사하고	-9.87262
▁고속도로	-9.87267
▁총선에서	-9.87291
▁자격	-9.87306
▁46	-9.87336
▁신뢰	-9.8734
▁형	-9.87433
ia	-9.87497
▁i	-9.8761
▁되면	-9.87858
규	-9.87864
▁크리스	-9.87883
▁국가들	-9.87883
▁학	-9.87917
▁총리와	-9.87927
▁자살폭탄테러	-9.87972
▁cbs	-9.87977
▁론스타	-9.8798
▁케네디	-9.87981
▁ceo	-9.87984
▁충분	-9.88006
▁축제	-9.88007
▁전망이	-9.88033
▁루이스	-9.88036
▁풀	-9.88039
▁의료진	-9.88048
▁나달	-9.88066
▁요구를	-9.88085
▁공식적으로	-9.88091
▁트럭	-9.88167
▁성화	-9.88319
▁울	-9.88416
▁부패	-9.88456
▁지지자	-9.88481
▁진정	-9.8849
▁진행되	-9.88618
▁목	-9.88737
랜드	-9.88777
▁회담은	-9.88781
▁빠져	-9.88938
x	-9.8894
▁뉴질랜드	-9.88948
▁캠페인	-9.88948
▁1998	-9.88948
▁에이즈	-9.88955
▁있으나	-9.88956
▁지지하는	-9.88968
▁1990	-9.8897
▁실행	-9.88974
▁심슨	-9.88999
▁헤럴드	-9.89019
함에따라	-9.8902
▁압둘라	-9.89037
▁지적	-9.8906
▁l	-9.89255
▁속도	-9.89302
▁길이	-9.89329
▁이혼	-9.89366
▁모습이	-9.89373
▁터키군	-9.89435
▁동원	-9.89508
머	-9.89572
▁기자들	-9.89717
▁경험	-9.89724
▁필	-9.89725
▁팬	-9.89782
▁일부는	-9.89879
▁중이라고	-9.89912
▁우라늄	-9.89928
▁포르투갈	-9.89928
▁통합	-9.89942
▁1980	-9.89946
▁않도록	-9.89956
▁힘든	-9.89959
▁신경	-9.89984
▁작성	-9.90004
▁투자자들	-9.9002
표를	-9.90066
▁예산	-9.90146
▁안보리	-9.9025
▁행진	-9.90258
달하는	-9.90274
▁포드	-9.90339
▁그린	-9.90463
▁지진으로	-9.90518
▁회담에	-9.90601
▁중국과	-9.90725
▁기념	-9.90781
▁펜실베이니아	-9.90792
▁당선인은	-9.90817
▁드러났다	-9.90918
▁쥐	-9.90926
▁그와	-9.90934
▁육군	-9.90944
▁열린우리당	-9.91032
한다면	-9.91039
▁올렸다	-9.9104
▁진술	-9.91064
▁성공했다	-9.91149
▁경기에	-9.91356
▁단계	-9.91382
▁받	-9.91424
▁시드	-9.91623
▁철회	-9.9163
▁한번	-9.9173
찬	-9.9184
▁믿고	-9.91918
▁좋지	-9.91918
▁휘발유	-9.91918
▁ppp	-9.91922
▁로봇	-9.91924
▁나쁜	-9.9193
▁향후	-9.91931
▁차관보	-9.91942
▁민주화	-9.91961
▁학살	-9.91974
▁의무	-9.9203
▁가입	-9.92032
▁주인공	-9.92065
▁소개	-9.92096
▁집에	-9.92133
위에	-9.92143
▁학대	-9.92155
▁권	-9.92208
▁테러가	-9.92257
레스	-9.92526
조치	-9.92553
▁경선에서	-9.92569
▁이하	-9.92601
▁아랍	-9.92634
▁평화적	-9.92705
▁용의자들	-9.92758
▁스티븐	-9.92762
▁의도	-9.92768
▁죽	-9.92922
▁얘기	-9.92928
▁첼시	-9.9293
▁휴전	-9.9293
니다	-9.92935
▁폭행	-9.9294
▁입양	-9.92949
▁교	-9.92955
▁내린	-9.92957
술	-9.92973
▁지수는	-9.92976
▁때문이다	-9.92999
▁곳으로	-9.93013
▁워싱턴에서	-9.93056
▁33	-9.93061
▁통치	-9.93081
▁48	-9.93132
▁해결하기	-9.93214
▁pa	-9.93259
▁직	-9.93271
자로	-9.93316
한영	-9.9332
▁중에는	-9.93337
레이	-9.93414
▁포함해	-9.93426
▁회담이	-9.93461
▁외부	-9.93519
▁실종	-9.93663
▁조사에서	-9.93676
▁지도부	-9.93697
▁참	-9.93706
리는	-9.93718
▁인질들	-9.93718
창	-9.93733
▁협회	-9.93814
▁정부군	-9.93843
▁학생들이	-9.93854
취	-9.93895
▁아카데미	-9.93912
으면	-9.93913
▁여기	-9.93939
▁해리포터	-9.93949
▁훨씬	-9.93949
▁국제유가	-9.9395
▁벌어진	-9.93952
▁음모	-9.93962
▁불참	-9.93964
▁선거운동	-9.93969
▁리비아	-9.93983
▁반정부	-9.94005
▁잔해	-9.94053
▁예정이며	-9.94066
탈	-9.94084
▁편지	-9.94193
30	-9.94229
▁포인트	-9.94284
▁250	-9.94317
▁중국에서	-9.94459
▁유리	-9.94464
▁대체	-9.94558
었다고	-9.9456
▁44	-9.94587
▁대부분은	-9.94591
킨	-9.94591
▁존재	-9.94597
▁거절	-9.94652
킬	-9.94778
둔	-9.94884
▁장식	-9.9489
▁공개했다	-9.94906
▁콘서트	-9.94979
▁앨범	-9.94984
▁dna	-9.94985
▁질환	-9.94988
▁가득	-9.95
▁합	-9.95008
▁잡지	-9.95073
▁반기문	-9.95079
였으며	-9.95087
▁한국군	-9.95121
▁선물	-9.95152
▁신청	-9.95155
▁계획에	-9.95313
▁폐지	-9.95315
관리	-9.95325
▁랭킹	-9.95335
▁응	-9.95407
▁충분한	-9.95571
시장	-9.95635
▁바다	-9.95652
▁요구하고	-9.95714
▁노동자	-9.95792
립	-9.95874
▁벌인	-9.95923
▁준	-9.95974
j	-9.96009
▁자세	-9.96022
▁우선	-9.96036
▁영토	-9.96057
쇼	-9.9608
▁체니	-9.96103
▁추적	-9.96104
▁며칠	-9.96119
▁방법으로	-9.96152
▁장관이	-9.9619
▁레이스	-9.96249
▁성향	-9.96288
▁언급하지	-9.96324
▁공원	-9.96343
사를	-9.96379
▁목격자들	-9.96423
▁수집	-9.96511
▁세대	-9.96544
려는	-9.96661
▁주장하는	-9.96696
▁대통령에	-9.967
▁불리는	-9.96721
▁내에	-9.968
라운드	-9.96838
▁회사들	-9.96861
▁킹	-9.96876
들도	-9.96888
▁이웃	-9.97048
▁특별한	-9.97061
▁평	-9.97066
▁부활	-9.97072
▁맨체스터	-9.97072
▁무릎	-9.97074
▁페더러	-9.97074
▁맨유	-9.97084
▁사라	-9.97085
▁화산	-9.97085
▁기능	-9.97094
▁웨스트	-9.97098
▁who	-9.9711
▁생명	-9.97149
▁폭	-9.97167
▁밀란	-9.97322
▁이익	-9.97366
ir	-9.97401
▁콜	-9.97451
▁고객	-9.9748
▁시절	-9.97496
앙	-9.97548
▁지연	-9.97586
▁짐	-9.97612
▁방문할	-9.97658
필드	-9.97668
▁것보다	-9.97746
▁바람	-9.97753
ne	-9.97837
▁바그다드에서	-9.97842
▁거주하는	-9.9785
서는	-9.97867
▁보상	-9.97882
▁지도	-9.97885
▁방지	-9.97902
▁자기	-9.97919
장에서	-9.97955
▁회원국	-9.97958
▁사무총장	-9.97969
환	-9.98
60	-9.9802
▁대상	-9.98028
총	-9.98135
▁다르푸르	-9.98138
▁9.11	-9.98138
▁대다수	-9.98139
▁이메일	-9.98142
▁특정	-9.98151
▁접속	-9.98152
▁강경	-9.98218
▁이스라엘과	-9.98239
▁대북	-9.98247
섬	-9.98252
정책	-9.98267
▁기도	-9.98424
▁51	-9.98442
▁생존자	-9.98449
▁평양	-9.98452
▁진행된	-9.9846
▁다니	-9.98468
▁대결	-9.98474
▁엔	-9.98503
▁당선자	-9.98703
▁성과	-9.98713
▁유가	-9.98779
항	-9.98869
▁단체는	-9.9888
▁소니	-9.98953
▁협상이	-9.99043
cm	-9.99092
▁생각하고	-9.99149
▁생존	-9.99179
▁원하는	-9.99181
▁사드르	-9.99211
▁헤즈볼라	-9.99213
▁president	-9.99213
▁밖으로	-9.99213
▁세계대전	-9.99213
▁영변	-9.99222
▁리콜	-9.99223
▁의원들은	-9.99228
▁야생	-9.99229
▁폭우	-9.99241
기가	-9.99259
▁존슨	-9.99334
힐	-9.99354
▁다이아몬드	-9.99359
▁잃었다	-9.99415
▁계획이	-9.99516
▁목격자	-9.99544
▁적절한	-9.99545
드는	-9.99549
▁지하	-9.99739
▁파타	-9.99748
북	-9.99789
▁못하	-9.99797
되면	-9.99828
▁방문했다	-9.99967
▁힘들	-10.0007
it	-10.0009
▁분야	-10.0021
▁지키	-10.0027
▁멸종	-10.003
▁온난화	-10.003
▁저항	-10.0031
▁사령관	-10.0031
▁마틴	-10.0033
▁니	-10.0033
▁진실	-10.0033
▁출시	-10.0035
낼	-10.0035
돌	-10.0035
▁아이들이	-10.0039
▁수백만	-10.0039
▁발표된	-10.004
▁will	-10.0041
▁m	-10.0041
▁잠시	-10.0041
▁2007.1	-10.0042
▁밖에서	-10.0045
▁케	-10.0049
▁아일랜드	-10.0049
지에	-10.005
▁취할	-10.0053
▁빅	-10.0056
▁상어	-10.0058
▁이번주	-10.0078
▁모양	-10.008
▁사살	-10.0086
▁마이크	-10.009
▁샤리프	-10.0092
슈	-10.0092
려고	-10.0092
▁도착했다	-10.0103
▁o	-10.0114
▁나서	-10.0121
▁바라고	-10.0132
▁심각	-10.0133
했기	-10.0135
▁75	-10.0137
▁iraq	-10.0139
▁현지시각	-10.014
▁않았으며	-10.0141
▁버마	-10.0145
▁심문	-10.0145
달러에	-10.0145
▁선포	-10.0148
▁손상	-10.0149
▁말합니다	-10.015
▁내전	-10.015
엘	-10.0152
▁대부분이	-10.0161
▁말라	-10.0164
▁53	-10.0168
▁보면	-10.017
스터	-10.0174
▁국	-10.0192
▁as	-10.0196
▁경찰서장	-10.0197
▁r	-10.0197
▁사건과	-10.0204
▁기업들	-10.0206
▁총재	-10.0213
▁선박	-10.0215
▁논란	-10.0219
▁예상했다	-10.0225
▁전해	-10.0229
▁제도	-10.0232
▁이스라엘군	-10.0241
웰	-10.0249
▁서명	-10.0251
▁쿠데타	-10.0251
▁갑자	-10.0251
▁nbc	-10.0251
▁기준	-10.0252
▁체결	-10.0253
▁서방	-10.0257
▁파악	-10.0259
▁밑	-10.0261
봉	-10.0266
▁사건으로	-10.027
▁태평양	-10.0271
▁혹	-10.0277
쯤	-10.0293
▁차드	-10.0301
▁면	-10.0303
▁광	-10.0305
▁입원	-10.0308
▁공격이	-10.0312
▁수요	-10.0312
▁빛	-10.0315
▁전투기	-10.0318
▁음반	-10.0319
▁경보	-10.0332
축	-10.0341
▁처	-10.0342
la	-10.0343
성이	-10.035
▁스테	-10.0353
▁찾고	-10.0363
▁공공	-10.0367
▁핵시설	-10.0368
▁어려운	-10.0368
▁보통	-10.0369
패	-10.0372
▁장비	-10.0372
▁구제	-10.0372
겐	-10.0384
쳤다	-10.0388
▁프로	-10.0388
▁둘	-10.0388
▁식	-10.039
▁52	-10.039
▁가자	-10.0391
▁아래	-10.0401
▁인하	-10.0408
▁사실상	-10.0409
지르	-10.0411
▁머	-10.0414
들어	-10.0415
▁가까이	-10.0426
로운	-10.0429
▁된다고	-10.0436
▁현재까지	-10.0458
▁의식	-10.0463
▁향하	-10.0467
▁질병	-10.0467
셔	-10.0473
▁그것이	-10.0476
▁이렇게	-10.0477
▁훌륭	-10.0477
▁복구	-10.048
▁격차	-10.0482
▁만날	-10.0482
▁노출	-10.0482
▁보고했다	-10.0484
▁달성	-10.0495
▁부문	-10.0495
컵	-10.0502
만큼	-10.0503
▁처음이다	-10.0507
10	-10.0509
▁요원	-10.0516
▁몰	-10.052
▁ba	-10.052
▁일주일	-10.0523
▁수감자	-10.0527
문제	-10.0533
들로	-10.0552
▁갖	-10.0564
년에는	-10.0573
영한	-10.0578
▁화	-10.0583
▁외교적	-10.0586
▁업계	-10.0587
▁카르자이	-10.0592
▁교환	-10.0592
▁최선	-10.0594
▁동반	-10.0595
▁커피	-10.0595
▁걸릴	-10.0597
▁신임	-10.0599
▁일리노이주	-10.06
▁치러진	-10.0601
▁일환으로	-10.0601
▁베트남	-10.0602
▁파산	-10.0603
▁남아	-10.0604
연합	-10.0604
▁가는	-10.0609
▁적은	-10.061
낸	-10.0612
손	-10.0617
▁악화	-10.0619
▁일본에서	-10.0621
거래	-10.0622
▁벤	-10.0631
▁최초로	-10.0637
▁교도소	-10.0648
▁브	-10.0649
▁신호	-10.065
▁되기	-10.065
▁일본이	-10.0656
25	-10.0658
클	-10.0658
▁영화제	-10.0662
▁내용이	-10.0671
▁투어	-10.0674
▁시작한	-10.0674
선수	-10.0687
▁여사	-10.069
▁광산	-10.0692
▁티	-10.0695
▁제안했다	-10.0697
▁조사에	-10.07
자와	-10.0706
▁나이지리아	-10.0708
▁다우존스	-10.0708
▁에드워즈	-10.0708
▁흡연	-10.0708
▁설득	-10.0708
차전	-10.0708
▁폭동	-10.071
▁공중	-10.0716
▁일간	-10.0716
▁국왕	-10.0717
▁전면	-10.0718
▁검색	-10.0731
▁포기	-10.0731
▁각국	-10.0735
▁통신은	-10.0738
▁추정되는	-10.0759
▁있어서	-10.076
▁동물원	-10.0769
▁다우	-10.0771
▁본사	-10.0781
▁소환	-10.0796
▁베이	-10.0798
주일	-10.0801
▁상점	-10.0801
▁대기	-10.0803
▁사인	-10.0804
▁노력하고	-10.0812
▁근거	-10.082
▁결정은	-10.0825
▁덴마크	-10.0826
▁오스트리아	-10.0826
▁복잡	-10.0826
▁단순	-10.0827
▁않지만	-10.0829
ion	-10.0831
▁34	-10.0833
에선	-10.0833
▁지켜	-10.0839
▁레이	-10.0841
national	-10.0843
▁소수	-10.0847
▁국제적	-10.0853
▁시위에	-10.0856
▁감정	-10.0867
▁밝히고	-10.0868
▁폐기	-10.0872
▁시장에서	-10.0873
▁목적으로	-10.0902
틀	-10.0907
▁색	-10.0918
▁증명	-10.0918
▁지진이	-10.0923
원제	-10.0927
▁기본	-10.093
▁심리	-10.0934
▁모인	-10.0934
▁의회는	-10.094
덴	-10.0942
▁더불어	-10.0945
▁누군가	-10.0945
▁출석	-10.0946
▁봄	-10.0946
▁맞서	-10.0948
▁성관계	-10.0948
▁매각	-10.0948
▁부담	-10.0949
▁소설	-10.095
▁책임자	-10.0951
▁환자들	-10.096
▁실시되	-10.0963
▁지휘	-10.0965
▁늘어	-10.0966
▁복용	-10.0967
▁북측	-10.0968
했음	-10.0968
▁카드	-10.0969
▁웃	-10.097
▁했으며	-10.0984
영화	-10.1011
▁사용되	-10.1011
▁합동	-10.1016
▁철도	-10.1019
▁계속되고	-10.1021
▁낸	-10.1027
빠진	-10.1028
순	-10.1035
▁국회의원	-10.1038
▁소식이	-10.1044
▁회원	-10.1046
스키	-10.1049
▁밝	-10.105
후드	-10.1051
▁청소년	-10.1052
누	-10.1057
▁못하는	-10.1065
▁japan	-10.1065
▁고등학교	-10.1065
▁농축	-10.1066
▁서울에서	-10.1066
▁칠레	-10.1066
▁새끼	-10.1067
칠	-10.1069
▁도입	-10.107
사가	-10.1072
▁측정	-10.108
▁대답	-10.1081
▁당신이	-10.1086
▁절	-10.1091
▁것이라며	-10.1093
▁공산당	-10.1093
▁mo	-10.1094
악	-10.1097
▁사전	-10.1101
▁내릴	-10.1104
▁지시	-10.1107
▁그림	-10.1108
▁의지	-10.1109
▁부근에서	-10.1115
냈다	-10.1118
항공	-10.1119
▁테러리스트	-10.1126
▁수용소	-10.1132
▁늘	-10.1135
▁상승했다	-10.114
▁주간	-10.1147
통신	-10.1174
▁성공적	-10.1178
랄	-10.1181
닝	-10.1183
▁55	-10.1185
▁됩니다	-10.1186
▁블랙	-10.1187
▁이유는	-10.1187
▁방글라데시	-10.1187
▁없으며	-10.1187
▁검거	-10.1188
▁마카오	-10.1188
▁순방	-10.1189
▁남아공	-10.1189
▁치명적	-10.119
▁상처	-10.1192
▁발병	-10.1198
▁예비	-10.1198
▁삼성	-10.1199
▁따라서	-10.12
▁이해	-10.1208
▁부여	-10.1208
트는	-10.1214
조원	-10.1215
당한	-10.1218
ri	-10.1223
▁조성	-10.1224
▁보수	-10.1224
률	-10.1225
▁즉각적	-10.1231
▁구입	-10.1238
▁66	-10.1239
▁탈	-10.1239
▁가능	-10.1242
▁세우	-10.1244
▁표시	-10.125
▁전날	-10.1258
기관	-10.1261
▁의회에	-10.1262
▁의회의	-10.1264
▁경기장	-10.1268
▁행성	-10.1274
▁재무장관	-10.1276
▁기반	-10.1278
▁마르	-10.1281
▁공격에	-10.1288
▁둘러	-10.1294
대에	-10.1296
▁증가하고	-10.1298
▁자리에서	-10.1298
되며	-10.1299
▁장애	-10.1303
▁왕세자	-10.1307
▁네트워크	-10.1311
▁스웨덴	-10.1311
▁습격	-10.1311
▁혜택	-10.1311
▁카스트로	-10.1311
▁다니엘	-10.1311
▁덮	-10.1312
▁극복	-10.1313
▁목사	-10.1314
▁그래서	-10.1315
▁탐사	-10.1315
▁오르	-10.1315
▁유감	-10.1317
▁무력	-10.1318
▁분명히	-10.1319
▁개방	-10.1319
▁이뤄지	-10.1333
▁공항에서	-10.1337
▁보관	-10.1341
으로써	-10.1343
계획	-10.1356
뿐	-10.1357
▁승리했다	-10.1358
▁기다리고	-10.1359
▁연구원	-10.1363
▁추방	-10.1368
▁크기	-10.1372
라도	-10.1373
▁바이	-10.1373
▁명단	-10.1373
▁수상자	-10.1374
40	-10.1378
년이	-10.1382
▁하게	-10.1385
▁오브	-10.1387
▁많다	-10.1394
▁반군이	-10.1402
▁말까지	-10.1403
▁나갈	-10.1404
▁피트	-10.1404
▁군인들	-10.1405
▁주석	-10.1406
▁56	-10.1414
▁내놓	-10.1419
z	-10.1419
ies	-10.1426
드시	-10.1426
▁de	-10.1432
▁했지만	-10.1435
죠	-10.1435
▁uefa	-10.1436
▁ioc	-10.1436
▁챔피언스리그	-10.1436
▁겨울	-10.1437
▁페루	-10.144
▁무료	-10.1441
▁구출	-10.1442
▁2010	-10.1442
▁사담	-10.1442
▁가옥	-10.1443
▁43	-10.1446
is	-10.145
▁이중	-10.1459
▁시내	-10.146
▁plan	-10.146
▁올린	-10.1464
▁명은	-10.1471
▁이송	-10.1477
▁무대	-10.1479
송	-10.1486
▁의회에서	-10.1486
▁그동안	-10.1486
▁허락	-10.1492
▁고발	-10.1493
▁황	-10.1502
▁주지	-10.1514
▁있다면	-10.152
▁체제	-10.1527
▁해병대	-10.153
▁않	-10.1533
▁유치	-10.1534
밀	-10.1543
▁49	-10.1543
▁지도자들은	-10.1544
상태	-10.155
견	-10.155
▁휴	-10.1559
▁주지사가	-10.156
▁어린이들	-10.1561
▁붉은	-10.1561
▁정확히	-10.1562
▁북동부	-10.1562
▁운송	-10.1563
▁권한	-10.1564
▁노예	-10.1567
▁알래스카	-10.1572
▁세워	-10.1577
▁있었고	-10.1581
▁모여	-10.1581
.10	-10.1582
▁수감자들	-10.1585
▁열대	-10.1591
▁초점	-10.1593
어야	-10.1594
애	-10.1608
분의	-10.161
▁분리	-10.1624
▁하면	-10.1628
▁찬	-10.163
▁고대	-10.1631
▁경매	-10.1632
▁행복	-10.1637
▁베이징에서	-10.1646
▁보고서에서	-10.1651
ers	-10.1659
▁작동	-10.1661
능	-10.1664
▁희생자들	-10.1667
▁선언했다	-10.1673
▁결정에	-10.1684
▁숫자	-10.1691
▁심지어	-10.1691
▁완벽	-10.1691
▁철저	-10.1691
▁크루즈	-10.1692
▁민감	-10.1692
▁자극	-10.1693
▁특사	-10.1698
▁진전	-10.1699
▁거뒀다	-10.1699
명에게	-10.1705
▁진화	-10.1712
▁유전자	-10.1719
▁샌프란시스코	-10.1722
▁고향	-10.1723
▁제공하는	-10.1726
▁2009.0	-10.1727
▁식품	-10.1727
▁대가로	-10.1728
▁형태	-10.1731
▁운항	-10.1744
숙	-10.1745
▁얻기	-10.1748
▁공화국	-10.1748
▁체계	-10.1749
▁기독교	-10.1754
▁만일	-10.1756
▁탈출	-10.1765
▁ma	-10.1794
션	-10.1796
ta	-10.1799
▁거부했다	-10.1802
▁워	-10.1804
▁타이	-10.1815
▁마찬가지	-10.182
▁nato	-10.1821
▁폴란드	-10.1821
▁frb	-10.1821
▁레알	-10.1822
▁분열	-10.1822
▁명예	-10.1823
▁군정	-10.1823
▁입증	-10.1824
▁중부	-10.1824
▁철군	-10.1824
슬	-10.1826
▁주기	-10.1827
il	-10.1828
▁현금	-10.1834
▁행	-10.1836
▁주한미군	-10.1841
▁외교관	-10.1842
▁노대통령	-10.185
▁600	-10.1851
▁잇	-10.1857
▁살아	-10.1863
착	-10.1864
▁경영	-10.1868
벌	-10.1874
▁시위대는	-10.1876
▁보인다고	-10.1877
▁대선에서	-10.1877
▁전반	-10.188
▁현상	-10.188
▁중지	-10.1881
▁실패했다	-10.189
▁수영	-10.1896
▁야기	-10.1898
▁달라	-10.1899
▁위원장	-10.1902
▁빙하	-10.1905
▁마치고	-10.1915
▁생각하는	-10.1916
▁st	-10.1918
▁절대	-10.1919
▁이행	-10.1925
▁이주	-10.1932
▁답변	-10.1934
▁이양	-10.1936
▁방향	-10.1943
▁부정적	-10.1944
70	-10.1949
▁에어버스	-10.1952
▁보여줬다	-10.1952
▁소요	-10.1957
▁만난	-10.196
▁공포	-10.196
▁서신	-10.1961
으	-10.1961
▁일반적으로	-10.1964
▁견해	-10.1965
▁pc	-10.1971
▁중독	-10.1971
▁뼈	-10.1973
▁호세	-10.1975
ver	-10.1978
▁it	-10.198
▁발생했으며	-10.198
▁차관	-10.1981
▁싸움	-10.1984
▁철	-10.1988
해줄	-10.1988
▁64	-10.1991
▁답	-10.1998
▁신체	-10.2004
▁공유	-10.2006
▁no	-10.2007
올	-10.2008
완	-10.2011
▁혁명	-10.2011
공격	-10.2015
▁안에서	-10.2021
▁유나이티드	-10.2034
▁납치된	-10.2035
▁뉴욕에서	-10.2037
렛	-10.204
회사인	-10.204
▁강요	-10.2043
500	-10.2044
▁묻	-10.205
▁아니	-10.2051
▁강조	-10.2053
행위	-10.2059
▁폭격	-10.206
람	-10.207
▁돌아	-10.207
ial	-10.2072
▁챔피언	-10.2072
▁작	-10.2073
웠다	-10.2074
▁노스캐롤라이나	-10.2074
▁노벨	-10.2078
▁폭탄이	-10.2078
▁방침	-10.208
▁것이고	-10.208
▁스리랑카	-10.2083
▁전개	-10.2084
▁사우디아라비아	-10.2085
▁잃은	-10.2085
▁크라이슬러	-10.2085
▁토마스	-10.2085
▁관찰	-10.2086
et	-10.2086
▁아이디어	-10.2086
▁선거에	-10.209
▁이곳에	-10.2091
▁신발	-10.2095
▁발간	-10.2102
▁실종된	-10.2106
▁캘리포니아주	-10.2115
ate	-10.2117
이기	-10.212
▁지속	-10.2121
▁있	-10.2122
▁한국에서	-10.2125
▁계획이라고	-10.2127
달라고	-10.2129
▁좋아	-10.2136
▁고립	-10.2136
▁기대하고	-10.2147
▁증권	-10.2149
▁발생하지	-10.2149
딘	-10.2151
▁방송국	-10.2157
▁피해가	-10.2159
▁라이트	-10.2161
▁대회에서	-10.2161
▁런던에서	-10.2162
▁과학자	-10.2164
▁여자친구	-10.2169
▁터	-10.2171
▁수업	-10.2173
▁법정	-10.2185
▁라이	-10.22
세인	-10.22
▁운동을	-10.22
▁값	-10.2205
▁항소	-10.2216
▁시장에	-10.2219
▁태양	-10.2219
▁위원회는	-10.222
▁동티모르	-10.222
▁라스베이거스	-10.222
▁맞춰	-10.222
▁쓰나미	-10.222
▁협박	-10.222
▁리조트	-10.2221
▁활주로	-10.2221
▁이사	-10.2221
▁타이틀	-10.2221
▁있었지만	-10.2222
▁독	-10.2222
▁생긴	-10.2223
▁안전한	-10.2225
▁인생	-10.2226
▁환	-10.223
▁위조	-10.2231
▁측근	-10.2231
▁대량	-10.2233
▁경제에	-10.2235
▁중순	-10.2237
▁무선	-10.2239
▁죄	-10.2241
▁받아야	-10.2242
▁gm	-10.2244
▁지역으로	-10.2247
▁근처	-10.2256
▁측은	-10.226
▁교사	-10.2263
▁이사회	-10.2265
▁붙	-10.2266
인들은	-10.2269
▁불러	-10.2279
왕	-10.2282
수록	-10.2289
▁수상했다	-10.229
▁수퍼	-10.229
▁린	-10.2294
▁이스라엘이	-10.2296
▁데이	-10.2312
분간	-10.2317
▁해변	-10.232
▁실적	-10.232
▁재단	-10.2322
▁쓰	-10.233
▁달러에	-10.2335
▁거두	-10.2341
▁세상	-10.2346
▁성화봉송	-10.2347
▁시티	-10.2352
졌으며	-10.2353
장관은	-10.2355
▁사회적	-10.2357
넬	-10.2357
▁엄격	-10.2358
▁복무	-10.2358
▁은퇴	-10.2358
▁회동	-10.2359
▁논평	-10.236
▁표했다	-10.2361
▁아니면	-10.2362
▁형제	-10.2363
▁모기지	-10.2364
▁바르셀로나	-10.2365
▁구금	-10.2365
▁돌아오	-10.2365
▁금요일	-10.2366
▁예전	-10.2367
▁세계은행	-10.2369
▁갖게	-10.237
▁기계	-10.237
▁높아지	-10.237
▁총격전	-10.2374
▁콩고	-10.2382
▁난사	-10.2383
▁승리한	-10.2383
▁첫번째	-10.2387
▁만화	-10.2388
▁누리	-10.239
▁시청	-10.2393
▁한때	-10.2395
▁보낼	-10.2396
안에	-10.2398
▁하던	-10.2402
▁클린턴이	-10.2405
개발	-10.2407
침	-10.2417
▁대학교	-10.2419
▁원한다	-10.2421
도시	-10.2425
▁책임이	-10.2425
▁자세한	-10.243
▁사용한	-10.2431
▁신부	-10.2436
el	-10.2437
▁오염	-10.244
▁여성의	-10.2445
▁상징	-10.2462
운동	-10.247
▁앞에	-10.2471
시키려	-10.2473
▁지지율	-10.2475
▁계획은	-10.2477
▁39	-10.2484
▁봤다	-10.2486
▁나누	-10.2487
▁일리노이	-10.2487
▁항	-10.2488
받	-10.2491
▁리그	-10.2494
▁태어난	-10.2496
▁케이블	-10.2497
▁1994	-10.2497
▁하원의원	-10.2498
▁데이터	-10.2498
▁채택	-10.2498
▁디자인	-10.2499
▁헨리	-10.2501
▁2012	-10.2502
▁지시했다	-10.2502
▁두바이	-10.2503
▁불편	-10.2504
▁단속	-10.2504
▁유력	-10.2505
▁보유	-10.2506
▁본선	-10.2513
자들에게	-10.2519
▁보유하고	-10.2519
▁주장에	-10.252
un	-10.2521
▁만들어진	-10.2524
▁하와이	-10.2531
▁130	-10.2531
▁불길	-10.2533
▁조합	-10.2533
▁돌아가	-10.2538
이던	-10.2538
▁보트	-10.2544
▁회의에서	-10.2544
▁상태에	-10.255
우스	-10.2551
물을	-10.2551
▁니콜	-10.2557
2008.0	-10.2574
같은	-10.2574
▁악	-10.258
▁감독이	-10.258
됐었다	-10.2583
▁프로그램에	-10.2588
▁훼손	-10.259
▁호텔에서	-10.2596
▁위로	-10.2599
▁강타	-10.2601
▁3000	-10.2602
▁비교	-10.2613
대학	-10.2613
▁민주	-10.2617
▁전역	-10.2619
▁물건	-10.2623
▁외교통상부	-10.2626
▁아이오와	-10.2627
▁얻어	-10.263
▁스코틀랜드	-10.2637
▁앓고	-10.2637
▁휴대전화	-10.2637
▁섹스	-10.2637
▁외환은행	-10.2638
▁면담	-10.2638
▁떠	-10.2639
▁abc	-10.2639
건의	-10.264
▁해결책	-10.2641
▁마쳤다	-10.2641
▁거쳐	-10.2643
▁빚	-10.2644
▁오늘날	-10.2648
▁간단	-10.2649
▁전쟁에	-10.2652
▁아메리칸	-10.2653
▁개표	-10.2653
▁그리	-10.2658
▁인류	-10.266
▁죽은	-10.2663
▁방화	-10.2669
▁예수	-10.2669
▁다수	-10.2669
▁고어	-10.2669
▁의학	-10.2669
주는	-10.2671
▁응답자	-10.2681
잔	-10.2683
▁도시에서	-10.2684
▁주인	-10.2685
▁즐	-10.2687
▁않기	-10.2705
▁공간	-10.2715
젠	-10.2717
▁에도	-10.2721
명도	-10.2723
드라	-10.2735
▁발생하는	-10.2737
▁경쟁자	-10.2738
▁54	-10.274
▁거주	-10.2747
▁양측	-10.2747
했	-10.2748
▁이끌어	-10.2751
▁획득	-10.2754
▁주목	-10.2763
치는	-10.2765
틴	-10.2766
▁동성애자	-10.2768
켓	-10.2772
주의자	-10.2772
▁백인	-10.2773
갑	-10.2773
▁플레이	-10.2776
▁취	-10.278
▁가슴	-10.278
▁불능화	-10.278
▁찾을	-10.278
▁급등	-10.2782
▁1970	-10.2785
▁발전소	-10.2795
▁중국에	-10.2798
▁홀	-10.2798
됐을	-10.2799
▁사령관은	-10.2801
릭	-10.2802
극	-10.2803
▁케리	-10.2804
▁61	-10.2806
▁부과	-10.2807
▁800	-10.281
▁47	-10.2811
▁추정된다	-10.2812
▁이후로	-10.2814
▁아동	-10.2814
세력	-10.2818
▁이라크와	-10.282
12	-10.282
보다는	-10.2822
▁논란이	-10.2823
▁분석가	-10.2826
▁우리당	-10.2826
되었던	-10.2828
▁참석했다	-10.283
▁중재	-10.2832
왔	-10.2839
▁비용이	-10.2842
▁파손	-10.2845
▁말하며	-10.2851
막	-10.2858
▁방법이	-10.2859
▁방영	-10.2863
▁이스라엘은	-10.2871
이어	-10.2874
▁사용자	-10.2882
되었으며	-10.2882
▁당수	-10.2883
▁월드	-10.2884
▁주한	-10.2889
하고자	-10.2895
었고	-10.2899
▁혐의에	-10.2907
▁끼	-10.291
▁표명	-10.2912
▁자원	-10.2916
▁물가	-10.292
▁법원에	-10.2923
딩	-10.2923
▁코미디	-10.2924
짝	-10.2925
▁일으킨	-10.2925
▁와인하우스	-10.2925
▁송환	-10.2926
▁저지른	-10.2926
▁무죄	-10.2927
▁우리나라	-10.2927
▁나올	-10.293
▁여권	-10.2934
▁낸시	-10.2935
▁펼쳤다	-10.2939
▁요소	-10.2939
▁김대중	-10.2942
▁용	-10.2949
▁폭스	-10.2949
▁잔	-10.2953
▁가했다	-10.2955
전에	-10.2963
▁순찰	-10.2965
▁못한다	-10.2967
▁벗어나	-10.2973
▁국민들에게	-10.2975
▁보지	-10.298
▁이내	-10.2982
▁지상	-10.2985
▁업무	-10.2992
▁41	-10.3005
롭	-10.3008
▁지속적	-10.3009
▁의석	-10.3011
경찰	-10.3015
상황	-10.3019
▁폭발물	-10.302
산업	-10.3021
▁세포	-10.3021
▁불가능	-10.3021
▁국방	-10.3027
시아	-10.3029
때문에	-10.303
▁경찰서	-10.3031
▁지목	-10.3033
▁푸	-10.3037
스톤	-10.3043
▁미국측	-10.305
▁못해	-10.3051
▁기금	-10.3055
▁말해	-10.3062
▁엄청	-10.3063
▁리처드	-10.307
▁요르단	-10.3071
▁곤잘레스	-10.3072
▁블라고예비치	-10.3072
▁블라디미	-10.3072
▁오사마빈라덴	-10.3072
▁천주교	-10.3072
▁이루어졌다	-10.3073
▁자유롭	-10.3073
▁합병	-10.3074
▁고위관리	-10.3074
▁테스트	-10.3075
▁종류	-10.3076
▁임금	-10.3077
▁제기했다	-10.3077
▁사망자수	-10.3081
인들이	-10.3082
▁쓴	-10.3086
▁주문	-10.3087
▁보도에따르면	-10.3088
▁중대한	-10.309
▁시기에	-10.3092
▁가구	-10.3093
▁받았으며	-10.31
세로	-10.31
▁친구들	-10.3101
자금	-10.3104
▁답했다	-10.3106
▁봉쇄	-10.3107
▁얼음	-10.3108
▁뿐만아니라	-10.3113
▁집으로	-10.3117
▁의문	-10.3123
▁델	-10.3126
▁앨	-10.3127
▁펜	-10.3128
▁개장	-10.313
천만	-10.3136
▁보는	-10.3136
▁적극적	-10.3139
▁왔	-10.314
▁것이었다	-10.3147
▁청	-10.3148
드리	-10.3149
작업	-10.3158
장관	-10.3159
▁해양	-10.3162
▁식당	-10.3162
▁코트	-10.3164
▁목격	-10.3166
▁마감했다	-10.3168
▁트	-10.3168
텔	-10.3173
▁콘	-10.3185
▁생일	-10.3189
▁검사는	-10.319
▁몰아	-10.3196
▁제대	-10.3196
위원	-10.3213
▁명확	-10.3213
조차	-10.3218
▁취재	-10.3218
▁선거캠프	-10.3221
▁없지만	-10.3221
▁북서부	-10.3221
▁government	-10.3221
▁탄핵	-10.3222
▁봉사	-10.3222
▁숀	-10.3223
▁화장실	-10.3224
▁사막	-10.3225
▁노동당	-10.3228
▁상공	-10.323
▁계	-10.323
경제	-10.3234
▁자유를	-10.3241
▁백악관은	-10.3243
▁화해	-10.3243
▁운영하	-10.3246
▁전환	-10.325
염	-10.3254
▁기존	-10.3257
▁만났다	-10.3259
▁독도	-10.326
▁묘사	-10.3262
▁재건	-10.3275
▁싶어	-10.3277
▁아니었다	-10.3278
▁나타내	-10.3282
스와	-10.3282
▁발언에	-10.329
▁하늘	-10.3292
ti	-10.3293
▁스키	-10.3294
되었고	-10.3294
▁메일	-10.3294
▁크	-10.3298
▁아프가니스탄에서	-10.3299
▁초대	-10.33
▁이루	-10.3302
▁자사	-10.3312
▁포로	-10.3312
▁한국에	-10.3314
▁총장은	-10.3314
▁백악관에서	-10.3317
▁비판했다	-10.3317
참	-10.3317
암	-10.3321
▁인종	-10.3332
▁시점	-10.3337
▁조기	-10.3338
▁우주비행사	-10.3339
▁압둘	-10.3359
펠	-10.3362
▁넓	-10.3364
▁법안이	-10.3364
▁건축	-10.3368
0,000	-10.3373
▁나스닥	-10.3373
▁샤라포바	-10.3373
▁리차드	-10.3373
▁from	-10.3373
▁패트릭	-10.3373
▁짓	-10.3373
▁핵프로그램	-10.3374
▁직업	-10.3374
▁다윈	-10.3375
▁강풍	-10.3375
▁진영	-10.3376
▁왕실	-10.3377
▁언어	-10.338
▁배경	-10.338
▁여러분	-10.3384
▁분명	-10.3386
▁전세계적으로	-10.3386
▁차단	-10.3387
▁직전	-10.3388
▁해임	-10.339
ur	-10.3395
▁들어갔다	-10.3397
▁견	-10.3405
▁주장하며	-10.3407
세가	-10.3408
▁생각했다	-10.3408
▁자제	-10.3412
▁사용될	-10.3413
200	-10.3416
▁전원	-10.3425
▁개시	-10.3428
▁합류	-10.3431
ol	-10.3431
▁깨	-10.3438
▁옮겨	-10.3441
▁맡은	-10.3457
폭	-10.3461
▁비치	-10.3461
▁윌	-10.3463
▁의원들	-10.3466
풍	-10.3471
▁즉각	-10.3473
▁급속	-10.3474
학교	-10.3481
화를	-10.3483
▁정신적	-10.3486
▁문제들	-10.349
▁골프	-10.3498
▁위에	-10.3503
▁전역에	-10.3504
▁리드	-10.3504
▁열어	-10.3504
피트	-10.3506
▁시민들이	-10.3508
▁그렇지	-10.3509
▁트리	-10.3512
▁출동	-10.3517
▁삭제	-10.3519
▁디즈니	-10.3526
▁캄보디아	-10.3527
▁남서부	-10.3527
▁받아들일	-10.3527
▁둘러싸	-10.3527
▁영웅	-10.3527
▁케빈	-10.3527
▁fa	-10.3529
▁축소	-10.353
▁법무부	-10.353
▁관광객들	-10.3531
기에	-10.3532
▁완전한	-10.3538
▁보복	-10.3539
▁공개된	-10.3539
▁해적	-10.3539
▁장례식	-10.354
▁공개적으로	-10.3541
움	-10.3544
▁스타일	-10.3547
베나	-10.3548
▁회	-10.3548
▁불과	-10.3551
▁이라크군	-10.3553
▁일어나	-10.3554
▁단체들	-10.3554
▁홈	-10.3556
▁계속되	-10.3556
▁회사가	-10.3562
▁보호하기	-10.3562
▁폭락	-10.3564
▁59	-10.3566
▁유대인	-10.3567
▁확실한	-10.3567
▁우리에게	-10.357
▁대치	-10.3575
▁이른	-10.3576
▁120	-10.358
부대	-10.358
▁논의하기	-10.3581
▁결의안을	-10.3582
▁주었다	-10.3588
da	-10.3592
▁유럽의	-10.3596
▁자신에게	-10.36
▁시드니	-10.3601
▁메이	-10.3616
▁한국이	-10.3622
▁오바마와	-10.363
▁62	-10.3636
▁가능하다	-10.3642
▁거리에	-10.3647
▁진술했다	-10.3652
▁만들고	-10.3652
번째로	-10.3658
▁영국인	-10.3659
ca	-10.366
▁병사들	-10.3668
옥	-10.3672
세트	-10.368
▁달라이라마	-10.3681
▁근로자	-10.3681
▁패션	-10.3681
▁디지털	-10.3683
▁마이애미	-10.3683
▁비타민	-10.3683
▁알코올	-10.3683
▁일찍	-10.3683
▁가택연금	-10.3683
▁호랑이	-10.3683
▁활약	-10.3683
▁거듭	-10.3683
▁라이벌	-10.3683
▁자치정부	-10.3683
▁원칙	-10.3684
▁산사태	-10.3685
▁새벽	-10.3685
▁공항에	-10.3686
▁천재	-10.3686
▁보내는	-10.3687
▁65	-10.3687
이었으며	-10.3688
▁곡	-10.3688
▁동기	-10.369
▁조류	-10.3693
▁취임식	-10.3693
▁들여	-10.3694
▁공모	-10.3695
▁금리	-10.3699
짜리	-10.3701
▁다우지수	-10.3701
▁해산	-10.3702
▁잡고	-10.3704
비아	-10.3704
▁떠났다	-10.3708
▁맥주	-10.3708
법원	-10.371
아야	-10.3715
▁무엇	-10.3716
▁배출	-10.3719
웨이	-10.3727
▁이론	-10.3728
겨	-10.3729
▁탐	-10.3738
▁지내	-10.3738
▁전부터	-10.3741
니는	-10.3744
장에	-10.3744
▁영장	-10.3745
▁블	-10.375
pa	-10.375
시에	-10.3753
▁인근에	-10.3757
철	-10.3758
▁보이	-10.3763
련	-10.3765
향	-10.377
▁감염된	-10.3771
▁모스크바	-10.3773
▁평가했다	-10.3774
▁시장이	-10.3776
▁시한	-10.3777
▁증가한	-10.3777
존	-10.3783
▁동쪽	-10.3784
녀	-10.3795
▁의사들	-10.3797
뿐만아니라	-10.3797
▁달려	-10.3803
▁했었다	-10.3805
▁57	-10.3806
▁부서	-10.3813
조직	-10.3813
▁상태로	-10.3814
▁58	-10.3826
상의	-10.3833
닥	-10.3835
▁발굴	-10.3839
▁minister	-10.3842
▁토네이도	-10.3842
▁쌍둥이	-10.3842
▁천연가스	-10.3842
▁겨냥	-10.3842
▁로이터	-10.3843
▁수석대표	-10.3843
▁위안부	-10.3843
▁사생활	-10.3844
▁산림	-10.3844
▁관영	-10.3844
▁법무장관	-10.3845
▁벨기에	-10.3846
▁폭파	-10.3846
▁마무	-10.3847
▁중요	-10.3852
▁선발	-10.3853
▁초반	-10.3853
척	-10.3853
▁감행	-10.3854
▁치열한	-10.386
▁점차	-10.3861
▁선전	-10.3863
▁쌀	-10.3863
▁것인가	-10.3866
▁노인	-10.3871
▁북쪽	-10.3872
▁위대	-10.3874
▁경영진	-10.388
▁소문	-10.388
▁나에게	-10.3883
▁연구팀	-10.3883
▁세계적	-10.3884
▁눈에	-10.3886
▁가족과	-10.3887
▁일제	-10.3887
▁호수	-10.3889
▁연금	-10.3891
별	-10.3893
▁변호사가	-10.3893
젤	-10.3899
▁돼지	-10.3902
▁예루살렘	-10.3905
age	-10.3906
검사	-10.3908
▁딕	-10.391
▁로비	-10.3911
▁국민들이	-10.3912
▁노동자들	-10.3912
▁걸린	-10.392
▁얻을	-10.3921
▁out	-10.3922
100	-10.3922
▁공기	-10.3936
▁키스	-10.3937
델	-10.3937
▁이재민	-10.3948
례	-10.3951
▁연관	-10.3954
▁뒤에	-10.3954
▁연주	-10.3954
▁순	-10.3957
카운티	-10.3962
둘	-10.3963
▁부근	-10.3973
▁투표에서	-10.3974
▁인디애나	-10.3975
▁조약	-10.3976
ma	-10.3976
▁의존	-10.3985
학자	-10.3985
▁록	-10.3985
▁언론에	-10.3987
▁움직이	-10.3989
▁대상이	-10.3993
된다고	-10.3996
되어야	-10.3997
위원회는	-10.3998
▁쇼핑	-10.3999
▁비난하고	-10.4001
멸	-10.4001
▁1996	-10.4003
▁nuclear	-10.4003
▁뿌리	-10.4003
▁쓰촨성	-10.4003
▁아메리카	-10.4003
▁원숭이	-10.4003
▁결선투표	-10.4003
▁침몰	-10.4003
▁파트너	-10.4003
▁은신처	-10.4003
▁갖춘	-10.4003
▁근육	-10.4003
▁다섯	-10.4004
▁보스턴	-10.4004
▁황금	-10.4004
▁사찰단	-10.4006
▁결과는	-10.4007
▁받으며	-10.4008
▁엔진	-10.401
▁보험	-10.4011
▁악어	-10.4011
▁품	-10.4015
▁재난	-10.4015
▁현실	-10.4015
▁사람에게	-10.4016
▁카터	-10.4017
베이	-10.4018
▁경력	-10.4019
▁부채	-10.4019
▁미칠	-10.4022
▁world	-10.4025
▁들어오	-10.4028
▁형사	-10.4029
미터	-10.403
▁미국인들이	-10.4032
▁채널	-10.4033
제를	-10.4034
▁재무부	-10.4045
▁로한	-10.4045
께	-10.4053
이라며	-10.4053
▁차량에	-10.4059
치를	-10.4061
▁알카에다와	-10.4063
▁올리	-10.4069
죄	-10.4077
▁파티	-10.408
▁보고서에	-10.4085
▁밴드	-10.4086
▁정지	-10.4087
조사	-10.409
▁아프간에서	-10.409
▁제조업체	-10.4092
됐으나	-10.4092
▁경험이	-10.4096
글	-10.4103
▁상승세	-10.4107
▁에드	-10.411
▁하락세	-10.411
▁농	-10.4111
▁구조대	-10.4114
됐고	-10.4121
알	-10.4125
▁수리	-10.4126
▁끌어	-10.4127
▁지점	-10.4129
▁모색	-10.4136
▁셀	-10.4144
▁년간	-10.415
▁실망	-10.415
▁포경	-10.4152
스가	-10.4155
▁최저	-10.4155
▁이란과	-10.4157
돼야	-10.4158
▁프레스	-10.4166
▁참여한	-10.4166
▁pkk	-10.4167
▁늦게	-10.4167
▁리히터	-10.4167
▁마이크로소프트	-10.4167
▁비핵화	-10.4167
▁알렉산더	-10.4167
▁왼쪽	-10.4167
▁이산화탄소	-10.4167
▁좋다	-10.4167
▁키바키	-10.4167
▁오히려	-10.4167
▁오딩가	-10.4167
닷컴	-10.4167
▁급격	-10.4168
▁his	-10.4168
▁남극	-10.4168
▁아이폰	-10.4169
▁영업	-10.4169
▁할머니	-10.4169
▁체중	-10.4171
▁분류	-10.4171
▁파예드	-10.4172
▁대립	-10.4172
▁초청	-10.4178
▁날짜	-10.419
▁러시아는	-10.4194
▁원화	-10.4196
▁밥	-10.4196
▁합의했다고	-10.4197
▁막대	-10.4197
마자	-10.4202
기업	-10.4213
▁차량이	-10.4213
▁가동	-10.4216
▁당국자	-10.4217
▁자본	-10.4223
▁장면이	-10.4224
▁문제의	-10.4226
위인	-10.4226
▁치러	-10.4235
▁숙	-10.424
▁중간	-10.4242
▁그대로	-10.4245
▁정치인	-10.4251
▁물이	-10.4252
▁공사	-10.4253
▁노선	-10.4254
ac	-10.4256
▁마비	-10.4261
▁기다리	-10.427
▁음	-10.4279
▁처해	-10.4286
한국	-10.4293
▁al	-10.4294
쓰	-10.4295
새	-10.4296
시키	-10.43
▁기록한	-10.4309
찰	-10.4312
▁희생	-10.4314
▁보석	-10.4317
겠지만	-10.4321
▁나오지	-10.4324
▁연구에	-10.4326
▁내리	-10.4329
▁호소	-10.4329
▁인플레이션	-10.4334
▁필라델피아	-10.4334
▁택시	-10.4334
▁거짓말	-10.4334
▁over	-10.4334
▁탄압	-10.4334
▁이뤄졌다	-10.4334
▁사냥	-10.4336
▁근로자들	-10.4336
▁기밀	-10.4337
▁소집	-10.4337
▁만남	-10.4338
▁체코	-10.4339
▁성격	-10.4339
▁화재로	-10.4341
정도	-10.4343
▁다음날	-10.4343
지역에서	-10.4344
▁상호	-10.4349
▁여행객	-10.4355
▁든	-10.4356
▁소매	-10.4359
년만에	-10.4363
▁스캔들	-10.4365
▁화학	-10.4366
▁사람들과	-10.4375
드로	-10.4375
겼다	-10.4377
▁타임스	-10.4381
▁소위	-10.4382
▁일간지	-10.4382
▁통일부	-10.4384
▁최	-10.4395
▁권고	-10.4395
▁만들기	-10.4402
▁리치	-10.4403
▁것임	-10.4404
▁총상	-10.4406
▁방식으로	-10.4406
▁투쟁	-10.4406
▁홍수로	-10.4411
▁정의	-10.4411
▁월요일에	-10.4412
▁부총리	-10.4413
적이고	-10.442
▁반영	-10.4425
니스	-10.4431
▁일치	-10.4431
혈	-10.4431
▁입수	-10.4432
▁양국간	-10.4432
▁군사적	-10.4436
▁시각	-10.4442
▁구조대원들	-10.4442
▁남동부	-10.4447
▁up	-10.445
▁보안군	-10.4451
▁수상한	-10.4453
않게	-10.4456
해질	-10.4457
▁데에	-10.4458
▁카페	-10.4459
분에	-10.4465
2009.0	-10.4466
▁출판	-10.447
다시	-10.4474
트라	-10.4479
▁피해자들	-10.4479
▁관계에	-10.4488
▁결과에	-10.4488
닌	-10.4495
작전	-10.4495
▁지수	-10.4497
▁북미	-10.4499
▁여론조사에서	-10.4501
82	-10.4503
▁갔다	-10.4503
▁골키퍼	-10.4503
▁남자친구	-10.4503
▁다시한번	-10.4503
▁구멍	-10.4503
▁china	-10.4504
▁포럼	-10.4504
▁폭설	-10.4505
▁주장한	-10.4506
▁특수	-10.4507
▁브랜드	-10.4507
▁이란에	-10.4508
▁진단	-10.4508
▁음주	-10.4512
▁자문	-10.4512
▁행정	-10.4513
▁이에따라	-10.4516
이라	-10.452
▁미군과	-10.452
▁이루어지	-10.4524
▁인사들	-10.4525
지수	-10.4527
▁주최측	-10.4528
▁not	-10.4531
▁사법	-10.4538
▁가상	-10.4539
▁사태에	-10.4541
▁조사에따르면	-10.455
▁가족들이	-10.4557
▁예술	-10.4557
▁날개	-10.456
▁기대한다	-10.4562
ve	-10.4569
▁했습니다	-10.4571
▁표명했다	-10.4574
90	-10.4581
▁세력이	-10.4582
니아	-10.4584
▁공대	-10.4598
▁신사	-10.4606
▁증시는	-10.4606
▁토지	-10.4612
▁이식	-10.4612
버리	-10.4614
트리	-10.4614
▁바꾸	-10.4617
몬	-10.4621
▁sc	-10.4622
놓	-10.4626
▁구체적	-10.4627
▁부상으로	-10.4627
장치	-10.463
▁주위	-10.4635
연맹	-10.4639
▁극장	-10.4639
▁바라	-10.4641
테러	-10.4644
800	-10.4645
▁확정	-10.4645
▁제공할	-10.4653
사항	-10.4653
사태	-10.4655
정보	-10.466
▁day	-10.4667
▁하나로	-10.4673
▁일본과	-10.4674
보호	-10.4675
▁빈곤	-10.4675
픽	-10.4675
▁사우스캐롤라이나	-10.4675
▁코끼리	-10.4675
▁hiv	-10.4676
▁먼	-10.4676
▁있었으나	-10.4676
▁균형	-10.4676
▁종결	-10.4678
▁1995	-10.4678
▁징역형	-10.4678
▁라덴	-10.4679
▁배후	-10.4682
▁기소됐다	-10.4682
므로	-10.4682
▁제작한	-10.4684
▁꼭	-10.4685
▁벽	-10.4687
▁기온	-10.4692
▁정식	-10.4694
▁마리아	-10.4695
▁비교적	-10.4697
▁아난	-10.4698
▁성장률	-10.4698
▁시체	-10.47
▁여학생	-10.4701
▁보여준다	-10.4703
원은	-10.4704
▁용기	-10.4708
로스	-10.4713
▁올려	-10.4719
▁맡고	-10.4725
▁커플	-10.4725
▁자신과	-10.473
▁크리스티	-10.473
받았다	-10.4735
▁감지	-10.474
스타인	-10.474
▁스톤	-10.4746
간에	-10.4753
▁미국인들	-10.4755
사인	-10.4759
▁생기	-10.4759
▁플라	-10.476
▁테러와	-10.4766
▁출연한	-10.4769
▁확인됐다	-10.477
랜	-10.4773
▁전통적	-10.4775
▁청문회	-10.4778
그룹	-10.4782
▁순위	-10.4789
▁폭발이	-10.4791
▁위협이	-10.4805
▁토론회	-10.4811
▁초안	-10.4815
▁받는다	-10.4817
600	-10.4817
▁가게	-10.482
▁하이	-10.4825
▁윈	-10.4825
▁보잉	-10.4826
▁낼	-10.4827
느	-10.4831
▁구역	-10.4832
▁진행자	-10.4835
▁한국인들	-10.4836
탕	-10.4839
▁출산	-10.4847
▁올라가	-10.4848
▁연쇄	-10.4851
▁후진타오	-10.4851
▁뭄바이	-10.4851
▁선관위	-10.4851
▁섭취	-10.4851
▁테일러	-10.4851
▁스트레스	-10.4851
▁show	-10.4852
▁국제공항	-10.4853
▁1993	-10.4853
▁케이트	-10.4854
▁줄리아니	-10.4855
들로부터	-10.4857
▁방송사	-10.4857
▁미디어	-10.4858
ese	-10.4859
▁맞추	-10.4859
▁제목	-10.4859
▁보고서에따르면	-10.4864
▁공격은	-10.4869
어스	-10.4874
▁700	-10.4874
▁비율	-10.4884
▁정전	-10.4885
▁많아	-10.4886
▁해도	-10.4887
진다	-10.4887
▁일으켰다	-10.4888
▁피부	-10.4893
▁화상	-10.4893
▁입을	-10.4895
역을	-10.4897
▁일어났다	-10.4902
▁진행되는	-10.4905
▁배가	-10.4906
라스	-10.4914
비치	-10.4916
▁가방	-10.492
▁도착한	-10.4921
▁필요성	-10.4922
▁유출	-10.4926
▁근처에서	-10.4931
▁가족이	-10.4931
▁파도	-10.4933
부는	-10.4938
▁마시	-10.4946
장인	-10.4949
▁하나인	-10.495
만개	-10.4953
▁가졌	-10.4954
▁여성과	-10.4957
ity	-10.4963
▁따르	-10.4967
▁날아	-10.4968
▁자택	-10.497
국인	-10.4971
업자	-10.4975
더라도	-10.4976
▁적절	-10.4978
리스트	-10.4978
▁통신이	-10.4981
▁놀	-10.4982
▁치르	-10.4984
▁이것	-10.4985
사의	-10.499
▁헌	-10.4991
압	-10.4994
▁고객들	-10.4994
▁비난하는	-10.4995
▁애도	-10.4996
헌	-10.4998
tor	-10.5
바이	-10.5
연구소	-10.5008
▁사용해	-10.5008
▁되찾	-10.5009
▁다가	-10.5012
▁발생하고	-10.5013
▁당국에	-10.5014
▁남부에서	-10.5021
욕	-10.5024
▁물에	-10.5027
켈	-10.5029
▁광범위	-10.5029
▁다큐멘터리	-10.5029
▁식료품	-10.5029
▁재검토	-10.5029
▁탱크	-10.5029
▁펠로시	-10.5029
▁마라톤	-10.5029
▁돌고래	-10.5029
▁전당대회	-10.503
▁가벼	-10.503
▁데일리	-10.503
▁nba	-10.503
▁교통사고	-10.503
▁지붕	-10.503
▁소규모	-10.5031
▁슈퍼	-10.5031
▁구축	-10.5031
▁me	-10.5031
▁보존	-10.5032
▁동생	-10.5033
▁화려	-10.5034
▁73	-10.5035
▁범행	-10.5037
▁기쁘다	-10.5037
▁감바리	-10.5037
▁적발	-10.5038
▁선포했다	-10.504
▁사용하지	-10.5041
▁승려들	-10.5043
▁상당히	-10.5057
▁제정	-10.506
▁조용	-10.5062
▁기차	-10.5062
▁침입	-10.5064
ist	-10.5065
▁국적	-10.5065
량이	-10.5071
▁직장	-10.5073
▁손에	-10.5074
▁밝히	-10.5075
▁북쪽으로	-10.5075
▁곳이다	-10.5077
▁재판관	-10.5084
▁수립	-10.509
380	-10.509
리고	-10.5092
석을	-10.5092
▁경호원	-10.5093
▁여사는	-10.5095
물이	-10.5097
▁혼	-10.51
▁그래	-10.5107
▁착수	-10.511
▁무게	-10.5113
▁쓰고	-10.5116
▁참석할	-10.5117
▁끝나	-10.5117
었지만	-10.5145
▁관계당국	-10.5147
▁인원	-10.515
▁이용하는	-10.5154
▁세계적으로	-10.5154
▁정책에	-10.5154
▁sh	-10.5156
▁의미한다	-10.5157
▁회견	-10.5157
검	-10.5159
▁대피했다	-10.5168
▁번째로	-10.517
▁사용했다	-10.5174
▁95	-10.5178
력이	-10.5182
▁예정인	-10.5184
▁월가	-10.5187
충	-10.5188
칸	-10.5188
햄	-10.519
놀	-10.519
▁보여주고	-10.5191
시스템	-10.5192
▁조명	-10.5195
▁북극	-10.5197
▁가해	-10.5198
▁무슬림	-10.5199
▁두려워	-10.5203
▁간주	-10.5204
▁녹	-10.5204
▁수사관	-10.5207
▁감금	-10.5211
▁dvd	-10.5211
▁국제원자력기구	-10.5211
▁돕기	-10.5211
▁듣고	-10.5211
▁샌디에이고	-10.5211
▁캐릭터	-10.5211
▁쿠웨이트	-10.5211
▁협약	-10.5211
▁횡령	-10.5211
▁과반수	-10.5211
▁화이트	-10.5211
▁펀드	-10.5211
▁롬니	-10.5211
▁봉송	-10.5212
▁일어날	-10.5212
▁예멘	-10.5212
▁침공	-10.5212
▁1991	-10.5213
▁소련	-10.5213
▁검문소	-10.5215
▁신규	-10.5215
▁레이건	-10.5216
▁판정	-10.5217
▁이륙	-10.5218
▁일련	-10.5218
▁1960	-10.5219
▁거부권	-10.5219
▁반박	-10.522
ts	-10.5222
오는	-10.5222
▁숲	-10.5225
▁늘어나	-10.5226
▁마친	-10.5229
▁지정	-10.5234
▁개정안	-10.5235
▁부산	-10.5236
▁뇌물	-10.524
▁성당	-10.5243
제도	-10.5244
금지	-10.5245
▁계좌	-10.5248
▁여성들이	-10.5252
▁충돌이	-10.5254
▁경관	-10.5255
었는지	-10.5255
▁기부	-10.5255
허	-10.5255
▁차지하고	-10.5256
▁성직자	-10.5259
▁한나라당은	-10.5267
▁해안에서	-10.5269
▁남성은	-10.5269
▁조각	-10.5272
▁보일	-10.5273
▁md	-10.5274
▁생물	-10.5275
해진	-10.5276
▁브리	-10.5278
▁ri	-10.5283
▁총재는	-10.5288
택	-10.5288
벨	-10.5289
▁근거로	-10.5292
▁요리	-10.5292
300	-10.5294
▁지점에서	-10.5294
되었	-10.5295
▁주제	-10.5295
▁스턴	-10.5297
▁제출했다	-10.5304
▁맞는	-10.5307
▁실시할	-10.5312
ry	-10.5316
▁선원	-10.5316
▁주장한다	-10.5318
▁후보자	-10.5321
▁고소	-10.5323
▁여지	-10.5331
▁줄어들	-10.5331
원이	-10.5335
국이	-10.5339
▁공정	-10.5351
▁승리로	-10.5352
▁신중	-10.5353
▁팀이	-10.5359
▁소식통이	-10.5359
▁운명	-10.5366
▁얼	-10.5367
▁경비	-10.5367
▁유럽에서	-10.5371
곤	-10.5372
▁후보와	-10.5374
▁적십자	-10.5374
▁일본에	-10.5384
▁운영하고	-10.5389
해야만	-10.539
▁지원할	-10.5393
점으로	-10.5394
▁지하철	-10.5394
▁메르켈	-10.5396
▁붙잡	-10.5396
▁안전보장이사회	-10.5396
▁않았던	-10.5396
▁에콰도르	-10.5396
▁확장	-10.5396
▁발휘	-10.5397
▁특징	-10.5397
▁party	-10.5397
▁저희	-10.5397
▁녹음	-10.5398
익	-10.5399
▁항구	-10.5401
▁론	-10.5403
▁래리	-10.5404
▁수배	-10.5406
▁조지아주	-10.5406
▁당초	-10.5406
▁진보	-10.5407
▁모임	-10.5408
▁are	-10.541
▁신조	-10.5412
▁단체가	-10.5412
▁하미	-10.542
지수는	-10.5426
▁환호	-10.5428
700	-10.543
당국	-10.5435
▁생산량	-10.5438
▁대륙	-10.5439
▁운전사	-10.5441
어로	-10.5444
id	-10.5446
러스	-10.5448
▁클	-10.5454
▁있어야	-10.5457
▁검은	-10.5457
▁달러화	-10.5457
▁흥분	-10.546
▁상태에서	-10.5462
um	-10.5464
▁67	-10.5466
▁2500	-10.547
▁중단했다	-10.5472
▁달린	-10.5475
▁주식시장	-10.5475
▁실종자	-10.5476
▁수십명	-10.5476
▁이름이	-10.5483
▁요금	-10.5486
▁최근에	-10.5486
▁투르	-10.5487
▁와인	-10.5488
▁보게	-10.5489
▁방법은	-10.549
▁지분	-10.5491
당국은	-10.5491
im	-10.5497
▁슬	-10.5499
▁미치는	-10.5499
▁레스토랑	-10.55
▁발견한	-10.5502
▁합의한	-10.5502
▁나이트	-10.5504
▁계속될	-10.5506
▁후보인	-10.5518
▁펼치	-10.552
▁지도자가	-10.5523
장으로	-10.5527
▁알아	-10.5531
na	-10.5539
▁중이었다	-10.5539
버그	-10.554
▁냈다	-10.5542
▁서장	-10.5544
▁후원	-10.5545
▁최고치	-10.5546
주에서	-10.555
▁공약	-10.5551
▁추측	-10.5558
▁확신한다	-10.5559
몰	-10.556
삼	-10.5567
귀	-10.5567
린다	-10.5569
곡	-10.557
▁결과로	-10.557
7000	-10.5572
▁미시시피	-10.5584
릿	-10.5585
▁미국인들은	-10.5585
▁마흐디	-10.5585
▁obama	-10.5585
▁낮추	-10.5585
▁매니저	-10.5585
▁먹이	-10.5585
▁없게	-10.5585
▁없고	-10.5585
▁프랭크	-10.5585
▁항공우주국	-10.5585
▁예를들어	-10.5585
▁애완견	-10.5585
▁난민촌	-10.5586
▁쉽지	-10.5586
▁퇴임	-10.5586
▁귀환	-10.5587
▁리처드슨	-10.5587
▁운전자	-10.5587
▁쿠퍼	-10.5587
▁탄생	-10.5587
▁영화배우	-10.5588
▁레드	-10.5592
분만에	-10.5592
관은	-10.5594
▁원래	-10.5594
▁소형	-10.5595
▁1950	-10.5596
▁매체	-10.5598
▁공산주의	-10.5599
▁밝혀진	-10.56
타르	-10.56
▁결의안	-10.5601
▁중단할	-10.5603
▁침대	-10.5605
내내	-10.5605
▁물품	-10.5607
▁때문이라	-10.5607
▁수송	-10.5609
▁딸이	-10.5609
▁생각이	-10.561
▁하루에	-10.5612
▁전복	-10.5613
▁오하이오주	-10.5617
포트	-10.5619
▁스타디움에서	-10.562
이란	-10.5626
▁행사에	-10.5629
▁조치는	-10.563
▁무어	-10.563
▁텍사스주	-10.5632
▁발표하고	-10.5632
▁신문사	-10.5637
▁다르다	-10.5637
▁깊이	-10.5639
▁맨	-10.564
혔다	-10.5642
되거나	-10.5646
▁테니스	-10.5647
▁만족	-10.5651
▁추세	-10.5658
▁증세	-10.566
▁베르	-10.5662
▁동맹국	-10.5663
▁정원	-10.5667
▁무리	-10.5676
▁어렵다	-10.5678
포드	-10.5681
▁협상에	-10.5688
▁십	-10.5689
▁건물이	-10.5692
▁미스	-10.5711
▁화요일에	-10.5712
쪽	-10.5715
육	-10.5719
▁벌였	-10.572
▁페이지	-10.5722
회담	-10.5722
▁예상되	-10.5731
▁바라는	-10.5734
▁테러범	-10.5736
▁부모들	-10.5739
▁바뀌	-10.574
▁하락한	-10.5743
▁무고	-10.5746
▁옆	-10.5749
▁양측은	-10.5757
꺼	-10.5766
▁애리조나	-10.5767
▁교도소에	-10.5769
hi	-10.577
▁응급	-10.5775
▁경호	-10.5776
▁foreign	-10.5777
▁옐친	-10.5777
▁침략	-10.5778
▁줄기세포	-10.5778
▁경기부양책	-10.5778
▁샘플	-10.5778
▁어깨	-10.5778
▁예비선거	-10.5778
▁앤드류	-10.5778
▁득표율	-10.5778
▁복역	-10.5779
▁문제와	-10.578
▁영양	-10.578
▁창출	-10.578
▁88	-10.5781
▁창문	-10.5781
▁끝날	-10.5782
▁다국적군	-10.5782
▁방출	-10.5783
▁졸리	-10.5785
▁발포	-10.579
ho	-10.5791
▁최저치	-10.5792
▁키우	-10.5797
▁국가에서	-10.5805
▁일본인	-10.5806
▁1500	-10.5808
▁상상	-10.5809
▁옆에	-10.5812
▁인력	-10.5815
▁촬영한	-10.5816
▁아르	-10.5818
▁소식에	-10.5823
▁식사	-10.5828
▁겨	-10.5832
▁동의했다	-10.5835
▁늘리	-10.5839
▁세트	-10.584
▁ra	-10.5841
단계	-10.5841
▁던지	-10.5843
▁해상	-10.5843
▁공개됐다	-10.5854
째	-10.5854
▁예정이었다	-10.5854
▁윤	-10.5859
▁인근에서	-10.5869
▁청사	-10.5871
▁화물	-10.5874
▁아들이	-10.5877
▁조건으로	-10.588
▁학교에	-10.5881
스코	-10.5882
쪽으로	-10.5883
▁치러지	-10.5887
▁이로	-10.5893
▁카불	-10.5913
▁대항	-10.5913
쳤	-10.5914
시대	-10.5916
▁전달했다	-10.5918
▁소식통	-10.5924
▁요청을	-10.5925
▁물러나	-10.5926
▁제이	-10.5932
▁자리에	-10.5936
네스	-10.5937
버스	-10.5939
▁잡아	-10.5939
음을	-10.5942
▁받아들이	-10.5944
▁발견되었다	-10.5948
듯	-10.5949
▁부르	-10.5951
▁관여	-10.5956
▁영화에	-10.5956
▁게재	-10.5957
빙	-10.5962
치고	-10.5965
6000	-10.5967
▁뮤지컬	-10.5974
▁윔블던	-10.5974
▁일으킬	-10.5974
▁퍼거슨	-10.5974
▁플라스틱	-10.5974
▁배터리	-10.5974
▁빠질	-10.5974
▁프리미어리그	-10.5974
▁데이빗	-10.5974
▁노르웨이	-10.5974
▁유혈사태	-10.5974
▁브리핑	-10.5974
▁상륙	-10.5974
군이	-10.5974
▁낙태	-10.5974
▁롤링	-10.5974
▁검증	-10.5974
▁방문하는	-10.5975
▁밝혔으며	-10.5975
▁밝혔지만	-10.5975
▁외무성	-10.5975
▁생방송	-10.5975
▁빌딩	-10.5975
▁로딕	-10.5976
▁오마르	-10.5976
▁불구	-10.5977
▁실업률	-10.5977
시킨다	-10.5978
▁서양	-10.5979
▁번역	-10.5979
▁american	-10.598
▁정권이	-10.598
▁드러냈다	-10.598
ll	-10.598
에이커	-10.5981
▁매달	-10.5981
▁음성	-10.5982
▁접전	-10.5984
▁본토	-10.5985
▁알지	-10.5985
▁이뤄진	-10.5985
▁연구원들	-10.5986
▁발행	-10.5988
▁알렸다	-10.599
▁선수가	-10.5993
▁여겨지	-10.5998
▁ex	-10.5998
소를	-10.5998
▁제리	-10.6
▁서울시	-10.6
▁분량	-10.6003
▁분석가들은	-10.6004
▁동일한	-10.6005
▁보이며	-10.6007
▁pro	-10.6015
▁정상화	-10.6018
▁소득	-10.6019
▁상태이다	-10.602
사회	-10.6021
▁비난하며	-10.6022
리에	-10.6024
▁유도	-10.6028
▁비행사	-10.603
▁전부	-10.6035
평	-10.6035
▁포장	-10.6036
비용	-10.6036
▁해병	-10.6037
▁일으키	-10.6038
▁자택에서	-10.6041
▁거절했다	-10.6045
▁않기로	-10.6047
▁얻고	-10.6048
측에	-10.6053
라면	-10.6059
식을	-10.6062
전에서	-10.6064
▁do	-10.6066
▁이민	-10.6078
▁69	-10.6088
▁국기	-10.6089
▁잡스	-10.609
▁국가로	-10.6092
▁투표에	-10.6097
있	-10.6102
에게서	-10.6102
해주	-10.6108
▁연안	-10.6116
▁지지자들이	-10.6117
▁so	-10.612
▁발표됐다	-10.6121
국으로	-10.6122
▁무장대원	-10.6126
시켰다고	-10.6129
▁파운드	-10.6134
▁실질적	-10.6135
푸	-10.6136
▁국가들은	-10.6137
▁다이	-10.6141
소리	-10.6148
15	-10.6149
▁di	-10.6157
▁사실은	-10.6163
▁막아	-10.6165
차량	-10.6166
▁상원의원과	-10.6167
▁앉아	-10.6167
▁래	-10.6168
벽	-10.6168
▁돌파	-10.6168
▁지원하는	-10.6169
웅	-10.6169
잉	-10.617
짓	-10.617
뜨	-10.617
홍	-10.6173
▁느낄	-10.6174
▁오토바이	-10.6174
▁카트리나	-10.6174
▁파바로티	-10.6174
▁피라미드	-10.6174
▁정거장	-10.6174
▁징계	-10.6174
▁보이콧	-10.6174
▁라파엘	-10.6174
▁여섯	-10.6174
행사	-10.6174
▁빠지	-10.6174
▁mbc	-10.6174
▁암컷	-10.6174
▁dis	-10.6175
▁라이언	-10.6175
4000	-10.6178
▁오른쪽	-10.6178
▁상대방	-10.6179
▁통증	-10.6179
▁백신	-10.618
▁알렉스	-10.618
▁멀리	-10.6183
▁단체인	-10.6185
▁모금	-10.6187
▁않는다면	-10.6188
▁지대	-10.6191
▁유산	-10.6192
▁사설	-10.6192
▁2008.10	-10.6196
▁부실	-10.6196
사업	-10.6197
▁76	-10.6197
▁산타	-10.6203
▁국민의	-10.6205
▁작업에	-10.6214
▁솔	-10.6217
▁해당하는	-10.6219
▁쓸	-10.622
▁소유하고	-10.6222
내용	-10.6224
64	-10.6227
▁법원에서	-10.6229
▁유인	-10.6232
▁존중	-10.6239
▁요인	-10.624
▁취해	-10.6243
▁처한	-10.6247
▁레바논군	-10.6249
▁참여할	-10.6253
스럽게	-10.6254
지역에	-10.6255
▁코커스	-10.6267
▁외치	-10.6269
▁상을	-10.6271
브라	-10.6279
▁심의	-10.6281
▁장군은	-10.6282
▁몰고	-10.6289
▁지켜보	-10.6289
▁상하이	-10.6308
▁마을에서	-10.6308
▁죽음을	-10.6319
▁동료들	-10.632
at	-10.6321
▁육	-10.6322
▁회의에	-10.6331
▁수위	-10.6332
19	-10.635
▁온도	-10.635
헤	-10.6372
▁잠재적	-10.6372
▁가족은	-10.6375
엄	-10.6376
싱	-10.6377
▁아름다	-10.6377
▁visit	-10.6378
▁관타나모	-10.6378
▁마돈나	-10.6378
▁앤더슨	-10.6378
▁힘입어	-10.6378
넨	-10.6378
▁1992	-10.6378
▁again	-10.6378
▁서식지	-10.6378
▁불가리아	-10.6378
▁객실	-10.6378
▁헌법재판소	-10.6378
▁imf	-10.6378
▁화합	-10.6379
▁비틀즈	-10.6379
됩니다	-10.6379
▁fda	-10.6379
▁않았으나	-10.6379
칼	-10.638
▁화면	-10.6381
▁두번째	-10.6381
폴	-10.6381
▁내려졌다	-10.6382
▁종료	-10.6382
▁테러조직	-10.6382
▁차별	-10.6385
▁웨	-10.6386
▁전국적으로	-10.639
▁재임	-10.6391
▁도심	-10.6391
▁나왔	-10.6391
▁보급	-10.6391
▁개편	-10.6392
▁목표는	-10.6393
▁탄소	-10.6394
▁동물들	-10.6394
▁재직	-10.6394
스크	-10.6395
▁법안은	-10.6396
▁실시했다	-10.6397
▁격렬한	-10.6401
▁제시했다	-10.6404
▁열렸다	-10.6406
▁일이다	-10.6408
▁리비	-10.6409
▁민족	-10.6411
본부	-10.6411
▁광장	-10.6414
▁풍	-10.6416
▁취한	-10.6417
▁지지한다	-10.6418
▁엑스	-10.6419
est	-10.642
▁크레	-10.6425
▁대학에서	-10.6427
▁포함돼	-10.6427
▁범인이	-10.6428
▁63	-10.6428
▁다음주	-10.643
사와	-10.643
으려	-10.6433
▁방향으로	-10.6441
▁득점	-10.6444
한글	-10.6446
국의	-10.6448
기록	-10.6452
▁해소	-10.6453
리안	-10.6454
▁모건	-10.6456
▁에어	-10.6458
▁노리	-10.6458
▁축	-10.6459
▁최대의	-10.6463
▁군인들이	-10.6464
00	-10.6464
웨	-10.6466
▁소식은	-10.647
장의	-10.6477
▁중심가	-10.6484
세이	-10.6492
▁상승한	-10.6493
▁마이	-10.6495
▁급증	-10.6501
▁청구	-10.6503
▁승객들	-10.6509
▁커지	-10.6513
▁국가들이	-10.6516
▁제출한	-10.6519
▁대학생	-10.6521
▁인질들을	-10.6522
▁범	-10.6523
80	-10.6528
▁로스	-10.6531
▁72	-10.6536
▁맛	-10.6539
▁프라이머리에서	-10.6552
▁조사한	-10.6556
▁na	-10.6559
▁무엇보다	-10.6559
ci	-10.6568
▁이용한	-10.6568
▁블루	-10.6569
▁촉진	-10.6573
▁콜로라도	-10.6574
▁state	-10.6575
셀	-10.6577
▁노력이	-10.6577
넷	-10.6582
▁하면서	-10.6582
▁과격	-10.6584
▁경기침체	-10.6586
▁끔찍	-10.6586
▁먹는	-10.6586
▁아테네	-10.6586
▁않았고	-10.6586
▁히틀러	-10.6586
룸	-10.6586
▁중남미	-10.6586
▁자유무역협정	-10.6586
▁take	-10.6586
▁공룡	-10.6586
▁농장	-10.6586
▁벽돌	-10.6587
▁관람	-10.6587
▁살아남	-10.6587
▁탈락	-10.6587
▁탄광	-10.6588
희	-10.6588
▁talks	-10.6588
▁점검	-10.6588
▁금액	-10.6588
▁팝	-10.6588
▁거짓	-10.6589
▁자선단체	-10.6589
▁뉴욕주	-10.6589
▁세웠다	-10.6591
▁유발	-10.6591
걸	-10.6591
▁nk	-10.6592
▁4000	-10.6593
▁플레이어	-10.6594
▁자신감	-10.6595
1000	-10.6595
▁해서	-10.6596
▁접수	-10.6598
▁실린	-10.6598
▁야구	-10.6599
▁중요성	-10.66
▁인형	-10.6602
▁위원	-10.6602
▁아마디	-10.6603
▁7000	-10.6603
▁고급	-10.6607
▁존경	-10.6609
▁개인적	-10.6609
▁전반적인	-10.6612
▁포함하여	-10.6615
▁남용	-10.6616
▁좋아하는	-10.6619
▁겸	-10.6623
▁요구하며	-10.6623
▁착용	-10.6624
▁갖는	-10.6627
▁군함	-10.6629
om	-10.663
▁부당	-10.6631
▁라이브	-10.6634
▁플로리다주	-10.6636
▁생각하지	-10.6638
▁사용하고	-10.6642
▁남편이	-10.6645
▁이틀간	-10.6648
ha	-10.6649
▁유튜브	-10.6649
▁직면	-10.6651
▁우즈	-10.6651
▁조지아	-10.6655
▁직원이	-10.6658
기지	-10.6658
▁설	-10.6658
▁법안에	-10.6661
▁확실	-10.6668
▁일에	-10.6668
▁손해	-10.667
시오	-10.667
▁각자	-10.6675
▁코스	-10.6676
▁본다	-10.6677
▁털	-10.6679
▁유지하고	-10.6683
▁미니	-10.6686
▁기아	-10.6691
대회	-10.6692
▁약화	-10.6692
객	-10.6707
ml	-10.6711
▁ha	-10.6715
▁시인	-10.6727
혔	-10.6731
▁로브	-10.6735
▁기소된	-10.6737
스티	-10.6746
▁강세	-10.6767
▁건너	-10.677
▁작용	-10.6776
▁지휘관	-10.6785
▁로저	-10.6786
다란	-10.6789
▁매춘	-10.6793
징	-10.6795
럽	-10.6796
▁농업	-10.6798
▁opec	-10.6799
▁seoul	-10.6799
▁루아얄	-10.6799
▁에넹	-10.6799
▁우주왕복선	-10.6799
▁울포위츠	-10.6799
▁지지선언	-10.6799
▁허커비	-10.6799
▁징후	-10.6799
▁벌써	-10.6799
▁본격적	-10.6799
▁center	-10.6799
▁파나마	-10.68
▁함유	-10.68
▁술집	-10.68
▁있었습니다	-10.6801
으면서	-10.6801
▁떠날	-10.6801
▁사이클	-10.6801
▁드러내	-10.6802
▁새롭	-10.6802
▁디스크	-10.6803
▁않으며	-10.6804
▁매매	-10.6804
협상	-10.6806
▁소행성	-10.6806
▁서류	-10.6806
▁집권당	-10.6807
▁연계	-10.6807
콜	-10.6808
▁형식	-10.6809
▁준수	-10.6809
▁자동	-10.6811
▁승부	-10.6811
▁국방성	-10.6811
업계	-10.6812
▁연간	-10.6812
▁x	-10.6815
▁정계	-10.6815
▁통과시켰다	-10.6816
▁표면	-10.6816
▁지지하고	-10.682
▁얼마전	-10.682
▁매케인이	-10.6822
코프	-10.6822
▁범위	-10.6824
▁내정	-10.6824
vs	-10.6827
▁곰	-10.6828
▁따뜻	-10.6829
▁미국으로	-10.6829
▁벌어졌다	-10.6834
▁196	-10.6834
▁열고	-10.6839
ke	-10.684
▁140	-10.6843
십	-10.6844
▁호소했다	-10.6844
▁기분	-10.6845
▁내려진	-10.685
▁테러에	-10.6851
▁조항	-10.6851
▁도달	-10.6852
▁기울	-10.6854
▁경사	-10.6855
▁su	-10.6858
▁여부에	-10.686
▁나선	-10.6862
▁ad	-10.6868
▁포함됐다	-10.6869
▁완	-10.6869
▁남자는	-10.6872
었으나	-10.688
ss	-10.6882
▁대전	-10.6886
사고	-10.6897
▁일이라고	-10.69
▁모르는	-10.6901
▁지원하고	-10.6905
▁올랐	-10.6905
▁바스라	-10.6907
▁am	-10.6907
▁감소했다	-10.6908
li	-10.6909
분께	-10.691
▁어렵	-10.691
▁전역에서	-10.6915
▁ro	-10.692
▁포함된	-10.6921
▁베를린	-10.6927
팅	-10.6928
▁향상	-10.693
▁양국은	-10.6932
▁했으나	-10.6933
▁go	-10.6933
▁타임	-10.6933
▁하나는	-10.6934
▁탑승객	-10.6937
▁계속된	-10.6939
▁특	-10.6943
▁복	-10.6949
▁완료	-10.6949
▁망	-10.695
복을	-10.6951
▁필요로	-10.6956
▁68	-10.6957
▁지불하	-10.696
▁tr	-10.6963
▁제공한	-10.6966
▁용의자로	-10.6967
▁약세	-10.697
▁묵	-10.697
▁억제	-10.6975
▁살해했다	-10.6976
man	-10.6977
▁있을지	-10.698
▁건강이	-10.6994
▁척	-10.6998
▁바르	-10.7001
ck	-10.7003
▁소탕	-10.7012
▁외곽	-10.7013
▁밴	-10.7013
▁쓰레기	-10.7014
▁승인했다	-10.7014
▁고이즈미	-10.7016
▁디자이너	-10.7016
▁베네딕	-10.7016
▁싶지	-10.7016
▁우울증	-10.7016
▁조승희	-10.7016
톨	-10.7016
▁쇠고기	-10.7016
▁옮기	-10.7016
▁포르노	-10.7016
▁시라크	-10.7016
▁교섭	-10.7016
▁more	-10.7017
▁경향	-10.7017
▁cdc	-10.7018
▁1989	-10.7019
▁다룬	-10.7019
▁정착	-10.7019
▁계산	-10.702
▁지역사회	-10.702
베르토	-10.7021
필	-10.7021
▁핵개발	-10.7022
▁상담	-10.7022
▁왕세자비	-10.7024
▁벗어	-10.7024
에르	-10.7025
▁공판	-10.7026
리그	-10.7028
▁소동	-10.7028
▁대대적	-10.7028
▁등장	-10.7028
▁점거	-10.7029
스탄	-10.7029
▁에릭	-10.703
▁물체	-10.7032
▁나토군	-10.7032
▁통보	-10.7033
동맹	-10.7034
▁성명은	-10.7035
안보	-10.7035
년과	-10.7037
▁몸에	-10.7037
▁뿐이다	-10.7039
▁해주	-10.7039
▁북부에	-10.704
▁한국은행	-10.704
▁신분	-10.7045
▁사체	-10.7045
기자	-10.7047
▁부족하다	-10.7047
강전에서	-10.7049
▁1,000	-10.7051
미국	-10.7052
▁ho	-10.7056
과정	-10.7056
▁못했	-10.7059
▁발표했습니다	-10.706
▁챔피언십	-10.706
▁도시인	-10.706
▁서서	-10.7063
▁당국자들	-10.7065
▁결승전에서	-10.7067
▁고려하고	-10.7069
▁71	-10.7071
▁옹호	-10.7071
▁유전	-10.7074
ary	-10.7075
▁중앙일보	-10.7076
▁떨어지	-10.7076
▁불어	-10.708
▁2008.0	-10.7081
식이	-10.7087
때까지	-10.7088
▁불이	-10.7092
▁여기에	-10.7093
공사	-10.7094
자르	-10.7096
▁대가	-10.7101
▁합의에	-10.7104
▁진지	-10.7107
▁운동가들	-10.7111
▁멀	-10.7112
▁명성	-10.7114
▁취했다	-10.7118
북한	-10.7118
데이	-10.7121
얼	-10.713
ive	-10.713
▁가족들과	-10.7134
▁살았	-10.7135
▁상영	-10.7138
▁지식	-10.7139
▁정보부	-10.7141
▁입었	-10.7144
▁160	-10.715
▁게리	-10.716
▁대법원장	-10.7168
▁흔	-10.7176
가격	-10.7179
▁되며	-10.7181
▁조사할	-10.7182
▁희망한다	-10.7186
▁봤	-10.7191
▁보도에	-10.7192
롤	-10.7196
▁맞이	-10.7203
수는	-10.7204
▁출	-10.7205
냈	-10.7207
▁걸리	-10.7207
▁내일	-10.7209
▁대통령직	-10.7211
럴	-10.7212
▁독일인	-10.7212
▁들어간	-10.7213
데스	-10.7214
디아	-10.7216
▁뉴햄프셔	-10.7216
▁경매에	-10.7218
▁건강에	-10.7218
▁농민들	-10.7229
▁입법	-10.7229
▁브라이언	-10.7229
탁	-10.7229
▁개막	-10.7236
▁덧붙	-10.7236
▁82	-10.7238
되자	-10.7238
랭	-10.7238
▁노트북	-10.7238
▁뉴올리언스	-10.7238
▁두려움	-10.7238
▁심장마비	-10.7238
▁아닙니다	-10.7238
▁압바스	-10.7238
▁최첨단	-10.7238
▁톰슨	-10.7238
▁대서양	-10.7238
▁스크린	-10.7238
▁온실가스	-10.7238
▁윈도우	-10.7238
▁글로벌	-10.7239
▁이자율	-10.7239
▁멈추	-10.7239
▁부사장	-10.7239
▁저항세력	-10.7239
▁회장이	-10.7239
▁연례	-10.724
▁가짜	-10.724
선거	-10.7241
▁관측	-10.7241
▁타밀	-10.7242
▁갈등	-10.7242
▁풍부	-10.7242
▁붙여	-10.7243
▁반대로	-10.7243
▁구름	-10.7244
▁오프라	-10.7246
▁비서실장	-10.7247
▁받아왔다	-10.7248
▁열심	-10.7248
▁미첼	-10.7249
▁선임	-10.725
▁발급	-10.725
▁기증	-10.725
끼	-10.725
▁by	-10.7251
▁고장	-10.7251
▁무슨	-10.7254
▁발발	-10.7254
▁헬	-10.7256
균	-10.7256
킬로미터	-10.7257
규모	-10.7258
▁확산되고	-10.7259
▁스파이	-10.726
▁신화	-10.7263
부가	-10.7264
▁참석하지	-10.7267
▁보건부	-10.7276
▁테러단체	-10.7276
▁참가자들	-10.7276
▁달간	-10.7276
투표	-10.7283
▁없었	-10.7287
세계	-10.7289
▁남측	-10.7297
이었습니다	-10.7299
▁time	-10.73
▁언론과	-10.7301
▁점수	-10.7304
▁기상청	-10.7304
스런	-10.7307
▁러드	-10.7308
▁파리에서	-10.7311
▁문구	-10.7313
▁가중	-10.7314
▁주최	-10.7324
▁행위에	-10.7327
▁맡	-10.7333
화된	-10.7333
▁풀어	-10.7337
▁의상	-10.7339
▁선수로	-10.7342
▁테리	-10.7342
▁has	-10.7352
▁유기	-10.7357
▁학교에서	-10.7358
▁탈레반측	-10.7362
▁다루	-10.7362
75	-10.7366
▁소비자들	-10.7369
▁보조	-10.7371
구를	-10.7373
▁나타내는	-10.7374
속도로	-10.738
▁당해	-10.7381
점이	-10.7385
▁공무원	-10.7386
▁제작사	-10.7387
▁바위	-10.7388
렉	-10.7395
▁벌여	-10.7401
▁남부에	-10.7401
▁원인이	-10.7403
혼	-10.7409
▁곳이	-10.7409
▁증상	-10.7412
▁무시	-10.7412
▁명백	-10.7414
▁동성애	-10.7417
ot	-10.742
▁남자들	-10.7421
▁돌려	-10.7422
원을	-10.7437
▁지도자는	-10.744
▁정리	-10.7445
▁초래	-10.7448
▁장관과	-10.7449
▁있은	-10.7451
▁반복	-10.7454
▁공격했다	-10.7454
▁총장	-10.7458
▁입지	-10.746
▁출입	-10.7462
▁에베레스트	-10.7463
▁요원들	-10.7464
▁준비하고	-10.7464
▁troop	-10.7466
▁도요타	-10.7466
▁로드리게스	-10.7466
▁믿을	-10.7466
▁브래드	-10.7466
▁이브라힘	-10.7466
▁찾지	-10.7466
▁펼친	-10.7466
▁플루토늄	-10.7466
▁허드슨	-10.7466
▁야생동물	-10.7466
▁빼앗	-10.7466
▁아마디네자드	-10.7466
▁인터폴	-10.7466
▁빅토리아	-10.7466
▁터널	-10.7466
▁의약품	-10.7466
▁품목	-10.7466
▁roh	-10.7467
▁우간다	-10.7467
▁남학생	-10.7467
▁금융위기	-10.7467
▁무덤	-10.7468
▁평화유지군	-10.7468
▁조절	-10.7468
▁고유가	-10.7469
▁들어갈	-10.7469
▁일어나는	-10.7469
▁예약	-10.747
▁압	-10.747
▁아니지만	-10.7471
▁단행	-10.7471
▁채취	-10.7472
▁완성	-10.7472
▁이루어진	-10.7473
▁5000	-10.7474
▁경로	-10.7474
▁부분이	-10.7475
▁유통	-10.7476
▁구류	-10.7477
▁회수	-10.7477
▁휴대	-10.7478
▁배제	-10.7478
▁포터	-10.7478
폰	-10.748
▁양쪽	-10.748
줬다	-10.748
칭	-10.7484
폐	-10.7484
▁상관	-10.7484
▁군사력	-10.7486
▁졸업	-10.7488
값	-10.749
▁햄	-10.7492
▁house	-10.7492
▁해체	-10.7493
▁빠졌다	-10.7497
▁경쟁력	-10.7497
▁양보	-10.7497
▁언급하며	-10.7499
▁임대	-10.75
▁au	-10.7501
▁담당자	-10.7502
▁주에	-10.7502
▁싸	-10.7504
▁남성들	-10.7506
▁묻는	-10.7507
▁도살	-10.7508
▁해적들	-10.7512
▁반전	-10.7516
▁베리	-10.752
▁너무나	-10.752
▁사면	-10.7522
mm	-10.7523
▁서안	-10.7527
▁목사는	-10.753
▁인정하지	-10.753
ter	-10.7541
▁아프	-10.7542
▁미래에	-10.7545
▁모자	-10.7546
▁턱	-10.755
▁all	-10.7551
▁코치	-10.7553
▁법정에서	-10.7562
▁보인	-10.7564
금을	-10.7564
▁맞고	-10.757
ty	-10.757
▁은행에	-10.7571
▁부지	-10.7572
호가	-10.7573
▁사용자들	-10.7575
▁향한	-10.7575
▁아는	-10.7577
▁악화되	-10.7581
▁알려	-10.7586
▁넘기	-10.7594
라드	-10.7598
▁위원장이	-10.7599
▁업체들	-10.7601
▁변호	-10.7605
▁승	-10.7606
▁등에	-10.7609
min	-10.7612
▁선거법	-10.7612
▁위험성	-10.7612
▁경험을	-10.7613
▁어려	-10.7614
85	-10.7615
▁궤도	-10.7617
▁멤버	-10.7618
▁사실에	-10.7619
▁시인했다	-10.7621
▁논	-10.7622
▁폴리	-10.763
▁담당자는	-10.763
▁파월	-10.7635
명인	-10.7636
▁정치인들	-10.7638
▁반지	-10.7642
도로	-10.765
▁내렸	-10.765
▁지역인	-10.7651
▁좌절	-10.7653
▁정기적	-10.7661
▁이루어	-10.7671
▁상업	-10.7677
▁시작했다고	-10.7681
▁통계	-10.7687
▁인권단체	-10.7689
5,000	-10.7698
▁washington	-10.7698
▁york	-10.7698
▁나눴다	-10.7698
▁낮아	-10.7698
▁느낌	-10.7698
▁망원경	-10.7698
▁성추행	-10.7698
▁스타벅스	-10.7698
▁시나리오	-10.7698
▁아라비아	-10.7698
▁자르다리	-10.7698
▁최우선	-10.7698
▁토크쇼	-10.7698
▁확률	-10.7698
찌	-10.7698
▁무승부	-10.7698
bush	-10.7698
first	-10.7698
▁삭감	-10.7698
▁수류탄	-10.7698
▁해수면	-10.7698
▁맥캔	-10.7698
▁에드워드	-10.7698
▁남아프리카	-10.7699
▁남자아이	-10.7699
▁활발	-10.7699
▁머레이	-10.7699
▁긴밀	-10.7699
▁교외	-10.77
▁물고기	-10.77
기술	-10.7701
▁사라졌다	-10.7701
▁외환	-10.7701
▁체류	-10.7701
▁실현	-10.7702
▁정밀	-10.7702
▁송금	-10.7702
▁vi	-10.7703
연패	-10.7703
▁하원의장	-10.7704
▁밀려	-10.7705
안전	-10.7706
ish	-10.7706
▁포스트	-10.7708
▁고위급	-10.7709
▁해저	-10.7712
▁목록	-10.7714
라인	-10.7714
▁추구하	-10.7717
▁적합한	-10.7717
▁위하여	-10.7718
스케	-10.7718
▁하자	-10.7719
▁경비대	-10.7724
▁주연	-10.7725
▁당부했다	-10.7726
▁이득	-10.7726
맥	-10.7727
▁군이	-10.7727
▁차질	-10.7728
▁일대	-10.7729
홀	-10.7729
▁저질렀다	-10.7729
po	-10.7729
덕	-10.7729
▁맡았다	-10.773
벤	-10.773
▁퀸	-10.7735
▁총통	-10.7735
▁수면	-10.774
▁프	-10.7742
▁화가	-10.7743
수술	-10.7743
14	-10.7744
▁상금	-10.7745
윈	-10.7745
▁기적	-10.7746
▁뉴욕시	-10.7747
단은	-10.7755
버렸다	-10.7757
▁상세	-10.7758
▁우세	-10.7758
▁느끼고	-10.7758
▁인터넷에	-10.7759
▁게릴라	-10.7762
▁싱	-10.7762
▁절도	-10.7763
▁개인적으로	-10.7763
▁학생이	-10.7766
co	-10.7768
▁파키스탄군	-10.7771
상으로	-10.7771
▁장군	-10.7772
널리	-10.7774
▁압수	-10.7777
▁수여	-10.7777
▁중심지	-10.7779
▁움직임은	-10.7779
▁크다	-10.7795
▁표준	-10.7802
▁부검	-10.7802
스테	-10.7804
▁관객들	-10.7804
▁하에	-10.7805
결과	-10.7811
졌습니다	-10.7812
▁직접적	-10.7812
▁이름으로	-10.7817
▁행동에	-10.7821
▁센	-10.7824
▁르	-10.7824
▁one	-10.7826
▁남아있는	-10.7828
tri	-10.783
관련	-10.7831
▁착수했다	-10.7833
군은	-10.7838
▁탈레반이	-10.7842
▁방문해	-10.7843
▁연행	-10.7844
▁성공한	-10.7846
▁지위	-10.7849
▁증	-10.7851
ap	-10.7853
▁브로	-10.7856
▁모른다고	-10.7863
▁분야에서	-10.7863
▁힘들다	-10.7866
▁매력	-10.7868
▁정기	-10.787
▁암시	-10.787
▁의견이	-10.787
▁수행할	-10.787
키로	-10.7873
▁방콕	-10.7873
▁출생	-10.7873
▁몰려	-10.7874
▁출연했다	-10.7876
▁신도들	-10.7876
부를	-10.7882
▁말이	-10.7891
▁패스	-10.7893
즈는	-10.7895
▁77	-10.7899
▁맡았	-10.7905
▁연구에서	-10.7915
▁대로	-10.7926
▁영국과	-10.7928
▁미리	-10.7934
▁가리	-10.7935
훈	-10.7935
▁높게	-10.7936
▁뉴델리	-10.7936
▁똑같	-10.7936
▁메드베데프	-10.7936
▁서브프라임	-10.7936
▁아웅산수치	-10.7936
▁유죄판결	-10.7936
박근혜	-10.7936
▁세속주의	-10.7936
▁출구조사	-10.7936
▁국립공원	-10.7937
▁international	-10.7937
▁포셋	-10.7937
▁수색작업	-10.7938
▁aig	-10.7938
▁say	-10.7938
▁증강	-10.7938
▁1987	-10.7938
▁염려	-10.7938
▁숨졌으며	-10.7939
▁카를로스	-10.7939
▁진전이	-10.7939
▁중앙은행	-10.7939
▁연구결과	-10.7939
▁추격	-10.7939
▁단독	-10.794
▁목격했다	-10.794
▁연출	-10.7942
▁환율	-10.7942
▁복원	-10.7942
▁제시한	-10.7947
▁부처	-10.7949
▁부품	-10.795
▁활성화	-10.7954
▁인터	-10.7957
▁its	-10.7958
▁재활용	-10.7958
▁뛰	-10.7959
▁미성년자	-10.7965
▁여러번	-10.7966
않	-10.7967
▁도디	-10.7968
▁안내	-10.7971
▁달한다	-10.7973
▁사용된	-10.7974
▁가난한	-10.7975
▁루니	-10.7976
▁시사	-10.7979
▁주류	-10.7979
감독	-10.798
ant	-10.7981
2000	-10.7982
▁간에	-10.7983
▁건물에	-10.7983
▁대리인	-10.7984
▁업적	-10.7992
▁하거나	-10.7992
▁남성의	-10.7994
▁웨인	-10.7994
▁남아있다	-10.7995
▁잃어버	-10.7998
▁안으로	-10.8004
ice	-10.8005
▁종교적	-10.8005
▁뿐이라	-10.8006
▁상당수	-10.8008
▁파키스탄에서	-10.8008
▁공정한	-10.8008
▁열었다	-10.8015
▁제공했다	-10.8017
▁결심	-10.8019
▁ai	-10.802
교육	-10.8021
▁의원들이	-10.8022
▁도구	-10.8025
▁카리	-10.8028
성에	-10.8029
63	-10.8031
▁방송에	-10.8032
sa	-10.8033
▁도착할	-10.8036
▁나치	-10.8039
▁일하고	-10.8041
▁2008.12	-10.8045
▁출두	-10.8048
▁이슈	-10.805
▁국가에	-10.8054
▁딘	-10.806
▁궁	-10.8068
▁관객	-10.8071
▁선고했다	-10.8072
▁출신으로	-10.8073
▁주권	-10.8075
▁인민	-10.8078
▁사진이	-10.8078
ft	-10.8081
됐는지	-10.8082
▁상황이다	-10.8084
▁은행들	-10.8086
▁됐	-10.8087
▁강진이	-10.8095
▁신장	-10.8097
▁홍	-10.8101
▁보냈	-10.8102
▁씨가	-10.8104
▁토대	-10.8104
▁응답	-10.8105
년전	-10.8106
▁시작으로	-10.811
▁사무	-10.8111
▁판결이	-10.8113
▁방법에	-10.8126
▁불리	-10.8127
▁당황	-10.8132
▁기각	-10.8132
▁작업이	-10.8135
▁자라	-10.8144
▁지구에	-10.8144
bi	-10.8145
▁받아들여	-10.815
▁제작자	-10.816
▁재정적	-10.8163
84	-10.8169
▁활동에	-10.8174
▁v	-10.8177
▁기분이	-10.8178
▁국가비상사태	-10.8179
▁ibm	-10.818
▁급습	-10.818
▁먹고	-10.818
▁선거관리위원회	-10.818
▁앞섰다	-10.818
▁하이브리드	-10.818
▁주유소	-10.818
▁섹시	-10.818
▁자전거	-10.818
▁윈프리	-10.818
▁최루탄	-10.818
▁부양책	-10.818
▁않았습니다	-10.8181
됨에따라	-10.8181
▁교착	-10.8181
▁바꿀	-10.8181
▁앨런	-10.8181
▁권총	-10.8181
▁흘러	-10.8182
▁bda	-10.8182
▁돌아갈	-10.8182
▁mdc	-10.8183
▁설계	-10.8183
▁독감	-10.8183
▁윌슨	-10.8183
▁이뤄질	-10.8183
▁추모	-10.8183
▁드레스	-10.8184
▁서식하	-10.8185
▁데리고	-10.8185
▁소년이	-10.8186
▁재배치	-10.8187
▁통행	-10.8187
▁줄이기	-10.8189
▁던진	-10.819
▁심판	-10.8191
▁개체수	-10.8192
▁보증	-10.8192
측이	-10.8195
닉	-10.8195
▁서브	-10.8197
▁피난	-10.8199
▁출장	-10.8199
▁전형적	-10.82
▁도난	-10.8205
▁체포되었다	-10.8206
뉴	-10.8207
▁war	-10.8208
▁공격한	-10.8211
킹	-10.8218
▁해석	-10.8218
롱	-10.8218
팔	-10.822
▁아미	-10.8222
르게	-10.8223
앤	-10.8225
▁셰	-10.8229
▁의심되	-10.8229
▁사과했다	-10.823
▁고안	-10.8231
이라크	-10.8233
▁공개하지	-10.8234
▁얻게	-10.8235
생산	-10.8236
▁명백한	-10.824
▁sp	-10.824
구가	-10.8241
▁발견되지	-10.8242
▁산하	-10.8245
▁전격	-10.8246
었을	-10.8247
▁양자	-10.826
▁국회에서	-10.826
▁리버	-10.8261
▁테러리스트들	-10.8262
▁권고했다	-10.8265
▁떠난	-10.8267
▁피하기	-10.8273
나무	-10.8275
▁휴일	-10.8277
▁담고	-10.8278
▁사라지	-10.8283
▁메리	-10.8286
▁김치	-10.829
▁cd	-10.8294
▁외상	-10.8294
▁분석했다	-10.8295
▁인공	-10.8295
명에서	-10.8299
▁무샤라프는	-10.83
▁거리에서	-10.8304
▁수감된	-10.8305
▁win	-10.8306
▁판매량	-10.831
▁이라크내	-10.8311
▁공주	-10.8312
ting	-10.8316
▁종이	-10.8319
13	-10.8323
겠습니다	-10.8324
▁출신인	-10.8326
잡	-10.8335
▁2.5	-10.8338
▁이뤄	-10.8344
씨가	-10.8344
te	-10.8345
국장	-10.8347
▁차지하는	-10.8354
▁일어났	-10.8355
▁사고는	-10.8356
▁중이며	-10.8356
▁죽이	-10.8362
▁모두에게	-10.8363
▁조언	-10.8367
▁쏟아	-10.8371
▁의제	-10.8376
자리	-10.8377
▁싸우	-10.8379
▁거부한	-10.8381
▁사안	-10.8381
▁준다	-10.8382
ent	-10.8383
제품	-10.8387
▁서쪽	-10.8392
장과	-10.8393
월에는	-10.8394
▁후임	-10.8408
일에는	-10.841
▁모아	-10.8418
▁네바다	-10.8419
▁특파원	-10.8421
춘	-10.8425
룰	-10.8426
둥	-10.8428
콤	-10.8429
▁데이비스	-10.843
▁국제우주정거장	-10.843
▁맨해튼	-10.843
▁무렵	-10.843
▁바티칸	-10.843
▁스탈린	-10.843
▁유람선	-10.843
▁호나우두	-10.843
닛	-10.843
▁깨끗	-10.843
▁언덕	-10.843
▁fifa	-10.843
▁행렬	-10.843
▁요즘	-10.8431
▁시티그룹	-10.8431
▁아스날	-10.8431
▁왜곡	-10.8431
클리	-10.8431
▁유괴	-10.8431
▁국민투표	-10.8431
▁초에	-10.8432
▁자발적	-10.8432
▁국무총리	-10.8432
▁좌석	-10.8432
▁동참	-10.8432
▁절약	-10.8432
▁자동차업계	-10.8433
▁만능	-10.8433
▁퇴진	-10.8433
▁창설	-10.8434
▁카르	-10.8434
▁존스턴	-10.8434
▁역임	-10.8435
▁가끔	-10.8435
▁불안정	-10.8436
▁보조금	-10.8436
▁모집	-10.8437
▁위생	-10.8437
▁연방정부	-10.8438
▁연임	-10.8439
국은	-10.8439
▁금리를	-10.844
농	-10.844
▁합의문	-10.8444
▁피랍된	-10.8445
▁도청	-10.8446
▁수컷	-10.8448
▁부속	-10.8448
▁혼자	-10.8448
▁시골	-10.8448
▁판다	-10.8452
▁석방됐다	-10.8452
▁동영상에서	-10.8453
파운드	-10.8458
황	-10.8461
▁군과	-10.8462
해달라	-10.8463
았습니다	-10.8467
▁이적	-10.8469
연승	-10.8469
▁상병	-10.8472
▁조선	-10.8474
▁말에	-10.8475
▁출전하지	-10.8475
▁꽃	-10.8475
land	-10.8476
▁아프간에	-10.8477
▁화장	-10.848
8000	-10.848
김	-10.8482
▁느끼	-10.8485
▁발매	-10.8486
▁유럽과	-10.8486
▁지나가	-10.8486
▁지원금	-10.8487
▁테러범들	-10.849
군의	-10.8491
▁매수	-10.8492
▁경주	-10.8493
▁젊은이들	-10.8493
▁유물	-10.8495
47	-10.8495
▁그랜드	-10.8495
▁고조되	-10.8496
▁돌아와	-10.8498
▁공개한	-10.8512
분야	-10.8513
▁취하고	-10.8517
▁불가능하다	-10.8517
▁개성	-10.8518
▁칼리	-10.8521
▁눈물	-10.8532
카르	-10.8533
▁학생들에게	-10.8535
쟁	-10.8538
▁이스라엘에	-10.8539
해지고	-10.8539
▁변화에	-10.854
▁열리	-10.8543
▁전용	-10.8548
▁전해지	-10.855
▁본드	-10.8553
용으로	-10.8558
▁병력이	-10.856
▁포트	-10.8563
▁펼쳐	-10.8574
▁세운	-10.8576
▁유해	-10.8577
ff	-10.859
▁현상이	-10.8594
▁재고	-10.8596
▁지고	-10.8596
▁광부	-10.8609
▁1.5	-10.862
유로	-10.8627
▁맞은	-10.863
▁이후에	-10.8633
병원	-10.8635
▁민주당이	-10.8647
스카	-10.8647
노조	-10.865
▁간부	-10.8652
▁빌리	-10.8655
▁피랍	-10.8661
ah	-10.8671
하러	-10.8677
▁용납	-10.8679
사진	-10.8681
촌	-10.8681
렐	-10.8683
덤	-10.8684
촉	-10.8686
▁재판에서	-10.8686
▁물러	-10.8686
▁음주운전	-10.8687
▁military	-10.8687
▁people	-10.8687
▁가즈프롬	-10.8687
▁꺾고	-10.8687
▁디트로이트	-10.8687
▁마이스페이스	-10.8687
▁믿는다	-10.8687
▁억만장자	-10.8687
▁인명피해	-10.8687
▁저렴	-10.8687
▁창기라이	-10.8687
▁켄터키	-10.8687
▁피츠버그	-10.8687
▁apec	-10.8687
▁라호르	-10.8687
▁러닝메이트	-10.8687
▁하버드	-10.8687
▁후지모리	-10.8687
▁1986	-10.8687
▁내무장관	-10.8687
▁코카인	-10.8687
▁press	-10.8687
▁가져올	-10.8687
▁돌아올	-10.8687
▁워렌	-10.8688
▁아빠	-10.8688
two	-10.8688
▁국방위원장	-10.8689
▁산맥	-10.8689
▁구조작업	-10.8689
▁굿	-10.869
▁안드레	-10.869
▁회계	-10.869
바라데이	-10.869
▁치매	-10.869
▁않습니다	-10.869
▁미셸	-10.8692
▁참가한	-10.8693
▁매입	-10.8693
▁로켓포	-10.8693
▁파커	-10.8695
▁부결	-10.8695
▁참배	-10.8696
▁시민권	-10.8697
▁개헌안	-10.8699
▁못했지만	-10.8704
▁호주에서	-10.8708
▁약탈	-10.871
있었다	-10.871
분경	-10.8714
▁해방	-10.8717
▁던졌다	-10.8717
▁업무를	-10.8718
▁걸렸다	-10.872
▁그들에게	-10.8723
▁영화에서	-10.8723
이라면	-10.8723
▁클린턴과	-10.8724
▁돌아왔다	-10.8726
▁강간	-10.8728
▁투표율	-10.8729
▁일단	-10.8735
▁진행될	-10.8736
▁자치	-10.8737
논	-10.8738
▁실패한	-10.874
▁하비	-10.8743
2006.1	-10.8743
▁처음에	-10.8743
▁이들에게	-10.8743
풀	-10.8744
▁방송에서	-10.8744
▁덜	-10.8749
중국	-10.8752
▁납치한	-10.8753
조약	-10.8757
▁꾸	-10.8759
▁have	-10.8759
커스	-10.876
시위	-10.8762
▁지방에서	-10.8766
▁불과하다	-10.8767
타임	-10.8769
▁제치	-10.8773
달러로	-10.8774
▁해안에	-10.8779
▁호텔에	-10.8779
업자들	-10.8782
지원	-10.8784
▁내고	-10.8786
▁재무	-10.8789
▁관련하여	-10.8794
▁다르	-10.8794
▁비극	-10.8794
▁81	-10.8795
▁달러가	-10.8802
▁회견에서	-10.8805
구역	-10.8807
▁상자	-10.8809
▁단장	-10.8818
▁평화상	-10.882
▁수사에	-10.8823
▁수락	-10.8831
▁파크	-10.8832
▁골드	-10.8833
▁봉	-10.8835
▁찾아내	-10.8836
▁교도소에서	-10.8836
tv	-10.8843
▁계속할	-10.8843
99	-10.8844
담당	-10.8845
지에서	-10.8852
▁가르	-10.8856
대와	-10.8859
된다면	-10.8859
▁쪽	-10.8862
▁이슬라마바드	-10.8862
am	-10.8863
학과	-10.8868
▁상사	-10.888
▁회사에	-10.8882
▁흔들	-10.8883
▁고조	-10.8883
해서는	-10.8886
▁장교	-10.8888
▁전사	-10.889
줬	-10.889
▁롤	-10.8891
주가	-10.8891
44	-10.8892
▁충	-10.8894
▁페리	-10.8899
▁회원국들	-10.8903
▁크기의	-10.8903
▁웨이	-10.8906
▁진행중	-10.891
▁반대하고	-10.8911
▁85	-10.8914
▁연대	-10.8915
률이	-10.8916
▁전체가	-10.8919
소한	-10.892
▁청소	-10.8922
▁가즈니	-10.8924
▁아기들	-10.8929
더스	-10.893
쳤으며	-10.8932
▁벌어지	-10.8934
▁뉴저지	-10.8938
▁틀	-10.8939
핑	-10.894
▁위치해	-10.8942
▁잇따	-10.8945
▁연말	-10.8946
냥	-10.8946
▁금메달	-10.8949
▁high	-10.895
▁갤런	-10.895
▁럼스펠드	-10.895
▁박격포	-10.895
▁엘리베이터	-10.895
▁찾았다	-10.895
▁최고경영자	-10.895
껏	-10.895
넌	-10.895
▁라모스	-10.895
▁secretary	-10.895
▁북극곰	-10.895
▁알제리	-10.895
▁돌아다니	-10.895
▁남아프리카공화국	-10.895
▁떠오르	-10.895
▁안토니오	-10.895
▁포획	-10.8951
▁기획	-10.8951
▁결합	-10.8952
▁즐기는	-10.8953
▁설정	-10.8953
▁클라크	-10.8953
▁가혹	-10.8953
▁처형	-10.8953
▁예선	-10.8954
▁lg	-10.8954
▁진료	-10.8954
▁대테러	-10.8954
▁것이기	-10.8954
▁마찰	-10.8955
▁밀러	-10.8957
▁던져	-10.8958
▁배심원단	-10.8962
▁베어	-10.8964
▁사이버	-10.8964
▁재배	-10.8965
▁배포	-10.8965
▁환수	-10.8965
▁반등	-10.8966
▁모리	-10.8967
▁석	-10.8967
▁넣었다	-10.8967
▁미셀	-10.8968
▁외국인들	-10.8971
▁사회당	-10.8973
▁거친	-10.8974
야드	-10.8975
▁댄	-10.8976
▁실무	-10.8978
▁원하지	-10.8979
▁러	-10.8981
▁맞았다	-10.8981
▁leader	-10.8984
▁소유주	-10.8984
▁전하고	-10.8985
▁석방된	-10.8985
▁포경선	-10.8986
▁fi	-10.8986
▁생각해	-10.8987
▁사라진	-10.8988
▁월스트리트	-10.8991
▁po	-10.8992
▁북부에서	-10.8994
▁파편	-10.8996
궁	-10.8999
▁자랑	-10.8999
▁먼지	-10.9
▁걸려	-10.9003
멜	-10.9006
콘	-10.9011
▁대비해	-10.9011
▁그곳에서	-10.9014
▁군중들	-10.9014
무라	-10.9015
▁성분	-10.9017
▁수사관들은	-10.902
▁아시아에서	-10.902
▁중점	-10.9021
베르	-10.9024
신문	-10.9026
▁측이	-10.9026
▁전시회	-10.9026
▁열기	-10.9039
▁독재자	-10.9042
▁확인하기	-10.9047
▁써	-10.905
tu	-10.9051
▁기원	-10.9058
▁정부군과	-10.9061
되었는데	-10.9063
시에서	-10.9068
▁내지	-10.9068
▁입어	-10.9071
▁방문은	-10.9078
▁남쪽	-10.9078
▁le	-10.9081
bc	-10.9083
▁내리는	-10.9083
▁폭로	-10.9083
시장에서	-10.9084
▁클린턴에	-10.9093
▁약속한	-10.9097
▁전쟁이	-10.9104
▁대선에	-10.9113
▁유지할	-10.9115
보드	-10.9117
▁느끼는	-10.9117
▁축출	-10.9117
▁표시했다	-10.9121
▁해왔다	-10.9129
▁없다며	-10.9137
렸으며	-10.914
me	-10.9146
▁보유한	-10.915
▁만났	-10.9152
ea	-10.9154
▁서한	-10.9159
▁활동이	-10.9162
룬	-10.9164
▁제공하기	-10.9166
▁위장	-10.9166
▁장소에서	-10.9169
▁여행객들	-10.9172
▁로드	-10.9173
▁미라	-10.9175
받은	-10.9175
▁항의하	-10.918
▁수요일에	-10.9181
년형	-10.9188
65	-10.9191
▁칭	-10.9192
▁소비자들이	-10.9195
▁에티오피아	-10.9197
▁갈라	-10.9198
▁소유한	-10.92
▁이라크인	-10.9201
▁프랑스에서	-10.9201
▁오바마에	-10.9204
▁치를	-10.9207
▁장악	-10.9211
▁변호인	-10.9212
▁병사들이	-10.9212
▁벗	-10.9213
원인	-10.9214
▁오스카	-10.9215
▁휩쓸	-10.9217
▁인정받	-10.9218
▁언급한	-10.922
▁human	-10.922
▁느껴	-10.922
▁브루니	-10.922
▁시애틀	-10.922
▁애완동물	-10.922
▁엉덩이	-10.922
▁해수욕장	-10.922
▁그린피스	-10.922
▁크레이그	-10.922
▁바하마	-10.922
▁넬슨	-10.922
▁덴버	-10.922
▁대한민국	-10.922
▁고등법원	-10.922
▁켈리	-10.922
▁브레이크	-10.922
▁스콧	-10.922
▁무소속	-10.9221
▁동굴	-10.9221
▁슈퍼볼	-10.9221
▁밝혀냈다	-10.9221
▁오늘밤	-10.9221
▁낭비	-10.9222
▁장벽	-10.9222
▁불황	-10.9222
▁좌파	-10.9223
▁절감	-10.9223
▁위축	-10.9224
▁돌아온	-10.9224
▁민간인들	-10.9224
▁외쳤다	-10.9224
▁생명체	-10.9225
▁승점	-10.9225
▁다행히	-10.9225
▁금속	-10.9226
▁치른	-10.9226
▁케이시	-10.9226
▁교내	-10.9227
▁보수당	-10.9227
▁추천	-10.9228
▁창조	-10.9228
▁반환	-10.9229
▁유골	-10.9229
▁매출	-10.923
▁네바다주	-10.9232
▁펄	-10.9234
▁느낀다	-10.9235
▁기념식	-10.9237
▁피고인	-10.9237
▁아니며	-10.9237
▁밀어	-10.9238
▁영국은	-10.9239
▁헐	-10.924
▁휴식	-10.9242
▁아민	-10.9243
▁화제	-10.9244
▁한달	-10.9245
▁단식	-10.9246
▁남미	-10.9247
▁대원들	-10.9247
▁무산	-10.9248
▁제보	-10.925
▁소화	-10.9253
▁차지한	-10.9257
▁받아들이지	-10.9258
▁총회	-10.9259
▁방문에	-10.9261
▁출연해	-10.9261
▁남쪽으로	-10.9263
▁못하다	-10.9265
▁나체	-10.9265
▁과제	-10.9266
▁버지니아주	-10.9268
▁인도분	-10.9271
▁구단	-10.9271
▁usa	-10.9273
▁이어졌다	-10.9275
▁투명	-10.9275
▁장성	-10.9277
버트	-10.9278
▁지지자들에게	-10.9279
▁원치	-10.928
하에	-10.928
▁예측했다	-10.9281
▁공안	-10.9282
▁특사는	-10.9284
▁캔	-10.9286
학생	-10.9289
▁트레	-10.929
▁난민들	-10.9292
연구	-10.9293
▁좋아한다	-10.9296
시티	-10.9297
타운	-10.9298
▁밝히기	-10.9299
▁분야에	-10.9301
구조	-10.9302
▁근처에	-10.9303
▁전파	-10.9308
▁성명서	-10.9312
편의	-10.9313
마르	-10.9316
▁국경지역	-10.9317
▁함	-10.9317
▁염	-10.9318
▁통해서	-10.9319
▁거래됐다	-10.9321
▁복장	-10.9324
▁위협에	-10.9325
▁강타한	-10.9328
ick	-10.9333
▁일어나지	-10.9334
▁탄도	-10.9336
▁알라	-10.9338
▁74	-10.9341
▁78	-10.9342
티스	-10.9358
▁폭력사태로	-10.9358
▁포기하	-10.9364
▁ga	-10.9364
우드	-10.9373
▁총리직	-10.9373
▁입수한	-10.9373
텐	-10.9375
스에서	-10.9377
▁170	-10.9381
▁안나	-10.9382
어질	-10.9384
▁법적으로	-10.9385
▁명단에	-10.9387
▁정부에서	-10.9387
▁원주민	-10.9387
▁재해	-10.9388
▁행동이	-10.9391
▁대안	-10.9392
▁친환경	-10.9396
▁편집	-10.9396
able	-10.9404
▁탈북자	-10.9406
▁sk	-10.9407
▁부위	-10.941
사이트	-10.9412
▁배심원	-10.9413
▁최고위	-10.9416
▁경비원	-10.9417
▁조국	-10.9417
▁피어	-10.9418
카드	-10.9419
▁대통령으로	-10.942
장비	-10.9421
세포	-10.9422
27	-10.943
▁쳐	-10.9433
연대	-10.9435
▁당일	-10.9436
▁리오	-10.9439
▁거주하	-10.944
▁즐기	-10.9444
▁목요일에	-10.9447
▁선택했다	-10.9465
▁군중	-10.9465
▁움직임이	-10.9471
기때문에	-10.9471
▁전쟁에서	-10.9474
▁2006.1	-10.9478
▁세부	-10.9479
bar	-10.948
▁티벳	-10.9484
▁계속하고	-10.9484
▁노대통령은	-10.9485
▁취소했다	-10.9485
fa	-10.9487
▁참여했다	-10.9487
▁사살했다	-10.9487
디는	-10.949
▁바지	-10.9491
▁연구가	-10.9493
▁국가인	-10.9495
▁있었기	-10.9497
▁england	-10.9498
▁기준금리	-10.9498
▁끝났다	-10.9498
▁듣지	-10.9498
▁버냉키	-10.9498
▁슬픔	-10.9498
▁원자바오	-10.9498
▁텔레비전	-10.9498
▁트라볼타	-10.9498
▁헬리콥터	-10.9498
▁호날두	-10.9498
▁규칙	-10.9498
▁유수프	-10.9498
▁침묵	-10.9498
▁스튜디오	-10.9498
▁카지노	-10.9498
▁election	-10.9498
▁바바라	-10.9498
▁멸종위기	-10.9498
▁휴스턴	-10.9498
▁놀랄	-10.9498
▁신원이	-10.9499
▁숨겨	-10.9499
▁처방	-10.9499
▁모험	-10.9499
▁논문	-10.95
▁시청자들	-10.95
▁감바	-10.95
▁대선주자	-10.95
▁레이저	-10.95
▁남녀	-10.95
▁요르단강	-10.95
축구연맹	-10.95
▁도핑	-10.9501
▁개발한	-10.9501
▁반체제	-10.9501
▁구호품	-10.9501
▁소총	-10.9502
▁텐트	-10.9502
▁금융시장	-10.9503
▁탐사선	-10.9505
▁대기업	-10.9505
였	-10.9506
▁입력	-10.9509
▁폴슨	-10.951
▁밝히며	-10.9511
▁가택	-10.9511
▁개설	-10.9512
▁농민	-10.9512
▁지나치	-10.9518
▁라울	-10.9519
▁역대	-10.9521
▁첫날	-10.9523
▁된다면	-10.9529
▁선적	-10.9534
▁복지	-10.9537
▁이민자들	-10.9539
▁탈레반과	-10.9539
▁구타	-10.9541
▁news	-10.9545
▁쓰는	-10.9545
▁약품	-10.955
▁시카고에서	-10.955
▁여기서	-10.9551
▁구호단체	-10.9551
▁유명하다	-10.9559
▁가족들에게	-10.9561
▁bo	-10.9561
▁상원에서	-10.9562
까지도	-10.9562
▁요청한	-10.9564
받고	-10.9564
▁틸	-10.9567
▁김씨	-10.9567
였고	-10.9568
▁조치로	-10.957
▁결함	-10.9578
캐	-10.9578
서비스	-10.9579
착륙	-10.9579
▁시작될	-10.958
3000	-10.958
▁취하지	-10.958
▁바닥에	-10.9582
▁일시적	-10.9582
▁워터	-10.9588
▁과정에	-10.9593
▁처분	-10.9598
▁투기	-10.9605
▁결승전	-10.9607
▁회원들	-10.9607
▁중반	-10.9607
인치	-10.9608
▁비평	-10.9611
37	-10.9614
▁일어나고	-10.9616
▁전합니다	-10.9621
▁샤리프는	-10.9623
95	-10.9624
▁결정이	-10.9627
▁선박이	-10.9627
end	-10.9629
▁집회에	-10.9632
▁돌입	-10.9641
▁상위	-10.9647
▁조직원	-10.9647
400	-10.9648
▁헤이	-10.9648
▁재선	-10.9651
▁자녀들	-10.9653
mo	-10.9657
▁탐험	-10.9662
▁소속의	-10.9671
45	-10.9671
▁다수의	-10.9671
▁이른다	-10.9673
▁들어와	-10.9676
기금	-10.968
▁부상자들	-10.9684
ard	-10.9689
▁러시아와	-10.9689
▁우승자	-10.9691
▁장기적	-10.9693
▁자카르타	-10.9694
▁형태로	-10.9695
▁종식	-10.97
▁개최된	-10.9701
▁의자	-10.9705
▁중단됐다	-10.9706
▁남성과	-10.9712
라며	-10.9713
▁급락	-10.9721
▁목적이	-10.9728
▁추락한	-10.9733
▁물어	-10.9734
▁프라	-10.9736
▁보좌관들	-10.9739
▁경찰청	-10.9739
▁thi	-10.9746
치료	-10.9754
▁ge	-10.9765
▁넘겨	-10.9767
tion	-10.9768
같이	-10.9771
▁구제금융	-10.9771
▁선원들	-10.9771
▁날이	-10.9772
▁추구	-10.9776
꾼	-10.9776
▁지역이	-10.9776
▁음료	-10.9777
하였으며	-10.978
▁알바니아	-10.9782
▁발생했	-10.9783
▁머리카락	-10.9783
▁산타클로스	-10.9783
▁애니메이션	-10.9783
▁애틀랜타	-10.9783
▁칸다하르	-10.9783
▁크로아티아	-10.9783
▁court	-10.9783
▁식민지	-10.9783
▁맥케인	-10.9784
▁브루스	-10.9784
▁week	-10.9784
▁히드로	-10.9784
▁마사지	-10.9784
▁신용카드	-10.9784
▁밝혔으나	-10.9784
▁적응	-10.9784
▁몸값	-10.9785
▁집필	-10.9786
바르	-10.9786
▁군사작전	-10.9786
▁가죽	-10.9788
▁새겨	-10.9788
▁출국	-10.9789
▁대폭	-10.9789
▁프로그램이	-10.979
▁마침	-10.9791
▁장거리	-10.9791
▁추문	-10.9792
▁편안	-10.9793
▁베스트	-10.9793
▁대령	-10.9793
▁때문입니다	-10.9793
▁소유권	-10.9794
▁모래	-10.9795
▁복수	-10.9795
▁나와즈	-10.9796
▁신병	-10.9796
▁다이애나비	-10.98
▁코피	-10.98
▁불교	-10.9801
▁주소	-10.9802
▁칼라	-10.9802
▁주주들	-10.9804
▁받아들였다	-10.9805
▁알렌	-10.9808
▁부리	-10.9808
▁예선전	-10.9808
당했다	-10.981
▁자정	-10.981
▁여아	-10.9811
▁태우고	-10.9812
▁관점에서	-10.9813
▁예정되어	-10.9822
▁민주적	-10.9824
▁장기간	-10.9824
▁녹화	-10.9827
▁차원에서	-10.9827
▁시계	-10.9828
▁모았다	-10.9831
▁대우	-10.9833
▁특별히	-10.9836
▁이어지	-10.9836
▁조씨	-10.9838
▁주말에	-10.9838
▁참사	-10.9841
▁증언했다	-10.9846
▁제외하고	-10.9854
▁레이더	-10.9856
▁발달	-10.9856
▁같	-10.9861
▁예술가	-10.9864
▁데비	-10.9865
▁그곳에	-10.9865
얀	-10.9866
▁인도주의적	-10.9866
ld	-10.9867
▁선출된	-10.987
▁가능하	-10.9872
▁정상들	-10.9873
시즌	-10.9875
▁180	-10.9875
▁가고	-10.9878
▁클로	-10.9878
▁권위	-10.988
▁강화할	-10.9881
▁일으키는	-10.9884
▁공무원들	-10.9885
▁부르는	-10.9889
▁남아있	-10.9889
▁개발에	-10.9889
▁대회에	-10.9894
▁돈이	-10.9894
점에	-10.9899
레즈	-10.9899
슬리	-10.9901
▁판결에	-10.9901
▁재판이	-10.9908
▁할지	-10.991
▁괴한	-10.9911
▁확신했다	-10.9911
▁내리고	-10.9911
▁후보들	-10.9912
▁2005.1	-10.9917
▁달러로	-10.9917
▁제트	-10.9918
베스	-10.9921
▁정치적으로	-10.9927
인들에게	-10.9937
▁특이	-10.9937
▁어린이들이	-10.994
▁중계	-10.9941
▁중심부	-10.9948
▁강화하고	-10.9949
▁멜	-10.9951
▁확인하고	-10.9953
돼있다	-10.9954
▁부인하고	-10.9954
226	-10.9955
사이	-10.9963
▁내용에	-10.9963
▁효율적	-10.9964
▁갖기	-10.9965
▁평양에서	-10.9969
정인	-10.9971
▁투자자	-10.9974
▁내게	-10.9983
선에	-10.9984
▁액	-10.9989
▁기울이	-10.9991
▁피살	-10.9994
▁발표는	-11.0003
디스	-11.0003
주전	-11.0003
베리	-11.0011
어져	-11.0011
▁줄이는	-11.0013
겼	-11.0013
▁에는	-11.0014
▁적극	-11.0014
▁흉	-11.0015
▁한다면	-11.0016
▁con	-11.0017
▁이송됐다	-11.0026
▁사람과	-11.0033
▁대답했다	-11.0041
▁필립	-11.0041
▁금연	-11.0043
현정	-11.0044
▁줬다	-11.0045
▁사회에	-11.0051
▁적자	-11.0051
▁재활	-11.0052
▁강행	-11.0066
▁이슬람교	-11.0068
18	-11.0069
▁제작된	-11.0069
▁세탁	-11.0072
왈	-11.0073
시경	-11.0074
중이다	-11.0075
▁없애	-11.0075
▁securit	-11.0078
▁끊임없	-11.0078
▁땅에	-11.0078
▁떨어질	-11.0078
▁마케팅	-11.0078
▁뮌헨	-11.0078
▁베어스턴스	-11.0078
▁베탕쿠르	-11.0078
▁부적절	-11.0078
▁브리트니	-11.0078
▁비즈니스	-11.0078
▁썼다	-11.0078
▁아칸소	-11.0078
▁에르도간	-11.0078
▁오케스트라	-11.0078
▁타협	-11.0078
▁테러지원국	-11.0078
▁펭귄	-11.0078
▁풀려났다	-11.0078
▁캔자스	-11.0078
▁되돌아	-11.0078
▁1988	-11.0078
▁맥도날드	-11.0078
▁소탕작전	-11.0078
▁bank	-11.0079
▁나아가	-11.0079
▁고릴라	-11.0079
▁개념	-11.0079
▁조짐	-11.008
▁호송	-11.008
▁영광	-11.008
▁버튼	-11.0081
39	-11.0083
▁prim	-11.0083
▁남기	-11.0083
▁영감	-11.0083
▁타결	-11.0084
최지	-11.0086
▁평소	-11.0087
▁서약	-11.0087
▁들어온	-11.0088
▁식수	-11.0092
곳에서	-11.0093
▁te	-11.0093
▁재판에	-11.0095
▁파문	-11.0095
▁가져다	-11.0096
▁때마다	-11.0098
▁의장이	-11.0099
▁연방준비제도이사회	-11.01
▁여유	-11.0104
▁앞선	-11.0104
▁잡았다	-11.0104
▁공조	-11.0105
▁입구	-11.0105
▁포위	-11.0105
▁겪었다	-11.0109
▁여야	-11.0111
▁버전	-11.0112
▁저지르	-11.0112
▁하산	-11.0113
▁적십자사	-11.0114
9000	-11.0114
▁미치지	-11.0115
▁유용	-11.0116
▁계기	-11.0116
ure	-11.0116
▁느꼈다	-11.0117
▁여단	-11.012
▁가자지구에서	-11.0122
▁슛	-11.0125
량의	-11.0125
▁살이	-11.0125
▁or	-11.0137
▁면접	-11.0137
▁명령했다	-11.0139
리어	-11.0139
▁청년	-11.0144
▁명시	-11.0145
▁입원했다	-11.0146
▁gu	-11.0149
▁붕괴된	-11.0155
레나	-11.0158
▁말하면서	-11.0159
▁보호하고	-11.0162
▁세이	-11.0163
▁경제학자들	-11.0169
▁국회에	-11.017
솔	-11.017
협정	-11.0173
떼	-11.0173
▁통신사	-11.0175
▁엘리	-11.0183
원으로	-11.0184
ber	-11.0189
▁건수	-11.019
▁중심에	-11.019
▁선장	-11.019
▁싶어한다	-11.0191
이션	-11.0191
▁도주	-11.0192
ls	-11.0193
▁행사에서	-11.0193
▁프레	-11.0194
▁실업	-11.0194
▁he	-11.0198
▁안전에	-11.0204
▁여사와	-11.0205
▁0.5	-11.0211
▁죽었다	-11.0212
▁자금이	-11.0213
▁물었다	-11.0217
어진	-11.0217
월드	-11.0218
▁파파라치	-11.0221
▁당국과	-11.0223
▁성지	-11.0225
봐야	-11.0225
▁손자	-11.0225
▁분쟁이	-11.0226
▁주차	-11.0226
▁금년	-11.023
▁유지하기	-11.0231
▁파키스탄에	-11.0233
바리	-11.0233
▁오리	-11.0233
▁심사	-11.0234
▁교전이	-11.0238
되었지만	-11.0239
▁라인	-11.0239
▁했고	-11.0241
원들이	-11.0243
▁제공하고	-11.0251
만으로	-11.0252
▁자행	-11.0253
▁지도자들과	-11.0256
▁83	-11.0258
▁생산하는	-11.026
▁man	-11.0267
나갈	-11.0268
▁방문객들	-11.0271
▁시위자	-11.0275
게임	-11.0277
▁독재	-11.0278
리를	-11.0282
▁관광지	-11.0284
▁요청할	-11.0284
▁열렸	-11.0285
▁보였다고	-11.0285
▁상의	-11.0286
▁보도한	-11.029
▁가족에게	-11.0293
▁고무	-11.0296
▁바닥	-11.0302
▁지원하기	-11.0304
▁확인된	-11.0307
았다고	-11.031
전쟁	-11.031
첼	-11.0312
▁신도	-11.0315
▁높아	-11.0315
▁파손됐다	-11.0318
ance	-11.032
▁주당	-11.0323
부의	-11.0324
달간	-11.0326
▁전체에	-11.0332
보고	-11.0332
▁벌어졌	-11.0332
▁동맹국들	-11.0333
세트에서	-11.0336
▁교육부	-11.0338
▁덕	-11.0339
▁인접	-11.034
▁줄리	-11.0341
▁킨	-11.0347
▁인도네시아에서	-11.0347
▁ban	-11.0358
▁요구에	-11.036
널	-11.0367
ze	-11.0368
▁종합	-11.0369
▁데뷔	-11.0369
▁프랑스와	-11.0371
▁오클라호마	-11.0372
렘	-11.0373
섭	-11.0378
▁득표	-11.038
딜	-11.038
겔	-11.038
눌	-11.0381
렁	-11.0381
▁골든글로브	-11.0381
▁구호물품	-11.0381
▁동유럽	-11.0381
▁야스쿠니	-11.0381
▁에스토니아	-11.0381
▁유니세프	-11.0381
▁일으켜	-11.0381
▁좋게	-11.0381
▁티셔츠	-11.0381
▁항생제	-11.0381
▁뉴욕타임스	-11.0381
▁유조선	-11.0381
▁다운로드	-11.0381
▁트로피	-11.0381
▁오렌지	-11.0381
▁니케이	-11.0381
▁유적지	-11.0381
▁첩보	-11.0381
▁덕분에	-11.0381
▁혈액	-11.0381
▁착취	-11.0381
▁크로커	-11.0381
▁바꿔	-11.0381
▁출범	-11.0382
▁양키스	-11.0382
▁kim	-11.0382
▁요새	-11.0382
▁운반	-11.0382
▁명칭	-11.0382
▁저택	-11.0383
▁city	-11.0383
▁대략	-11.0383
▁wto	-11.0383
▁폭등	-11.0383
▁하얀	-11.0383
▁패리스	-11.0384
▁기술자	-11.0384
▁입학	-11.0384
▁어두운	-11.0385
▁현지경찰	-11.0385
▁2011	-11.0385
▁근교	-11.0386
▁복권	-11.0386
▁풍선	-11.0386
▁참모	-11.0387
천명	-11.0388
▁아이돌	-11.0388
▁입었으며	-11.0389
▁볼튼	-11.039
▁거둔	-11.039
▁모르겠다	-11.0391
▁상반기	-11.0391
▁지낸	-11.0392
▁추산했다	-11.0392
▁설문	-11.0393
▁제약	-11.0394
▁소란	-11.0394
▁분실	-11.0396
▁쏘	-11.0399
▁뒤집	-11.0401
▁조속	-11.0401
▁친척	-11.0402
▁타이어	-11.0402
▁시일	-11.0402
▁영원	-11.0402
▁닷	-11.0403
▁제프리	-11.0403
▁주장했지만	-11.0405
▁부유	-11.0405
▁예상보다	-11.0413
▁시판	-11.0413
▁기술이	-11.0415
▁묘지	-11.0416
▁기권	-11.0416
▁사용하기	-11.0418
▁채권	-11.0419
▁실어	-11.0419
▁미술	-11.042
77	-11.042
▁전염	-11.042
후보	-11.0423
▁제방	-11.0426
▁밝혔었	-11.0427
▁중령	-11.0428
▁제일	-11.0431
워드	-11.0431
▁줄여	-11.0432
ction	-11.0434
있거나	-11.0435
▁산소	-11.0436
▁투표할	-11.0437
▁양성	-11.0439
▁클라	-11.0439
▁폭격기	-11.044
▁그레	-11.0441
▁2,000	-11.0442
▁you	-11.0443
tra	-11.0449
▁비만	-11.0452
▁과시	-11.0462
▁하더라도	-11.0465
▁기자들이	-11.0465
▁my	-11.0466
▁국회의원들	-11.0468
light	-11.047
▁기록하며	-11.0471
시까지	-11.0472
▁사임했다	-11.0472
▁디스	-11.0474
생활	-11.0478
좌	-11.0479
해준	-11.0483
▁스텔	-11.0484
멘	-11.0484
▁보내기	-11.0487
사령관	-11.0487
▁실려	-11.0488
▁프레드	-11.0488
▁사랑하는	-11.0489
▁기리	-11.049
▁증인	-11.0491
▁결승	-11.0496
▁세기	-11.0506
▁올리고	-11.0507
46	-11.0509
▁지구에서	-11.0513
▁장착	-11.0514
▁du	-11.0515
▁끄	-11.052
머리	-11.0526
▁서울에	-11.0531
▁구간	-11.0534
▁흥미	-11.0535
▁가기	-11.0536
구의	-11.0536
▁보낸다	-11.0537
▁몽	-11.054
였지만	-11.0541
▁정보국	-11.0541
va	-11.0543
▁환경에	-11.0543
▁촉구하	-11.0551
지구	-11.0553
▁지속되	-11.0553
▁취급	-11.0554
▁열정	-11.0554
▁작성한	-11.0555
▁이해할	-11.0559
▁아시	-11.0561
▁들어가는	-11.0562
22	-11.0563
부분	-11.0567
▁조사는	-11.0569
▁전설	-11.0575
▁차가	-11.0577
▁번지	-11.0577
권이	-11.0587
29	-11.0589
▁결의안에	-11.0589
16	-11.0594
▁부문에서	-11.0597
▁나타난	-11.06
느냐	-11.0607
▁과장	-11.0608
▁생존자들	-11.0612
율이	-11.0613
▁자신에	-11.0614
▁파이	-11.0618
까요	-11.0625
▁빼	-11.0625
▁이래로	-11.0628
▁추락했다	-11.0628
▁pi	-11.0632
▁지방의	-11.0637
대에서	-11.0638
to	-11.0644
lee	-11.0645
67	-11.0647
만년	-11.0649
▁끝나는	-11.0649
념	-11.0651
▁사용한다	-11.0654
▁사육	-11.0659
▁mi	-11.066
럼	-11.0663
▁클레	-11.0666
이었고	-11.0668
▁생성	-11.0671
▁나가는	-11.0673
▁미시간	-11.0677
받아	-11.0678
▁아바	-11.0679
ba	-11.0685
▁피닉스	-11.0687
▁일고	-11.0691
밍	-11.0693
▁200806.0	-11.0693
▁afp	-11.0693
▁london	-11.0693
▁nfl	-11.0693
▁wfp	-11.0693
▁걷는	-11.0693
▁국회의사당	-11.0693
▁기습	-11.0693
▁로스앤젤레스	-11.0693
▁베이루트	-11.0693
▁불렀다	-11.0693
▁상관없이	-11.0693
▁스튜어트	-11.0693
▁이르기까지	-11.0693
▁클루니	-11.0693
▁포괄적	-11.0693
▁흰색	-11.0693
▁마라도나	-11.0693
▁되풀이	-11.0693
▁흐름	-11.0693
▁셰이크	-11.0693
▁린제이	-11.0693
▁교과서	-11.0693
▁모로코	-11.0693
▁정해지지	-11.0693
▁모바일	-11.0693
▁잔혹	-11.0693
▁lpga	-11.0693
▁감시단	-11.0693
자이자	-11.0693
▁취득	-11.0693
▁진흙	-11.0693
▁여자아이	-11.0693
▁페이스북	-11.0694
▁칭찬	-11.0694
▁침범	-11.0694
▁세인트	-11.0694
▁닉슨	-11.0694
▁표결	-11.0694
▁호킹	-11.0695
▁가속화	-11.0695
▁같습니다	-11.0695
▁연극	-11.0695
▁워너	-11.0696
▁스카이	-11.0696
▁평화협상	-11.0696
▁모터	-11.0696
▁점프하	-11.0698
▁추출	-11.07
former	-11.0701
▁유행	-11.0702
▁회부	-11.0703
▁현행	-11.0703
▁받았지만	-11.0703
▁뚫	-11.0704
▁식물	-11.0705
▁전대통령	-11.0705
▁렌	-11.0705
▁없었던	-11.0706
▁줄이고	-11.0706
▁극단주의자들	-11.0707
▁보호하는	-11.0708
▁가자지구에	-11.0711
▁휘	-11.0715
▁격리	-11.0717
▁호화	-11.0717
▁동전	-11.0717
▁우리베	-11.0718
▁가축	-11.0718
▁알려주	-11.0719
▁참여하는	-11.072
▁인체	-11.0721
▁참석해	-11.0722
▁inter	-11.0722
▁시위로	-11.0722
▁인계	-11.0722
▁정오	-11.0723
▁머리에	-11.0723
▁기후변화	-11.0724
▁단기	-11.0724
▁논의했다	-11.0724
▁설치된	-11.0726
▁참여하지	-11.0726
▁비유	-11.0729
▁시달리고	-11.073
통신은	-11.0731
▁여객기는	-11.0732
▁지문	-11.0733
▁확실하지	-11.0736
▁이룩	-11.0736
▁아이티	-11.074
▁말로	-11.0745
▁일반적인	-11.0745
be	-11.0746
▁자크	-11.0747
시켜야	-11.0749
▁반미	-11.0749
▁연방수사국	-11.075
▁실력	-11.075
▁성공회	-11.0752
▁전략적	-11.0752
▁지르	-11.0756
▁life	-11.0757
투어	-11.0759
▁소방관	-11.076
져야	-11.0761
▁지수가	-11.0762
▁인기가	-11.0765
▁의원들에게	-11.0765
▁그라운드	-11.0767
▁바다로	-11.0768
▁침	-11.077
▁거주지	-11.0774
요원	-11.078
▁중상	-11.0782
▁사제	-11.0785
▁이어질	-11.079
▁불화	-11.079
▁해외에서	-11.0791
이기도	-11.0796
▁드립니다	-11.0797
▁변호사들	-11.0798
▁수용할	-11.0798
▁비난한	-11.0799
▁불평	-11.08
펜	-11.08
▁노력에	-11.0803
번에	-11.0803
▁광부들	-11.0811
▁우주인	-11.0811
돈	-11.0811
▁단계에	-11.0814
▁뉴욕에	-11.0815
▁전범	-11.0815
개혁	-11.0818
▁비가	-11.0822
▁미소	-11.0823
업체들	-11.0823
▁닐	-11.0824
보고서	-11.0824
버릴	-11.0825
호프	-11.0826
▁학위	-11.0833
▁정신과	-11.0833
di	-11.0841
원들은	-11.0843
국민	-11.0847
▁납	-11.085
▁마을에	-11.085
▁승자	-11.0851
▁선정됐다	-11.0852
▁얻는	-11.0858
차관	-11.0868
통이	-11.087
▁부자	-11.0873
▁아내와	-11.0891
▁지지도	-11.0892
▁노스	-11.0895
▁떼	-11.0906
체제	-11.0911
▁장려	-11.0916
▁혼란에	-11.0919
▁학생들과	-11.092
만명에	-11.0921
21	-11.0921
▁어머니와	-11.0923
▁개최되	-11.0925
ns	-11.0928
레이크	-11.093
▁국무장관이	-11.0936
▁선거전	-11.0941
▁주가가	-11.0944
▁86	-11.0945
▁루이	-11.0946
▁힐튼이	-11.0947
▁선언한	-11.0948
▁국민이	-11.0951
▁위협했다	-11.0955
▁등급	-11.0956
▁서명했다	-11.0956
▁지니	-11.0957
▁중단하고	-11.0959
▁부토는	-11.0964
▁미만	-11.0966
준다	-11.0966
▁패한	-11.0967
▁남편과	-11.0973
ight	-11.0973
▁모스	-11.0975
▁후보들은	-11.0977
버린	-11.0983
▁당원	-11.0984
▁통일	-11.0985
▁고수	-11.0993
▁되었습니다	-11.0994
▁차례로	-11.0998
▁경영자	-11.0999
리오	-11.1001
▁부통령이	-11.1001
▁루이지애나	-11.1003
퀴	-11.1004
▁확고	-11.1005
롬	-11.1006
▁참석하기	-11.1009
▁참가했다	-11.1011
▁사업가	-11.1013
▁풀려	-11.1015
팩	-11.1015
셨	-11.1016
▁브리티시	-11.1016
▁광우병	-11.1016
▁뉴캐슬	-11.1016
▁당나귀	-11.1016
▁매머드	-11.1016
▁살아가	-11.1016
▁싶은	-11.1016
▁왕복선	-11.1016
▁이르렀다	-11.1016
▁집무실	-11.1016
▁카자흐스탄	-11.1016
잎	-11.1016
▁몸무게	-11.1016
▁제니퍼	-11.1016
마누엘	-11.1016
▁국가주석	-11.1016
▁글래스고	-11.1016
▁대주교	-11.1016
▁url	-11.1016
▁세비야	-11.1016
▁예언자	-11.1016
▁1981	-11.1016
▁지중해	-11.1016
▁영부인	-11.1016
▁중산층	-11.1016
▁효력	-11.1016
▁900	-11.1016
▁쇼핑몰	-11.1016
▁맞붙	-11.1016
▁둘째	-11.1016
▁벌어들	-11.1017
▁연휴	-11.1017
▁무너져	-11.1017
▁아마존	-11.1017
▁있었는지	-11.1017
▁농담	-11.1017
▁공군기지	-11.1017
▁높아졌다	-11.1017
▁레논	-11.1018
book	-11.1018
▁취약	-11.1018
▁허블	-11.1018
▁할아버지	-11.1018
▁선데이	-11.1019
▁몰래	-11.1019
▁본국	-11.1019
▁유혈	-11.1019
▁밤새	-11.1019
▁헌신	-11.1019
▁오픈에서	-11.1021
▁may	-11.1021
▁퇴치	-11.1022
▁종양	-11.1022
▁예배	-11.1023
▁공백	-11.1023
▁피닉스호	-11.1023
▁기름	-11.1025
▁감량	-11.1025
▁파일	-11.1027
▁무너진	-11.1027
▁계열사	-11.1027
▁이례적	-11.1028
▁제패	-11.1028
▁책정	-11.1028
▁코너	-11.1029
▁우연	-11.1029
▁병역	-11.103
▁난동	-11.103
▁면적	-11.103
▁정체	-11.1032
▁지속될	-11.1032
▁부른	-11.1033
▁버진	-11.1037
▁work	-11.1037
▁off	-11.1037
▁폐기물	-11.1038
▁사법부	-11.1038
▁드는	-11.1038
▁페르	-11.1039
▁강연	-11.1039
▁황우석	-11.104
▁재발	-11.1041
▁성경	-11.1041
▁거론	-11.1043
▁정상회의	-11.1046
여부	-11.1047
▁방치	-11.1048
▁공학	-11.1048
▁확인되	-11.1049
▁가결	-11.1049
▁감원	-11.105
▁천문학자들	-11.105
▁ak	-11.105
▁누드	-11.1053
▁전례	-11.1058
▁나란	-11.1059
▁air	-11.1064
▁제안한	-11.1065
▁채우	-11.1065
43	-11.1066
▁대조	-11.1067
▁기간에	-11.1067
▁비교해	-11.1068
▁지키기	-11.1069
▁전송	-11.1069
▁광대	-11.107
▁1200	-11.1072
험	-11.1074
ster	-11.1077
베키	-11.1077
▁라이프	-11.1078
▁내정자	-11.1084
24	-11.1085
▁가져	-11.1085
▁넣어	-11.1086
주기	-11.1089
▁경찰에따르면	-11.109
▁공부	-11.1092
▁낙	-11.1094
▁무장대원들	-11.1094
▁청소년들	-11.1097
▁수십억	-11.1098
▁연이	-11.1102
▁리서치	-11.1102
▁걸었다	-11.1103
▁시작되는	-11.1106
▁발리	-11.111
하자는	-11.111
ni	-11.1112
▁99	-11.1114
티아	-11.1115
직원	-11.1115
nt	-11.1117
▁조사하기	-11.1118
▁만료	-11.1119
▁우드	-11.1121
▁구상	-11.1124
▁2009.01	-11.1126
▁가서	-11.1127
회의에서	-11.1127
nd	-11.1128
▁한쪽	-11.1129
ros	-11.1134
▁하트	-11.1139
▁빙	-11.114
기위해	-11.114
레오	-11.1144
▁주교	-11.1145
▁돌리	-11.1147
▁취임한	-11.1149
▁공격수	-11.115
▁증진	-11.1157
▁헤어	-11.1158
▁모스크바에서	-11.1159
▁호위	-11.1159
▁시점에서	-11.1159
cc	-11.1163
▁공세	-11.1167
달라	-11.117
▁팔려	-11.1171
▁확보했다	-11.1172
학년	-11.1175
첨	-11.1178
▁출전한	-11.1179
▁총격으로	-11.1179
자들에	-11.1181
▁문자	-11.1182
17	-11.1186
사단	-11.1186
▁크고	-11.1188
▁경기도	-11.1189
▁가정에	-11.1197
▁ka	-11.1199
ian	-11.12
▁있었을	-11.1205
었	-11.1206
자료	-11.1208
전선	-11.1211
▁관계자들과	-11.1214
▁관리자	-11.1223
▁했을	-11.1225
▁시스템이	-11.1226
▁주인이	-11.1229
▁의혹에	-11.1236
▁모욕	-11.1238
▁금지하고	-11.1243
▁연기했다	-11.1244
▁fr	-11.1245
인데	-11.1246
▁강사	-11.125
▁모술	-11.1251
▁기소했다	-11.1257
▁새해	-11.1263
▁시작되었다	-11.1263
▁구하기	-11.1264
▁당의	-11.1265
군데	-11.1265
▁저가	-11.1266
▁런던에	-11.1275
▁측면	-11.1276
▁국회의	-11.1276
▁수비	-11.1288
▁지지율이	-11.1289
▁소식통들	-11.1291
▁비행기에	-11.1294
▁관리인	-11.1295
uk	-11.1296
▁불가피	-11.1299
ted	-11.13
▁모르	-11.1301
line	-11.1303
▁산책	-11.1304
문화	-11.1304
▁조사단	-11.1308
▁오바마를	-11.1314
▁오해	-11.1314
▁균	-11.1315
자회담에	-11.132
▁꺼	-11.132
ell	-11.1322
부문	-11.1323
▁펜실베니아	-11.1325
▁판결했다	-11.1328
▁위스콘신	-11.1328
▁총선에	-11.1328
▁짜	-11.1329
ip	-11.1329
son	-11.1336
▁장관들	-11.1337
▁엄	-11.134
▁들었	-11.134
▁플래	-11.1341
▁메릴랜드	-11.1341
뒀	-11.1346
▁해명	-11.1347
융	-11.1347
해왔	-11.1349
냉	-11.1349
덩	-11.1349
▁association	-11.1349
▁group	-11.1349
▁났다	-11.1349
▁도널드	-11.1349
▁벤자민	-11.1349
▁상파울루	-11.1349
▁세계보건기구	-11.1349
▁우주정거장	-11.1349
▁잃지	-11.1349
▁촛불	-11.1349
▁커뮤니티	-11.1349
▁그루지아	-11.1349
▁안락사	-11.1349
▁부작용	-11.1349
▁피아노	-11.1349
▁닥터	-11.1349
▁자서전	-11.1349
▁호르몬	-11.1349
▁김선일	-11.1349
▁불쾌	-11.1349
▁office	-11.135
▁침투	-11.135
▁여배우	-11.135
▁수하물	-11.135
▁열렬	-11.135
▁지뢰	-11.135
▁양육권	-11.135
▁조셉	-11.1351
▁두뇌	-11.1351
▁쿠르드족	-11.1351
▁풍경	-11.1352
▁인디아나	-11.1352
▁임박	-11.1352
▁연방법원	-11.1353
▁받았으나	-11.1353
▁해킹	-11.1354
▁토양	-11.1354
▁아끼	-11.1354
▁재벌	-11.1354
▁국가안보	-11.1355
▁침수	-11.1355
▁언제든	-11.1355
▁장악하	-11.1355
▁수비수	-11.1355
▁후퇴	-11.1357
▁정보기관	-11.1357
▁유예	-11.1357
▁퇴장	-11.1357
▁si	-11.1358
▁토론토	-11.1358
▁지닌	-11.1358
▁조종	-11.1358
▁차림	-11.1361
▁승객들이	-11.1361
▁control	-11.1361
▁약혼	-11.1362
학회	-11.1363
바로	-11.1364
▁비준	-11.1366
▁닭	-11.1367
▁인명	-11.1367
35	-11.1367
▁도시로	-11.1368
▁구단주	-11.1368
▁문신	-11.1368
▁활기	-11.137
▁교량	-11.137
▁기초	-11.137
▁에스	-11.1371
▁결장	-11.1372
▁수만명	-11.1372
▁필리스	-11.1372
▁구경	-11.1372
▁구형	-11.1373
▁시장과	-11.1374
▁감면	-11.1375
▁그럼	-11.1375
▁일축했다	-11.1376
▁요트	-11.1378
▁지하드	-11.138
ors	-11.138
데르	-11.1382
▁get	-11.1382
▁노동부	-11.1386
▁팜	-11.1388
▁자선	-11.1391
▁상원의원에	-11.1393
▁확실하다	-11.1394
나라	-11.1395
▁비방	-11.1396
▁에디	-11.1397
해져	-11.1401
▁누르고	-11.1401
점에서	-11.1402
79	-11.1404
▁유대	-11.1405
▁제공한다	-11.1407
▁고려해	-11.1408
rs	-11.1409
▁발부	-11.1412
▁자유로	-11.1414
호를	-11.1415
▁원자력	-11.1416
▁주장이	-11.1416
▁인도에서	-11.1416
▁시설에	-11.1418
▁협상단	-11.1419
▁경찰서에	-11.1419
▁만나기	-11.1419
▁def	-11.142
▁듀	-11.1421
▁포기했다	-11.1424
▁범죄에	-11.1431
▁벌어지고	-11.1433
▁숨기	-11.1438
▁사회주의	-11.144
▁79	-11.1441
▁아이들과	-11.1441
년에서	-11.1443
▁세관	-11.1444
▁후보들이	-11.1444
세스	-11.1444
ther	-11.1446
▁엠	-11.1453
▁끈	-11.1453
▁착용하	-11.1456
▁확인해	-11.1457
▁기반으로	-11.146
▁시작해	-11.1461
▁이베이	-11.1462
▁93	-11.1463
▁추진하고	-11.1466
일째	-11.1468
▁알았다	-11.1473
답	-11.1478
▁명에	-11.1478
▁open	-11.1479
웬	-11.1485
컨	-11.1486
▁들리	-11.1488
힘	-11.1489
페이지	-11.1489
▁관중	-11.1496
▁탈출했다	-11.1496
▁군부대	-11.1503
▁350	-11.1512
tic	-11.1514
▁유입	-11.1514
자들과	-11.1515
▁군복	-11.1516
▁카라	-11.152
▁이브	-11.1521
▁과학적	-11.1523
▁야후는	-11.1525
▁착	-11.1526
▁밝혀내	-11.1529
▁대사가	-11.1529
법안	-11.1531
▁물리치	-11.1535
층에	-11.1545
▁표현했다	-11.1545
▁언	-11.155
▁car	-11.1551
▁포함된다	-11.1554
▁사이트에	-11.1555
▁기다려	-11.1562
▁정해	-11.1565
▁그때	-11.1565
▁것들	-11.1579
▁극도	-11.1584
▁북부지역	-11.1586
도르	-11.1589
▁신문에	-11.159
▁독일에서	-11.1596
천억	-11.1598
▁떨어졌	-11.1598
▁제공해	-11.1602
ext	-11.1603
▁남부의	-11.1604
▁중에서	-11.1607
▁동물을	-11.1607
▁기한	-11.1608
직에서	-11.1616
▁컵	-11.1616
▁아이들에게	-11.1621
aw	-11.1623
전문가	-11.1624
▁후송	-11.1628
▁내장	-11.1631
▁둔화	-11.1635
▁92	-11.1636
▁감옥	-11.1639
▁시위대와	-11.1639
▁과도	-11.1644
▁실은	-11.1645
렌스	-11.1647
▁산악	-11.1648
아나	-11.165
▁보호할	-11.1654
ga	-11.1657
▁미국에서는	-11.1657
▁중국인	-11.166
▁국정원	-11.1663
▁지냈	-11.1668
▁벽에	-11.1673
▁프로그램은	-11.1674
▁결정적	-11.1675
세에서	-11.1678
▁아담	-11.1679
▁ta	-11.1683
▁매사추세츠	-11.1685
튜	-11.1692
즘	-11.1693
▁모니터	-11.1693
▁치솟	-11.1693
틱	-11.1693
7,000	-11.1694
▁police	-11.1694
▁냄새	-11.1694
▁마흐무드	-11.1694
▁매코맥	-11.1694
▁맥코맥	-11.1694
▁메사추세츠	-11.1694
▁미드필더	-11.1694
▁박테리아	-11.1694
▁뱅크	-11.1694
▁블룸버그	-11.1694
▁슈워제네거	-11.1694
▁스피처	-11.1694
▁악영향	-11.1694
▁알자와히리	-11.1694
▁암스트롱	-11.1694
▁오징어	-11.1694
▁오키나와	-11.1694
▁이스탄불	-11.1694
▁재정경제부	-11.1694
▁캠벨	-11.1694
▁케르비엘	-11.1694
▁탔다	-11.1694
▁프로듀서	-11.1694
▁그루지야	-11.1694
▁바쿠바	-11.1694
▁수하르토	-11.1694
▁친선경기	-11.1694
▁동계올림픽	-11.1694
▁흥행	-11.1694
▁research	-11.1694
▁아스널	-11.1694
▁도덕적	-11.1694
▁death	-11.1694
▁중서부	-11.1694
▁방사능	-11.1694
▁속옷	-11.1694
▁무하메드	-11.1694
▁종신형	-11.1694
▁계곡	-11.1695
▁타이완	-11.1695
▁움직임에	-11.1695
▁생겨	-11.1695
▁면밀	-11.1695
▁태양열	-11.1696
▁녹색	-11.1696
▁1953	-11.1696
▁대피령	-11.1696
▁환경보호	-11.1696
▁아닐	-11.1696
▁아프가니스탄에	-11.1697
▁요격	-11.1697
▁몸집	-11.1698
▁도망	-11.1699
▁같았다	-11.1699
▁항복	-11.1699
▁불안감	-11.1699
▁만찬	-11.1699
▁맹세	-11.17
▁적대적	-11.17
▁총알	-11.17
▁품질	-11.17
▁피셔	-11.1701
▁성행위	-11.1701
▁787	-11.1701
▁화석	-11.1701
▁쓰여	-11.1702
▁외교관계	-11.1702
▁존드로	-11.1702
▁교토	-11.1703
▁격려	-11.1703
▁일방적	-11.1703
▁원격	-11.1704
▁참전	-11.1705
▁지침	-11.1705
▁취소됐다	-11.1706
▁배제하지	-11.1706
스틴	-11.1706
▁윤리	-11.1706
▁곡물	-11.1707
ai	-11.1708
▁얼리	-11.171
이상	-11.171
▁용서	-11.171
▁정통	-11.1711
자회담에서	-11.1711
▁시범	-11.1712
▁아랍에미리트	-11.1712
지오	-11.1712
▁크리스티나	-11.1713
▁홈페이지에	-11.1713
버렸	-11.1713
▁여파로	-11.1715
방법	-11.1716
▁후보에게	-11.1717
▁인정한	-11.1717
▁사원에서	-11.1717
▁산악지역	-11.1717
몬드	-11.172
▁곤	-11.1721
▁제트기	-11.1723
no	-11.173
▁개조	-11.173
▁가르치	-11.1732
천억원	-11.1733
▁승무원들	-11.1734
▁대학살	-11.1734
▁혼다	-11.1734
▁리타	-11.1734
▁부장관	-11.1734
▁빵	-11.1735
▁크라우	-11.1736
▁필립스	-11.1737
▁아카데미상	-11.1739
▁구제안	-11.1743
▁확인하는	-11.1746
일에도	-11.1748
▁3,000	-11.1749
▁동영상에	-11.1749
▁감옥에	-11.1751
▁말했지만	-11.1754
공항	-11.1754
▁현명	-11.1755
▁운하	-11.1756
11	-11.1756
▁가난	-11.1757
▁남았다	-11.1758
▁정책이	-11.1758
단이	-11.1758
▁상아	-11.1758
▁생겼다	-11.1759
▁향했다	-11.176
▁일상적	-11.1761
▁단서	-11.1763
▁장악한	-11.1764
▁포기하지	-11.1764
▁문제점	-11.1765
▁빗	-11.1772
▁fire	-11.1773
만여	-11.1773
▁팬들에게	-11.1775
▁결의	-11.1779
▁강조하고	-11.178
▁캐리	-11.1781
적이며	-11.1781
▁급진	-11.1781
▁부진	-11.1782
▁선고받	-11.1787
▁통로	-11.1788
▁조치에	-11.179
메르	-11.1792
26	-11.1792
▁익	-11.1792
▁운동가	-11.1793
▁춤	-11.1793
▁집안	-11.1798
▁칼로	-11.1805
▁임원	-11.1809
램	-11.1811
아누	-11.1818
기와	-11.182
이면	-11.1823
우주	-11.1823
전문	-11.1829
89	-11.1836
짐	-11.1837
▁미친	-11.1839
▁반군과	-11.1839
비오	-11.1839
굴	-11.184
빛	-11.1843
▁진행됐다	-11.1846
ny	-11.1852
등급	-11.1853
▁퇴	-11.1855
조정	-11.1855
▁지표	-11.186
▁점이	-11.1863
▁미트	-11.187
ner	-11.1874
▁막고	-11.1876
▁차량은	-11.1877
▁신의	-11.1877
차이	-11.1883
▁환영했다	-11.1883
▁금지하는	-11.1891
▁was	-11.1892
▁실직	-11.1893
▁강진	-11.1898
팀이	-11.1899
▁sa	-11.1901
▁지도자로	-11.1902
▁공원에서	-11.1903
▁부상당	-11.1904
▁양측의	-11.1905
▁관료	-11.1907
▁가려	-11.1907
수단	-11.1919
▁장소로	-11.1919
net	-11.1926
▁로라	-11.1928
▁목격한	-11.1933
▁손님	-11.1935
라트	-11.1935
▁모의	-11.1939
▁였다	-11.1941
▁떨어지는	-11.1947
▁197	-11.1948
▁기숙사	-11.1949
▁건물에서	-11.1963
▁얼음이	-11.1966
▁파손되	-11.1969
▁일으켰	-11.1975
리언	-11.1979
▁부근에	-11.1982
▁주지사와	-11.1982
▁달아	-11.1985
▁경제와	-11.1985
▁ch	-11.1986
▁폰	-11.199
▁2008.11	-11.199
▁면에서	-11.199
▁백악관에	-11.199
▁걸려있	-11.1998
▁앙	-11.1998
pp	-11.2001
▁광장에	-11.2002
▁총리로	-11.2005
93	-11.2006
34	-11.2006
▁시에	-11.2006
왔지만	-11.2007
▁반대한다	-11.2008
▁오를	-11.2012
▁박탈	-11.2013
68	-11.2013
▁관광객들은	-11.2013
▁법정에	-11.2016
▁연령	-11.2019
▁배급	-11.2024
▁125	-11.2026
건물	-11.2026
▁국왕이	-11.2026
▁89	-11.2028
디어	-11.2029
▁동일	-11.203
▁오고	-11.2034
▁반대했다	-11.2034
▁스탠	-11.2038
픈	-11.2045
▁사무실에서	-11.2046
roll	-11.2047
▁bmw	-11.2051
▁economic	-11.2051
▁market	-11.2051
▁united	-11.2051
▁구스마오	-11.2051
▁놀랐다	-11.2051
▁뉴멕시코	-11.2051
▁돕고	-11.2051
▁만장일치	-11.2051
▁모하마드	-11.2051
▁사형집행	-11.2051
▁세실리아	-11.2051
▁승용차	-11.2051
▁실업수당	-11.2051
▁않았을	-11.2051
▁애틀란타	-11.2051
▁자메이카	-11.2051
▁캠퍼스	-11.2051
▁캥거루	-11.2051
▁크누트	-11.2051
▁클리블랜드	-11.2051
▁탈라바니	-11.2051
▁펼칠	-11.2051
▁피추시킨	-11.2051
▁김계관	-11.2051
▁깃발	-11.2051
▁비영리	-11.2051
▁냉동	-11.2051
▁북동쪽	-11.2051
▁빈민가	-11.2051
▁북서쪽	-11.2051
▁퍼트레이어스	-11.2051
▁사마라	-11.2051
▁벨몬트	-11.2051
▁월드시리즈	-11.2051
▁said	-11.2051
▁issue	-11.2051
▁미망인	-11.2051
▁러셀	-11.2051
▁down	-11.2052
▁노왁	-11.2052
▁유효	-11.2052
▁영국으로	-11.2052
▁구조조정	-11.2052
▁공략	-11.2052
▁염두	-11.2052
▁face	-11.2053
▁펠리	-11.2053
▁무엇인지	-11.2053
▁메뉴	-11.2053
▁평범	-11.2053
▁완공	-11.2053
▁격추	-11.2053
▁외교정책	-11.2054
▁간섭	-11.2054
▁건립	-11.2054
▁밀림	-11.2054
▁전염병	-11.2054
▁악재	-11.2055
▁페리노	-11.2055
▁감추	-11.2055
▁want	-11.2055
▁국영방송	-11.2055
▁주치의	-11.2056
▁왔습니다	-11.2056
▁eta	-11.2056
▁세균	-11.2056
▁탄약	-11.2056
▁방북	-11.2056
▁올랐으며	-11.2056
▁행방	-11.2056
▁chin	-11.2056
▁제이미	-11.2056
▁머피	-11.2056
▁제라드	-11.2058
▁교황청	-11.2058
▁안겨	-11.2058
▁지연되	-11.2059
▁야심	-11.2059
▁발목	-11.2059
▁보석금	-11.2059
▁타입	-11.206
▁피플	-11.206
▁종파	-11.206
▁국토	-11.206
▁메달	-11.206
▁번영	-11.2061
▁장관급	-11.2063
▁폭풍우	-11.2064
▁측에	-11.2066
▁서버	-11.2066
놨다	-11.2068
▁보상금	-11.2069
▁중단하라	-11.2069
리나	-11.2069
▁납치범들	-11.2071
▁포착	-11.2072
▁것이냐	-11.2072
▁대피소	-11.2073
▁유포	-11.2076
▁멈	-11.2077
▁임명된	-11.2077
▁터미널	-11.2078
▁전반적으로	-11.2079
▁안심	-11.2079
▁차고	-11.208
▁않자	-11.2084
▁최상	-11.2084
▁상원의원직	-11.2086
▁편집자	-11.2086
▁취하	-11.2086
▁지질	-11.2086
▁공개되지	-11.2087
▁자리잡고	-11.2088
세에	-11.2089
▁순찰대	-11.209
▁교회에서	-11.2092
▁속한	-11.2092
▁기내	-11.2094
▁콩	-11.2097
일정	-11.2099
▁힐러리는	-11.2102
▁1800	-11.2102
▁맹	-11.2103
▁제인	-11.2104
▁대도시	-11.2106
▁무시하고	-11.2106
▁준장은	-11.2107
▁안건	-11.2108
▁유아	-11.2112
ger	-11.2112
▁갖는다	-11.2115
▁제품에	-11.2121
▁하나이다	-11.2121
▁지속된	-11.2122
▁모르고	-11.2122
ee	-11.2126
▁대변	-11.2126
▁반도	-11.2127
▁그쳤다	-11.213
▁민주당과	-11.213
▁흐르	-11.2132
▁브라	-11.2133
▁무장괴한	-11.2134
▁드러	-11.2134
▁올리는	-11.2138
▁연관된	-11.2139
▁심화	-11.2142
▁아버지와	-11.2143
▁일할	-11.2144
오르	-11.2144
▁상승으로	-11.2145
하르	-11.2146
▁많지	-11.2147
▁만든다	-11.2149
▁임무는	-11.215
있으며	-11.215
▁미치	-11.2153
▁내로	-11.2153
▁카페인	-11.2157
▁딜러	-11.2158
시키지	-11.2159
▁들어있는	-11.216
▁매트	-11.216
▁칩	-11.2162
▁물리	-11.2163
▁보여주기	-11.2166
▁큐	-11.217
▁도시에	-11.2171
▁전하며	-11.2175
살인	-11.2177
▁고고학자들	-11.2181
▁98	-11.2189
해진다	-11.2191
▁전당	-11.2193
▁어려워	-11.2194
▁묘	-11.2196
▁환영한다	-11.2205
▁릭	-11.2207
▁마주	-11.2208
▁란	-11.221
휴	-11.221
셰	-11.2212
▁페이스	-11.2212
▁든다	-11.2217
환경	-11.2221
것을	-11.2223
▁치고	-11.2225
주택	-11.2229
사람	-11.2233
▁것이지만	-11.2233
어졌다	-11.2234
▁기자들과	-11.2235
▁전달한	-11.2237
▁방한	-11.2238
▁미하	-11.224
연구원	-11.2243
▁피해지역	-11.2245
회에서	-11.2246
▁핀	-11.2248
▁국가들과	-11.2257
▁국민에게	-11.2258
단체가	-11.2258
▁범죄자들	-11.2259
▁제조사	-11.2261
▁지역이다	-11.2264
▁북한에서	-11.2265
▁돌보	-11.2266
▁램	-11.2266
▁흔적	-11.2268
▁개최지	-11.2271
병력	-11.2272
▁기어	-11.2273
▁다음과	-11.2275
▁당장	-11.2279
▁목소리로	-11.2284
▁소유자	-11.2285
처리	-11.2285
69	-11.229
▁열려	-11.2298
▁위에서	-11.2303
▁그날	-11.2304
▁비극적	-11.2307
▁갑작스	-11.2308
이라도	-11.231
▁블로그	-11.2317
만달러를	-11.2321
어지고	-11.2321
▁예상되는	-11.2323
ite	-11.2324
▁선보	-11.2326
▁무엇이	-11.2328
▁오지	-11.2331
▁110	-11.2331
▁시간에	-11.2335
되게	-11.2335
전략	-11.2337
▁사진들	-11.234
엑	-11.2346
▁줄기	-11.2353
▁최대한	-11.2353
▁8000	-11.2353
▁감독상	-11.2355
▁거치	-11.2359
▁신고했다	-11.2359
▁부탁	-11.236
대는	-11.2364
▁진행할	-11.2368
혐의로	-11.2376
▁전설적	-11.2378
시기	-11.2383
▁시리아와	-11.2384
▁확인한	-11.2392
▁미화	-11.2393
만여명	-11.2407
▁당연	-11.2407
▁개헌	-11.2407
▁케이	-11.2408
▁cha	-11.2411
▁콜린	-11.2412
줘	-11.2413
▁코스피	-11.2414
▁델타	-11.2415
sh	-11.2417
▁비공식	-11.2418
▁화염	-11.242
삭	-11.2421
36	-11.2421
▁머무	-11.2421
▁내셔널	-11.2421
▁chief	-11.2421
▁consumer	-11.2421
▁general	-11.2421
▁peace	-11.2421
▁꿈이	-11.2421
▁넘어섰다	-11.2421
▁늘어났다	-11.2421
▁댈러스	-11.2421
▁무책임	-11.2421
▁브로드웨이	-11.2421
▁색깔	-11.2421
▁없기	-11.2421
▁에탄올	-11.2421
▁여동생	-11.2421
▁웨스트버지니아	-11.2421
▁초등학교	-11.2421
믹	-11.2421
▁따돌리	-11.2421
▁습관	-11.2421
▁흡수	-11.2421
▁change	-11.2421
▁최우수	-11.2421
▁검찰총장	-11.2421
▁200806.1	-11.2421
▁이벤트	-11.2421
▁financ	-11.2421
▁도메인	-11.2421
▁하리리	-11.2421
▁셔츠	-11.2422
▁다뤄	-11.2422
▁앙겔	-11.2422
▁월마트	-11.2422
▁어휘	-11.2422
▁낙찰	-11.2422
▁올바른	-11.2422
트로터	-11.2422
▁겁니다	-11.2422
▁투데이	-11.2422
▁빨간색	-11.2422
▁make	-11.2422
▁동성	-11.2423
▁유혹	-11.2423
▁홀랜드	-11.2423
▁후계자	-11.2423
▁call	-11.2423
▁압승	-11.2423
▁열쇠	-11.2423
▁홈런	-11.2423
▁평결	-11.2423
▁디스커버리호	-11.2424
▁에이미	-11.2424
▁뜨거	-11.2424
▁삼림	-11.2425
▁부회장	-11.2425
▁글렌	-11.2425
▁결백	-11.2425
▁모르지만	-11.2425
▁영입	-11.2425
▁초대형	-11.2425
▁사업에	-11.2425
▁제재조치	-11.2426
▁자치구	-11.2426
▁양상	-11.2427
▁벌금형	-11.2428
▁육상	-11.2429
▁데니스	-11.2429
▁분출	-11.243
▁국정	-11.2431
▁자매	-11.2432
▁독점	-11.2434
▁암호	-11.2434
▁악성	-11.2435
▁외출	-11.2435
▁담겨있다	-11.2436
▁도왔다	-11.2436
▁대담	-11.2436
▁공통	-11.2437
▁시술	-11.2437
▁부인과	-11.2437
▁소감	-11.2438
▁생각합니다	-11.2438
벨트	-11.2438
▁전미	-11.2439
▁오락	-11.244
▁실내	-11.2442
▁호흡기	-11.2442
▁일정이	-11.2442
▁위법	-11.2443
▁퇴직	-11.2443
▁악화될	-11.2444
▁영역	-11.2444
▁공방	-11.2444
▁걸프	-11.2445
▁스위	-11.2446
▁자유당	-11.2446
▁리더	-11.2446
▁올릴	-11.2446
▁위기로	-11.2447
▁노동력	-11.2448
ii	-11.2449
▁후보작	-11.2451
▁가이드	-11.2453
▁상정	-11.2455
▁때로는	-11.2459
way	-11.246
▁시도한	-11.2461
▁이용하여	-11.2461
▁놓았다	-11.2462
▁박수	-11.2463
▁조카	-11.2468
▁개발도상국	-11.2468
▁일원	-11.247
▁도쿄에서	-11.2471
▁초래할	-11.2471
▁장착된	-11.2472
▁불가피하다	-11.2478
▁수준의	-11.248
▁방문이	-11.248
시키는데	-11.2483
▁iss	-11.2483
▁과도한	-11.2484
▁정한	-11.2487
▁정비	-11.2489
하려면	-11.249
▁back	-11.249
▁판사들	-11.2491
▁방사	-11.2492
▁투표권	-11.2495
▁1.6	-11.2496
▁후임자	-11.2496
▁인적	-11.2497
▁제작자들	-11.2501
있던	-11.2502
일만에	-11.2503
▁지미	-11.2506
▁입장권	-11.2506
▁파견된	-11.2506
▁성전	-11.2513
▁입원한	-11.2513
▁수잔	-11.2515
▁재판은	-11.2519
▁암살된	-11.2526
▁pf	-11.2529
▁지목했다	-11.254
▁각료	-11.254
▁참가자	-11.2543
si	-11.2545
▁피신	-11.2545
▁이겨	-11.2548
▁복합	-11.2548
▁게이	-11.255
▁펼치고	-11.2551
▁철수시키	-11.2556
▁상태였다	-11.2568
▁용인	-11.2569
▁맡아	-11.257
into	-11.2573
▁내리기	-11.2574
▁관해서	-11.2575
▁허위	-11.2575
▁중유	-11.2579
퇴	-11.2579
▁계획한	-11.2583
▁유지하는	-11.2584
▁star	-11.259
납	-11.2593
▁톱	-11.2593
컴	-11.2594
▁단체에	-11.2595
▁국무	-11.2595
탑	-11.2598
묘	-11.2598
핀	-11.2598
▁보았다	-11.2599
q	-11.2602
▁일부에서는	-11.2604
▁주민이	-11.2604
▁크로	-11.2604
▁여진이	-11.2604
▁웹사이트에서	-11.2605
▁아니고	-11.2608
하우스	-11.2611
▁알리기	-11.2613
▁고백	-11.2613
▁이탈	-11.2615
▁정보가	-11.2615
문서	-11.2617
▁영국에	-11.2621
▁통신과	-11.2623
다소	-11.2624
법에따라	-11.2627
대책	-11.2628
▁안되	-11.2634
▁링	-11.2636
▁일로	-11.2645
▁임신한	-11.2645
수준	-11.2646
▁이라크전에	-11.2646
▁괜찮	-11.2647
▁악의	-11.265
공장	-11.2652
▁다음으로	-11.2655
ng	-11.2658
▁파고	-11.266
nc	-11.2665
▁시민단체	-11.2673
회장	-11.2674
▁검	-11.2674
▁고려할	-11.2678
▁받았고	-11.2682
▁파키스탄이	-11.2687
니에	-11.2688
▁영구	-11.2696
▁정당이	-11.2697
▁될지	-11.2698
과정에서	-11.27
▁침팬지	-11.2702
▁성사	-11.2704
▁경위	-11.2705
방식	-11.2706
▁거래가	-11.2707
▁라일	-11.2708
▁납치됐다	-11.2709
▁우주에서	-11.2711
▁주장해	-11.2714
▁내년에	-11.2715
프리	-11.2721
군과	-11.2727
▁지는	-11.2728
▁발견되	-11.273
▁끝내	-11.2731
▁녹아	-11.2736
▁봐	-11.2736
발전	-11.2737
▁공개할	-11.2739
▁마련했다	-11.2739
부시	-11.2748
07	-11.2751
룩	-11.2753
▁직면한	-11.2754
▁통상	-11.2756
▁상원의	-11.2756
대사관	-11.2756
▁여성에게	-11.2759
▁업	-11.276
텍	-11.2763
▁필수	-11.2763
트릭	-11.2765
▁펼쳤	-11.2769
▁관심사	-11.2773
▁무너	-11.2773
▁고속	-11.2774
시키며	-11.2775
▁무너지	-11.2777
곳에	-11.2783
▁per	-11.2785
ail	-11.2785
▁일상	-11.2788
▁정찰	-11.2788
23	-11.2796
ang	-11.2798
▁밀수	-11.2799
쁜	-11.2801
첩	-11.2803
쇠	-11.2804
4,000	-11.2806
▁baghdad	-11.2806
▁health	-11.2806
▁pakistan	-11.2806
▁ufo	-11.2806
▁과테말라	-11.2806
▁국가보안법	-11.2806
▁높였다	-11.2806
▁돌아갔다	-11.2806
▁리얼리티	-11.2806
▁마호메트	-11.2806
▁베테랑	-11.2806
▁보건복지부	-11.2806
▁싱가폴	-11.2806
▁엔터테인먼트	-11.2806
▁저작권	-11.2806
▁정동영	-11.2806
▁조선중앙통신	-11.2806
▁조코비치	-11.2806
▁집행유예	-11.2806
▁추수감사절	-11.2806
▁토마토	-11.2806
▁퍼레이드	-11.2806
겹	-11.2806
▁끌려	-11.2806
▁닌텐도	-11.2806
▁의구심	-11.2806
▁제네바	-11.2806
▁혐오	-11.2806
무장혁명군	-11.2806
▁agency	-11.2806
▁bbk	-11.2806
▁태어나	-11.2806
▁수족관	-11.2806
▁콜레라	-11.2806
▁두개골	-11.2806
▁뉴욕증시	-11.2806
▁유태인	-11.2806
▁하반기	-11.2806
▁터뜨	-11.2806
▁white	-11.2806
▁링컨	-11.2806
▁가볍	-11.2806
▁대지진	-11.2806
▁좌익	-11.2806
▁신용위기	-11.2807
▁결렬	-11.2807
▁의료보험	-11.2807
▁꾸준	-11.2807
▁힌두교	-11.2807
▁검출	-11.2807
▁삼엄	-11.2807
▁원내대표	-11.2807
▁사찰	-11.2807
▁티켓	-11.2807
▁zan	-11.2807
▁free	-11.2807
▁혼합	-11.2807
▁배럭	-11.2807
▁참패	-11.2808
▁코미디언	-11.2808
▁비공개	-11.2808
▁신념	-11.2808
▁워커	-11.2808
▁블록	-11.2809
▁호주오픈	-11.2809
▁노리에가	-11.2809
▁설교	-11.2809
▁가격에	-11.2809
▁과잉	-11.2809
▁영예	-11.2809
▁검진	-11.281
▁깜	-11.2811
▁규명	-11.2811
▁계층	-11.2811
▁없었지만	-11.2811
▁태양계	-11.2811
▁연합뉴스	-11.2811
▁광경	-11.2811
▁포스터	-11.2812
▁극심	-11.2812
▁당분간	-11.2812
▁관행	-11.2812
▁1984	-11.2812
▁리틀	-11.2813
▁지폐	-11.2814
▁보수파	-11.2815
▁응원	-11.2815
▁레저	-11.2816
▁911	-11.2816
▁히트	-11.2817
▁권유	-11.2818
▁석상	-11.2818
▁섞	-11.2819
▁재생	-11.282
▁시사회	-11.282
▁격분	-11.2821
▁dc	-11.2821
▁예금	-11.2821
▁suv	-11.2821
▁발작	-11.2823
▁남겼다	-11.2823
▁맡게	-11.2824
▁국면	-11.2824
▁사우스	-11.2825
▁단호	-11.2825
▁더이상	-11.2825
▁야간	-11.2827
▁보류	-11.2827
▁체인	-11.2829
▁비율이	-11.283
▁장난	-11.2831
▁제프	-11.2831
▁호우	-11.2832
▁풍자	-11.2833
▁마련하기	-11.2833
▁야당의	-11.2833
▁애쓰고	-11.2833
▁내주	-11.2833
▁러시아에서	-11.2835
▁인플루엔자	-11.2835
▁비자금	-11.2835
하겠지만	-11.2835
▁연예	-11.2839
▁정상적으로	-11.2839
▁발견돼	-11.284
▁유니	-11.284
▁단백질	-11.2843
▁예로	-11.2844
▁논의하고	-11.2844
▁이끌었다	-11.2845
▁붐	-11.2847
▁취해야	-11.2849
▁작곡가	-11.2851
▁페이	-11.2852
▁사이즈	-11.286
▁우파	-11.2861
년째	-11.2864
▁가할	-11.2864
▁살해하겠다	-11.2865
▁폐쇄했다	-11.2869
▁심정	-11.2874
▁파르	-11.2878
▁가두	-11.2879
▁범죄자	-11.2879
▁초과	-11.2886
▁흔들리	-11.2888
▁여자들	-11.2888
▁결승에서	-11.289
▁하마스와	-11.2891
▁미군측	-11.2893
▁공격할	-11.2899
▁정치범	-11.2899
▁mu	-11.2899
위권	-11.29
▁바퀴	-11.2901
▁대표들은	-11.2902
▁톤	-11.2904
▁결과에따르면	-11.2904
▁찬사	-11.2908
▁합의는	-11.2913
▁지명자	-11.2913
▁제기한	-11.2915
▁자회사	-11.2916
▁살아있는	-11.2918
▁잡혀있	-11.2926
▁와서	-11.2927
▁대리	-11.2928
▁보아	-11.2928
시스	-11.2928
▁독자	-11.2929
▁친구들과	-11.293
리노	-11.2931
여개	-11.2935
▁하는데	-11.2935
wid	-11.2935
일본	-11.2938
▁추정되	-11.2944
▁줄어들고	-11.2945
▁대원	-11.2947
이었지만	-11.295
▁리사	-11.2951
▁경제학	-11.2954
▁방문객	-11.2955
▁부수	-11.2961
▁결승전에	-11.2962
▁식으로	-11.2965
▁잡기	-11.2965
▁베를린에서	-11.2968
▁첸	-11.2968
▁길에	-11.2968
▁헤르	-11.2968
▁나르	-11.2975
▁나갔다	-11.2977
▁수반과	-11.2977
▁사무소	-11.2978
켜	-11.2978
▁말했으며	-11.2979
▁진행하는	-11.2981
▁근무하	-11.2983
▁주자	-11.2983
다리	-11.2985
▁어디에	-11.2987
응	-11.2988
▁미수	-11.2989
▁수의사	-11.299
지요	-11.2992
▁해변에서	-11.2992
건이	-11.2994
▁감자	-11.2994
몽	-11.2996
▁어디	-11.2996
2007.1	-11.3
아프리카	-11.3
오픈	-11.3001
▁재판소	-11.3001
떨어진	-11.3001
개국이	-11.3002
▁갇혀	-11.3003
▁기념일	-11.3003
▁돌입했다	-11.3008
ame	-11.3009
▁구조대원	-11.3011
▁문화적	-11.3011
살이	-11.3011
▁사태로	-11.3013
▁람	-11.3015
▁나라들	-11.3019
▁코커스에서	-11.3023
▁hd	-11.3027
피크	-11.3035
채가	-11.304
▁가담	-11.3044
▁하원에서	-11.3045
라니	-11.3046
▁에바	-11.3048
▁미사	-11.3049
▁세번째	-11.305
▁재미	-11.3059
▁촉발	-11.306
▁동원해	-11.3061
간다	-11.3063
▁너	-11.3067
▁결의안은	-11.3067
▁기념하기	-11.3069
주재	-11.3069
▁붙이	-11.3074
▁비리	-11.3076
▁칠	-11.3079
줘야	-11.3079
▁줄어	-11.308
▁공격하는	-11.3081
▁명인	-11.3084
▁여행사	-11.3089
킨스	-11.3089
번호	-11.3095
▁che	-11.3097
▁시작하는	-11.3101
▁뒤에서	-11.3105
코스	-11.3109
▁뉴스는	-11.3114
나마	-11.3118
▁소방관들	-11.3125
모어	-11.3126
▁요한	-11.3127
▁양곤	-11.3133
▁조사했다	-11.3134
▁개막식	-11.3134
▁주거	-11.3134
푸르	-11.3137
▁위반한	-11.3146
▁무기한	-11.3149
▁도움으로	-11.3155
▁이란에서	-11.3157
▁안다	-11.3159
▁버렸다	-11.3161
out	-11.3167
순위	-11.3171
2005.	-11.3171
▁압도적	-11.3173
▁주사	-11.3175
tive	-11.3177
▁크라	-11.3179
▁바탕	-11.318
▁정치에	-11.318
▁호흡	-11.3184
▁홈페이지	-11.3184
▁강화했다	-11.3185
디오	-11.3186
▁시작하기	-11.3186
편이	-11.3187
▁여러분들	-11.3189
님	-11.3191
▁america	-11.3194
▁year	-11.3196
▁연예인	-11.3197
▁중동평화	-11.32
혜	-11.3201
롯	-11.3202
▁공장에서	-11.3203
▁q	-11.3203
▁빨간	-11.3205
▁pre	-11.3206
엽	-11.3206
▁wild	-11.3206
▁갤럭시	-11.3206
▁곤돌라	-11.3206
▁농작물	-11.3206
▁라왈핀디	-11.3206
▁로맨틱	-11.3206
▁마닐라	-11.3206
▁부딪혀	-11.3206
▁아웅산수지	-11.3206
▁얀코비치	-11.3206
▁엔데버호	-11.3206
▁이데올로기	-11.3206
▁짝짓기	-11.3206
▁카라카스	-11.3206
▁카톨릭	-11.3206
▁타블로이드	-11.3206
▁터무니	-11.3206
▁페널티킥	-11.3206
▁폴라로이드	-11.3206
▁횟수	-11.3206
돋	-11.3206
▁report	-11.3206
▁내비쳤다	-11.3206
▁대중교통	-11.3206
▁루마니아	-11.3206
▁백화점	-11.3206
▁유망주	-11.3206
▁치렀	-11.3206
▁카리스마	-11.3206
넥	-11.3206
룽	-11.3206
▁자이툰	-11.3206
▁페르난도	-11.3206
▁ftse	-11.3206
▁that	-11.3206
▁로페즈	-11.3206
▁테이블	-11.3206
▁동남아시아	-11.3206
▁살모넬라균	-11.3206
▁억압	-11.3206
▁대통합민주신당	-11.3206
▁보스니아	-11.3206
▁표적이	-11.3206
▁소수민족	-11.3206
▁소아과	-11.3206
▁brit	-11.3206
▁밀접	-11.3206
▁동점골	-11.3207
▁가자시티	-11.3207
▁good	-11.3207
▁범람	-11.3207
▁패널	-11.3207
▁부정선거	-11.3207
▁결승골	-11.3207
▁나중에	-11.3207
▁무너졌다	-11.3207
▁궁금	-11.3208
▁관광산업	-11.3208
▁비싸	-11.3208
▁울머	-11.3208
▁이끌었던	-11.3209
세르	-11.3209
▁평생	-11.3209
▁난폭	-11.3209
▁오스틴	-11.321
▁세레나	-11.321
▁기둥	-11.321
▁윤리적	-11.3211
▁도착했을	-11.3212
ship	-11.3213
▁결별	-11.3213
▁경제성장률	-11.3213
▁동남	-11.3213
▁연구조사	-11.3213
▁면허	-11.3214
▁페퍼	-11.3215
▁바이오	-11.3215
▁전인	-11.3215
▁숨지게	-11.3215
▁천연	-11.3215
▁2014	-11.3215
▁면제	-11.3215
▁심장병	-11.3216
▁감안	-11.3216
▁매사추세츠주	-11.3216
▁동행	-11.3217
▁외각	-11.3217
▁감동	-11.3217
▁순회	-11.3218
티드	-11.3218
▁책임감	-11.3218
▁바스크	-11.3218
▁사절	-11.3221
▁온천	-11.3222
▁드문	-11.3222
▁면서	-11.3224
▁여정	-11.3225
▁과실	-11.3225
▁쇼에	-11.3227
▁im	-11.3227
▁조업	-11.3227
▁우방	-11.3228
▁삼았다	-11.3228
▁버크	-11.323
▁750	-11.3233
▁유명인사	-11.3233
▁상징적	-11.3234
▁상업적	-11.3234
iz	-11.3235
▁반란	-11.3236
▁재미있	-11.3236
▁국민당	-11.3237
▁이끈	-11.3238
▁선거는	-11.3238
▁행운	-11.3238
객들	-11.3239
느라	-11.3239
었기	-11.324
▁일기로	-11.324
▁현직	-11.325
▁퇴원	-11.325
▁경선이	-11.325
▁시도했다	-11.3251
블리	-11.3251
▁투수	-11.3255
▁주문했다	-11.3257
▁질서	-11.3257
분기에	-11.3258
▁관세	-11.3258
▁양당	-11.3258
▁번식	-11.3259
▁까	-11.326
▁어선	-11.3262
▁후보자들	-11.3262
▁1600	-11.3264
42	-11.3266
▁프린스	-11.3266
▁넘어서	-11.3266
▁230	-11.3268
▁의견에	-11.3272
▁후임으로	-11.3272
56	-11.3274
▁선호	-11.328
41	-11.328
▁선택한	-11.3281
▁줄어들었다	-11.3281
▁행동으로	-11.3282
▁의뢰인	-11.3284
▁이룬	-11.3285
강에	-11.3285
▁흘	-11.3286
플레	-11.3286
▁샘	-11.3287
▁정권은	-11.3293
▁많았다	-11.3294
ious	-11.3294
▁모닝	-11.3295
▁도로에	-11.3296
▁사망했고	-11.3303
▁대처하기	-11.3304
▁세라	-11.3304
▁나라에서	-11.3306
▁원장은	-11.3306
▁달에	-11.3307
강전	-11.3309
▁충고	-11.3311
▁포기할	-11.3312
▁별로	-11.3313
▁방콕에서	-11.3315
▁무혐의	-11.3316
▁전통적으로	-11.3319
▁살리	-11.3319
▁내기	-11.3319
▁끌어들	-11.332
▁거라고	-11.3327
아웃	-11.3327
▁괴	-11.333
round	-11.3331
▁막는	-11.3335
▁불과했다	-11.3337
라기	-11.3338
병이	-11.3347
▁하는지	-11.3349
▁감기	-11.3352
▁신비	-11.3352
▁분명한	-11.3356
▁qu	-11.3357
▁행한	-11.3357
▁발생하기	-11.336
▁지정된	-11.336
▁맡기	-11.3361
▁결정된	-11.3367
▁왔으며	-11.3369
▁기록적인	-11.3374
▁납치했다	-11.3379
헤드	-11.338
▁로한이	-11.338
▁발표하지	-11.3388
▁죽을	-11.339
▁정부로부터	-11.3391
특	-11.3393
니까	-11.3402
▁전선	-11.3404
▁국경지역에	-11.3409
▁연합은	-11.341
▁위치에	-11.3412
▁바스라에서	-11.3413
폭탄	-11.3414
▁정직	-11.3416
▁마일	-11.3416
▁후안	-11.3416
즐	-11.3416
▁걸스	-11.3419
▁지구로	-11.342
게이트	-11.3421
민족	-11.3422
▁가한	-11.3425
▁탑	-11.3425
fc	-11.3428
▁거부하	-11.3433
성과	-11.3433
▁차원	-11.3434
▁start	-11.3438
▁we	-11.3439
▁글로	-11.3441
▁낙관적	-11.3443
▁제안에	-11.3443
노동	-11.3446
수사	-11.3447
▁용의	-11.3448
▁이외	-11.3448
▁협정에	-11.3451
▁가하고	-11.3453
교회	-11.3454
노프	-11.3455
▁이목	-11.3456
▁명으로	-11.3458
라이트	-11.3459
▁험	-11.3459
▁중국인들	-11.346
ds	-11.3461
▁퍼지	-11.3461
코르	-11.3462
▁남지	-11.3463
▁밝혔	-11.3467
▁몬	-11.3469
위안	-11.347
▁도와	-11.3471
▁협상에서	-11.3473
스텐	-11.3473
▁구입한	-11.3474
면서도	-11.3475
▁수감됐다	-11.3482
▁공직	-11.3487
▁방송과	-11.3487
▁직면해	-11.3489
▁여성으로	-11.3494
▁당원들	-11.3494
▁말하지	-11.3495
▁관광객이	-11.3497
여금	-11.3498
▁검토하	-11.3506
▁태국에서	-11.351
▁이라크로	-11.3511
▁이어진	-11.3512
▁제어	-11.3519
▁지사	-11.3524
▁통근	-11.3527
▁놓여	-11.3529
▁은행이	-11.3529
▁조달	-11.3529
층에서	-11.3535
치기	-11.3537
▁잃었	-11.3539
▁기뻐	-11.3542
▁의뢰	-11.3544
▁겐	-11.3544
do	-11.3545
▁감행했다	-11.3547
자루	-11.355
▁이상으로	-11.3555
▁높이고	-11.3556
▁하겠다	-11.3559
▁보여준	-11.3559
▁복용한	-11.3559
▁나가고	-11.3564
▁red	-11.3564
▁기본적	-11.3566
▁소방	-11.3568
▁감염자	-11.3569
브레	-11.357
▁승리하는	-11.3571
▁국세청	-11.3574
회전	-11.3574
▁인도와	-11.3577
ew	-11.3584
▁fc	-11.3584
됐기	-11.3587
▁발생한다	-11.3591
▁누르	-11.3593
▁영화로	-11.3598
만톤	-11.3599
▁ph	-11.3602
▁한반도에서	-11.3602
▁발표에	-11.3606
▁사정	-11.3611
▁버몬트	-11.3611
▁나눠	-11.3613
▁오르는	-11.3614
▁다국적	-11.3614
▁빚어	-11.3615
▁경제성장	-11.3616
▁캐롤	-11.3618
쾌	-11.3619
▁101	-11.362
▁about	-11.3623
▁wwf	-11.3623
▁가톨릭	-11.3623
▁로널드	-11.3623
▁몬타나	-11.3623
▁무크타다	-11.3623
▁버시바우	-11.3623
▁부정부패	-11.3623
▁브뤼셀	-11.3623
▁사카쉬빌리	-11.3623
▁연습	-11.3623
▁쫓겨	-11.3623
▁컨퍼런스	-11.3623
▁콘크리트	-11.3623
▁콜레스테롤	-11.3623
▁프리메라리가	-11.3623
▁합참의장	-11.3623
윗	-11.3623
쿤	-11.3623
▁금융제재	-11.3623
▁임산부	-11.3623
▁오마바	-11.3623
▁팔루자	-11.3623
▁횡단	-11.3623
▁휴양지	-11.3623
▁뮤직	-11.3623
▁힉스	-11.3623
▁뒤덮	-11.3623
▁주니어	-11.3623
▁이소연	-11.3623
▁기번스	-11.3623
▁페인트	-11.3623
▁크리켓	-11.3623
▁게임에서	-11.3623
▁아지즈	-11.3623
▁home	-11.3623
▁근접	-11.3623
▁쟁점	-11.3623
▁농촌	-11.3623
▁소요사태	-11.3624
▁와중에	-11.3624
▁번호판	-11.3624
▁호르타	-11.3624
▁여객선	-11.3624
▁불쾌감	-11.3624
▁동북아	-11.3625
▁통계청	-11.3625
▁있겠지만	-11.3625
▁엄중	-11.3625
▁싸울	-11.3625
▁간첩	-11.3625
▁최후	-11.3625
▁pop	-11.3626
▁연애	-11.3626
▁평등	-11.3626
▁union	-11.3627
▁총격사건	-11.3627
▁활력	-11.3627
▁철거	-11.3627
▁패션계	-11.3628
스테이트	-11.3628
▁정글	-11.3628
▁이루어질	-11.3628
▁달라이라마는	-11.3628
▁피델	-11.3629
▁단절	-11.3629
▁팔렸다	-11.3629
▁금지령	-11.3629
▁테네시주	-11.3631
▁분양	-11.3631
▁포격	-11.3631
▁rights	-11.3632
▁다녀	-11.3632
▁열린다	-11.3632
돌프	-11.3633
▁law	-11.3633
▁본래	-11.3633
▁완수	-11.3633
▁지나친	-11.3633
▁테러공격	-11.3634
▁황제	-11.3634
▁변동	-11.3635
▁추모식	-11.3636
▁울프	-11.3636
▁급파	-11.3637
▁터진	-11.3638
▁접근할	-11.3638
▁만행	-11.3638
▁스탠리	-11.3638
▁테마	-11.3639
▁뉴저지주	-11.3642
▁반격	-11.3642
▁질식	-11.3642
▁건조	-11.3642
▁데이트	-11.3643
▁사격	-11.3643
▁태아	-11.3645
▁대승	-11.3646
▁액수	-11.3646
▁09	-11.3646
▁지도력	-11.3647
▁스노	-11.3649
▁독일과	-11.365
▁상실	-11.365
▁섬에	-11.365
▁앙리	-11.365
▁신종	-11.3651
▁외모	-11.3655
안이	-11.3655
▁조그	-11.3655
▁인용하여	-11.3657
▁분명하다	-11.3658
되었으나	-11.366
▁여객기에	-11.366
▁두목	-11.3661
one	-11.3661
74	-11.3662
▁반감	-11.3663
▁가즈니주	-11.3663
상과	-11.3668
잡이	-11.3671
▁한국정부	-11.3671
▁핵문제	-11.3674
▁페트로	-11.3675
▁열리기	-11.3676
▁보수적인	-11.3677
▁플로	-11.3677
▁미쳤다	-11.3678
▁말라위	-11.368
▁인파	-11.368
▁작용할	-11.3683
▁배아	-11.3683
프트	-11.3683
▁휩싸였다	-11.3685
▁아카	-11.3686
▁돌아가는	-11.3687
실에서	-11.3687
▁4.5	-11.3689
▁발견했으며	-11.3691
▁끝내고	-11.3694
▁억류된	-11.3695
▁맺었다	-11.3696
.09	-11.3698
▁획득했다	-11.3699
▁명명	-11.37
▁허리	-11.37
▁살해됐다	-11.37
▁폭발했다	-11.3702
받을	-11.3702
코트	-11.3702
▁헨	-11.3703
▁수백만명	-11.3703
▁일종	-11.3704
▁이행하	-11.3706
▁450	-11.3706
법에	-11.3708
▁흉기	-11.3708
▁워싱턴에	-11.371
들이다	-11.371
▁전술	-11.371
▁구분	-11.3711
▁발사된	-11.3712
▁치르는	-11.3717
▁점에서	-11.3717
▁쉐	-11.3717
▁캄	-11.3717
▁의원과	-11.3718
▁일요일에	-11.3723
▁노동자들이	-11.3726
▁켄	-11.3728
▁경찰청장	-11.3728
▁거물	-11.3731
▁법무	-11.3734
▁열리고	-11.3737
▁심각하다	-11.3737
▁표기	-11.3742
론자들	-11.3742
▁피로	-11.3744
▁작품상	-11.3744
▁지원한	-11.3747
54	-11.3747
▁교도	-11.3748
▁선박에	-11.3748
▁서있	-11.3749
▁동해	-11.3753
▁문제다	-11.3753
모토	-11.3756
▁의원들과	-11.3758
내기	-11.376
▁차지할	-11.3763
▁190	-11.3763
▁87	-11.3768
▁알바	-11.3768
▁개혁안	-11.3775
고문	-11.3775
▁지지율로	-11.378
▁만족한다	-11.3781
▁수직	-11.3785
▁치료제	-11.3786
▁전임	-11.3786
▁결정될	-11.3788
▁앤드	-11.3789
▁시대에	-11.379
윤	-11.3797
파인	-11.3797
▁이견	-11.3799
▁관료들	-11.3799
과학	-11.3799
oo	-11.3804
물질	-11.3804
학자인	-11.3804
▁발사한	-11.3806
▁방위	-11.3815
▁수퍼대의원	-11.3823
▁홀에서	-11.383
▁미군에	-11.3831
▁파괴됐다	-11.3832
▁경쟁에서	-11.3834
▁한글	-11.3841
▁민주당원들	-11.3842
▁내용이다	-11.3844
▁선보였	-11.3844
▁경고하고	-11.3847
털	-11.385
▁경의	-11.385
▁고집	-11.3853
자동차	-11.3853
▁공격하기	-11.3854
▁줄었다	-11.3855
▁설립한	-11.3855
▁마르코	-11.3856
로프	-11.3856
▁인정하고	-11.3857
▁들어가기	-11.3858
▁안개	-11.386
▁앞에서	-11.3872
증권	-11.3873
배우	-11.3874
▁노력으로	-11.3881
더미	-11.3884
▁중재자	-11.3887
▁되면서	-11.3888
▁고정	-11.3889
장소	-11.389
▁can	-11.3892
사이드	-11.3895
▁좌	-11.3896
▁장소에	-11.3896
사실	-11.3898
▁물질이	-11.3899
▁파괴된	-11.3899
▁반군에	-11.39
시간이	-11.3901
▁해치	-11.3902
▁우리들	-11.3906
▁차에	-11.391
▁토로	-11.3911
▁도착했다고	-11.3914
▁합의안	-11.3917
▁순수	-11.3922
마드	-11.3923
▁괴한들	-11.3925
▁지점에	-11.3928
▁천명	-11.393
▁클럽에서	-11.3932
▁난자	-11.3935
▁일어	-11.3939
▁요인이	-11.3941
▁시스템에	-11.3944
▁공습이	-11.3946
ge	-11.395
화물	-11.3952
총리는	-11.3954
마크	-11.3955
▁맞지	-11.3956
▁전문의	-11.3958
적이지	-11.3961
▁정상에	-11.3966
득	-11.3971
▁간다	-11.3976
▁판매하는	-11.3976
▁통과한	-11.3979
▁일반인들	-11.3981
▁교착상태	-11.3981
▁저자	-11.3982
▁학자들	-11.3983
▁저널	-11.3985
▁공급받	-11.3985
▁비전	-11.3988
▁들어갔	-11.3989
▁미국내	-11.3989
워진	-11.399
데요	-11.3996
▁따뜻하	-11.3996
야당	-11.4002
였을	-11.4009
▁사고에	-11.4009
▁남겨	-11.401
▁겪었	-11.401
▁시작되	-11.4011
럭	-11.4012
▁나타났	-11.4013
▁박물관에	-11.4016
기종	-11.4019
▁kt	-11.402
▁킬로미터	-11.402
▁울리	-11.4021
▁현안	-11.4022
▁매케인과	-11.4022
up	-11.4022
▁프로그램과	-11.4023
▁under	-11.4024
▁장례식에	-11.4026
▁죄수	-11.4027
▁fun	-11.403
▁적지	-11.4031
▁일시	-11.4033
위기	-11.4034
▁자연적	-11.4034
단체인	-11.4035
▁생활에	-11.4037
ern	-11.4038
▁피고인들	-11.4039
▁못하면	-11.404
▁고전	-11.4043
▁테네시	-11.4049
센터에서	-11.405
▁검문	-11.4051
▁aid	-11.4056
▁냉전	-11.4057
▁australia	-11.4057
▁oecd	-11.4057
▁school	-11.4057
▁그린스펀	-11.4057
▁급상승	-11.4057
▁낙하산	-11.4057
▁농산물	-11.4057
▁대량살상무기	-11.4057
▁디얄라	-11.4057
▁라우터바흐	-11.4057
▁롱고리아	-11.4057
▁선거캠페인	-11.4057
▁슈나이더	-11.4057
▁앨라배마	-11.4057
▁언색호	-11.4057
▁없음	-11.4057
▁오차범위	-11.4057
▁잃게	-11.4057
▁지구온난화	-11.4057
▁카메론	-11.4057
▁테헤란	-11.4057
셜	-11.4057
쭉	-11.4057
▁국토안보부	-11.4057
▁올랜도	-11.4057
▁황교수	-11.4057
▁마스터스	-11.4057
▁저녁식사	-11.4057
▁유시프	-11.4057
▁획기적	-11.4057
▁administration	-11.4058
▁클레이코트	-11.4058
▁정부청사	-11.4058
▁리더십	-11.4058
▁졸릭	-11.4058
▁괴롭	-11.4058
▁사냥꾼	-11.4058
▁정유	-11.4058
▁gnp	-11.4058
▁six	-11.4058
▁tax	-11.4058
▁검열	-11.4058
own	-11.4058
▁퇴역	-11.4059
▁자살폭탄	-11.4059
▁호킨스	-11.4059
▁무엇인가	-11.4059
▁아르빌	-11.4059
▁토끼	-11.4059
▁줄어든	-11.4059
▁안젤리	-11.4059
▁평창	-11.406
▁하에서	-11.406
▁반도체	-11.406
▁그린랜드	-11.406
▁자본주의	-11.406
▁동맹관계	-11.406
▁우편	-11.406
▁회색	-11.4061
▁아바타	-11.4061
▁친밀	-11.4062
▁그렇다면	-11.4062
▁기념품	-11.4062
▁적당한	-11.4062
ncy	-11.4062
▁증산	-11.4062
▁보였지만	-11.4063
▁납부	-11.4063
▁증오	-11.4064
▁발송	-11.4064
▁늘어난	-11.4065
▁재능	-11.4065
▁주머니	-11.4065
▁검시관	-11.4065
지스	-11.4065
▁친절	-11.4065
▁피터슨	-11.4065
▁샤론	-11.4066
▁라틴	-11.4066
▁출간	-11.4066
▁성능	-11.4066
▁잔디	-11.4067
▁서열	-11.4067
▁선거자금	-11.4067
▁받았습니다	-11.4067
▁누설	-11.4068
▁한국전쟁	-11.4068
▁시몬	-11.4068
▁교역	-11.4068
런스	-11.4069
▁요구해	-11.4069
der	-11.407
▁동요	-11.407
▁지난밤	-11.4071
▁미시간주	-11.4073
▁만이	-11.4073
▁도박	-11.4073
▁곳곳	-11.4074
▁베이비	-11.4074
▁관계자에따르면	-11.4074
▁태어났다	-11.4075
▁샤프	-11.4077
▁생선	-11.4077
▁파워	-11.4078
▁스파이스	-11.4078
▁신설	-11.4079
▁섬유	-11.4079
살짜리	-11.4079
▁들어보	-11.4082
▁참수	-11.4082
▁6000	-11.4083
▁말았다	-11.4083
▁오프	-11.4083
▁지칭	-11.4083
▁원한다면	-11.4083
▁불거	-11.4087
▁루디	-11.4088
▁배정	-11.4088
아갈	-11.4088
▁종전	-11.4089
▁탈세	-11.409
▁노벨상	-11.409
▁인천	-11.4091
퍼스	-11.4092
▁탈당	-11.4093
▁놀이	-11.4094
▁선제	-11.4095
▁양호	-11.4095
▁117	-11.4095
▁일조	-11.4095
▁온실	-11.4096
▁별도로	-11.4098
▁시작했고	-11.4098
▁문학	-11.4099
▁타운	-11.4099
▁여인	-11.4099
▁경유	-11.4102
▁불경기	-11.4102
▁효과적인	-11.4103
▁싱글	-11.4103
▁주입	-11.4104
▁비행선	-11.4105
▁항해	-11.4106
▁누구나	-11.4109
▁기여	-11.411
▁위크	-11.411
▁보호소	-11.4111
▁끝나지	-11.4114
▁강화하기	-11.4115
▁주정부	-11.4115
▁유타	-11.4118
▁대신해	-11.4119
▁의사당	-11.4119
▁답변했다	-11.412
▁졸	-11.4122
▁말했었다	-11.4122
▁랜드	-11.4122
파일	-11.4123
▁실종됐다고	-11.4126
▁자란	-11.4128
▁중국정부	-11.4128
▁주둔군	-11.4129
▁외계인	-11.413
▁만들어내	-11.4132
▁서쪽으로	-11.4133
▁쓰이	-11.4135
▁적군	-11.4136
▁들어서	-11.4136
벨리	-11.4138
ark	-11.4139
▁ag	-11.4142
▁신성	-11.4143
▁분기	-11.4144
▁허용하는	-11.4144
▁내리지	-11.4145
▁이민법	-11.4145
▁물리적	-11.4148
해주고	-11.4149
▁진상	-11.4151
▁들어주	-11.4152
▁토로했다	-11.4155
▁올렸	-11.4155
▁덩어리	-11.4156
▁통과할	-11.4157
▁사람으로	-11.4159
▁살상	-11.416
▁홀리	-11.4163
▁린다	-11.4163
▁기대된다	-11.4165
조차도	-11.4165
▁부상했으며	-11.4166
▁서울시장	-11.4167
▁지어	-11.4168
▁밝혀지	-11.4168
▁석방했다	-11.4169
▁참가국들	-11.4171
▁의미하는	-11.4172
▁아나	-11.4172
▁작전에	-11.4172
▁시선	-11.4173
▁우주비행사들	-11.4176
▁생각할	-11.4176
▁무서	-11.4177
▁본즈	-11.4178
▁일이었다	-11.4179
▁아랍어	-11.4181
▁서부지역	-11.4182
▁br	-11.4182
▁활	-11.4183
▁팔레스타인과	-11.4189
▁입장이다	-11.4192
▁외곽에서	-11.4195
▁경상	-11.4196
▁플	-11.4196
▁연인	-11.4196
▁이유에	-11.4196
▁군의	-11.4197
▁해준다	-11.4197
ence	-11.4205
cent	-11.4206
ong	-11.4206
야만	-11.4207
▁103	-11.4208
▁지불할	-11.421
▁증거로	-11.4212
가량	-11.4214
▁휩싸	-11.4217
글리	-11.4222
▁대학생들	-11.4222
▁참가하는	-11.4223
▁중태라	-11.4224
▁최근까지	-11.4226
▁도달했다	-11.4227
▁상표	-11.4228
시간에	-11.4231
▁제조회사	-11.4232
마저	-11.4232
▁근거지	-11.4233
마이어	-11.4234
▁생각된다	-11.4235
▁로즈	-11.4235
gb	-11.4236
▁해결하는	-11.4239
▁하려	-11.4243
tt	-11.4244
▁ps	-11.4248
▁맞이하	-11.425
▁식당에서	-11.4251
▁승무원들은	-11.4251
05	-11.4253
,400	-11.4253
▁사건에서	-11.4253
▁내야	-11.4254
▁주도하고	-11.4256
지수가	-11.426
▁정국	-11.4261
▁고민	-11.4263
▁진정시키	-11.4265
▁행위로	-11.4268
▁오만	-11.427
49	-11.4271
▁sun	-11.4271
▁마이크로	-11.4272
▁되어야	-11.4272
▁단계적	-11.4278
▁파업이	-11.4282
▁작고	-11.4286
▁로이	-11.4289
▁공해	-11.4294
▁주립대학	-11.4295
▁바비	-11.4297
인당	-11.43
괴	-11.43
▁피의자	-11.4301
드레	-11.4302
▁있었	-11.4302
톱	-11.4303
팬	-11.4304
끄	-11.4304
탐	-11.4305
공화국	-11.4306
▁검찰에	-11.4307
검찰	-11.4308
▁관계자와	-11.431
▁한가지	-11.431
▁배달	-11.4315
나이트	-11.4316
▁다루는	-11.4317
▁보도된	-11.4317
▁아파트에서	-11.4325
▁모였다	-11.4332
▁여진	-11.4334
러운	-11.4335
▁여행자	-11.4338
▁수행한	-11.4339
략	-11.4341
▁전경	-11.4342
▁실시됐다	-11.4348
▁주립	-11.4348
▁마련된	-11.4351
▁총살	-11.4353
▁멘	-11.4355
▁금지된	-11.4358
▁투자가	-11.4362
▁이동했다	-11.4362
▁바그다드에	-11.4364
▁움직이는	-11.4367
▁순간에	-11.4367
▁수행했다	-11.4368
pr	-11.4371
구간	-11.4376
▁end	-11.4378
▁수성	-11.4379
▁선포한	-11.4381
▁결함이	-11.439
▁국내에서	-11.4392
▁수년간	-11.4399
감시	-11.4401
▁성공할	-11.4401
▁세르	-11.4407
정권	-11.4407
▁브레	-11.4408
▁카라치	-11.4412
▁영화화	-11.4414
▁결정한	-11.4414
예프	-11.4416
▁끌어들이	-11.4422
▁경제학자	-11.4426
범죄	-11.4428
▁파기	-11.4431
리코	-11.4433
▁설립자	-11.4434
별로	-11.4438
▁떠났	-11.4438
▁피우	-11.4441
▁진출에	-11.4442
▁전반에	-11.4447
혁명	-11.4449
▁충돌했다	-11.4453
▁에따르면	-11.4454
▁cl	-11.4456
▁도착해	-11.4458
▁작년에	-11.4462
▁투자가들	-11.4464
▁참가국	-11.4478
▁일본군	-11.4478
▁증가시키	-11.4479
▁모여들	-11.4479
▁동부에	-11.4479
▁수행하는	-11.448
▁이용자	-11.4481
▁사항이	-11.4481
▁외교관들	-11.4482
▁공항으로	-11.4482
▁산업이	-11.4482
▁승려	-11.4482
▁나비	-11.4482
▁우주비행	-11.4493
므	-11.4493
que	-11.4497
▁시작한다	-11.4498
▁소행	-11.4498
차원	-11.4499
▁닉	-11.45
▁친구와	-11.4501
▁발령	-11.4503
▁아프리카에서	-11.4506
▁los	-11.4507
▁총기난사	-11.4511
윙	-11.4512
헴	-11.4512
▁beijing	-11.4512
▁claim	-11.4512
▁defense	-11.4512
▁hsbc	-11.4512
▁movie	-11.4512
▁nymex	-11.4512
▁society	-11.4512
▁street	-11.4512
▁summit	-11.4512
▁system	-11.4512
▁가라앉	-11.4512
▁국제사면위원회	-11.4512
▁김경준	-11.4512
▁낮게	-11.4512
▁돈세탁	-11.4512
▁몰디브	-11.4512
▁믿음	-11.4512
▁베스트셀러	-11.4512
▁손해배상	-11.4512
▁신천옹	-11.4512
▁아이슬란드	-11.4512
▁애널리스트	-11.4512
▁우비넨	-11.4512
▁자이언트	-11.4512
▁좋았다	-11.4512
▁찍었다	-11.4512
▁콘텐트	-11.4512
▁페르난데스	-11.4512
▁푸에르토리코	-11.4512
궈	-11.4512
덱	-11.4512
밭	-11.4512
▁가금류	-11.4512
▁내다봤다	-11.4512
▁무중력	-11.4512
▁폭넓	-11.4512
▁해리왕자	-11.4512
갓	-11.4512
▁price	-11.4512
▁가석방	-11.4512
▁갱신	-11.4512
▁자부심	-11.4512
▁전화통화	-11.4512
▁break	-11.4512
▁오페라	-11.4512
▁프리킥	-11.4512
▁후쿠다	-11.4512
▁진원지	-11.4512
▁발레리	-11.4512
▁플레이오프	-11.4512
▁황박사	-11.4512
▁라시드	-11.4512
▁놀랍	-11.4512
▁브라더스	-11.4512
▁프레슬리	-11.4512
▁남서쪽	-11.4512
▁딜리	-11.4512
▁트레킹	-11.4512
▁강아지	-11.4512
▁설문조사	-11.4512
▁아이팟	-11.4513
▁않으려	-11.4513
▁삭스	-11.4513
▁선제골	-11.4513
▁gps	-11.4513
▁화폐	-11.4513
▁공동성명	-11.4513
▁삼성그룹	-11.4513
▁푸켓	-11.4513
▁다툼	-11.4513
▁왕궁	-11.4513
▁이틀째	-11.4513
▁포옹	-11.4513
▁탑재	-11.4514
▁인디언	-11.4514
▁석탄	-11.4514
▁곤란	-11.4514
▁차세대	-11.4514
▁맞춘	-11.4514
▁지방선거	-11.4514
▁메이저	-11.4514
▁파견했다	-11.4514
▁프라임	-11.4515
▁쌍	-11.4515
▁투항	-11.4515
▁post	-11.4515
▁물러난	-11.4515
▁지저스	-11.4516
▁기차역	-11.4516
▁극적	-11.4516
▁우익	-11.4516
▁터너	-11.4516
▁단축	-11.4516
▁헌터	-11.4517
▁정교회	-11.4517
▁진열	-11.4517
▁지방에	-11.4517
속에	-11.4517
▁예외	-11.4518
▁미술관	-11.4518
▁감각	-11.4518
▁다룰	-11.4518
년대에	-11.4519
▁디에고	-11.4519
▁호박	-11.4519
▁데이브	-11.452
▁익사	-11.452
▁선진국	-11.4521
▁일본인들	-11.4521
▁대기권	-11.4521
▁무패	-11.4521
▁근본주의	-11.4521
▁침실	-11.4522
▁교정	-11.4522
▁선언문	-11.4522
▁프로디	-11.4523
▁사이먼	-11.4523
▁기부금	-11.4523
▁복부	-11.4523
top	-11.4524
▁1975	-11.4524
▁공범	-11.4524
▁변형	-11.4524
▁나이키	-11.4524
스턴	-11.4525
▁방위군	-11.4525
▁북경	-11.4525
▁일삼	-11.4525
▁해산물	-11.4525
▁예보	-11.4526
▁추산	-11.4527
함이	-11.4527
▁포도	-11.4528
▁주식시장이	-11.4528
▁live	-11.4529
▁연정	-11.4532
▁골든	-11.4533
▁콜린스	-11.4534
▁보리스	-11.4535
▁방침이다	-11.4535
▁펴	-11.4537
▁솜	-11.4537
▁웃음	-11.4537
▁선동	-11.4538
▁빈번	-11.4538
▁안고	-11.4539
▁콜로라도주	-11.4539
▁나온다	-11.454
▁레노	-11.454
▁채무	-11.454
위원장은	-11.454
▁영아	-11.4541
▁감독과	-11.4541
▁역전	-11.4541
▁린치	-11.4542
▁비정부	-11.4542
▁우려하는	-11.4543
▁정부기관	-11.4543
▁실바	-11.4543
▁표한다	-11.4544
▁단일	-11.4544
91	-11.4544
▁fund	-11.4545
▁결성	-11.4546
▁폐허	-11.4546
▁딴	-11.4547
▁1400	-11.4548
▁어미	-11.4549
재단	-11.4551
▁대학은	-11.4551
▁조각상	-11.4552
용품	-11.4553
▁툴	-11.4554
▁제작진	-11.4555
▁잔인	-11.4556
▁space	-11.4556
자산	-11.4557
▁매케인에	-11.4558
방안	-11.456
▁의류	-11.456
▁풀어주	-11.4562
▁그럴	-11.4563
▁템	-11.4563
▁능력이	-11.4564
허가	-11.4565
▁연어	-11.4565
▁기간이	-11.4567
▁sg	-11.4567
슬러	-11.4567
▁주차장에서	-11.4568
▁연기됐다	-11.4568
링턴	-11.457
▁담겨	-11.457
▁간호사	-11.4571
▁중단된	-11.4572
▁저자인	-11.4574
▁공표	-11.4575
▁게시	-11.4576
▁내려오	-11.4578
▁보건당국	-11.4579
ore	-11.4581
▁돌아간	-11.4581
▁곳곳에서	-11.4582
▁비중	-11.4584
▁친구인	-11.4584
▁국제법	-11.4585
▁우주복	-11.4585
▁접어들	-11.4587
▁발표하면서	-11.4588
▁설치한	-11.4588
▁보도자료	-11.4588
▁결과에따라	-11.459
▁보험사	-11.4592
▁목표물	-11.4594
▁겁	-11.4595
▁악명	-11.4597
▁판명	-11.4598
ile	-11.4599
▁쓰지	-11.4605
▁랜	-11.4606
▁요청했다고	-11.4608
▁확인하지	-11.4608
▁후속	-11.4608
▁되려	-11.4611
▁주목할	-11.4611
▁희생자들이	-11.4612
▁영해	-11.4612
▁시작했으며	-11.4615
▁240	-11.4615
▁san	-11.4617
▁시사했다	-11.4618
▁남부지역에서	-11.4619
▁전투에서	-11.462
▁아크	-11.4622
▁조직원들	-11.4622
▁결의안이	-11.4623
ain	-11.4625
▁저명	-11.4626
▁입히	-11.4627
▁하퍼	-11.4628
▁센터는	-11.4632
▁한국계	-11.4636
▁재료	-11.4636
▁기록했으며	-11.4637
▁몰린	-11.4639
▁타이거	-11.464
▁다스	-11.4641
▁사람들에	-11.4642
▁관여한	-11.4642
▁가사	-11.4646
▁공화당원들	-11.4649
▁교통부	-11.4651
con	-11.4653
▁버스에	-11.4658
▁배상	-11.4659
▁직위	-11.4661
▁대표들이	-11.4664
▁손님들	-11.4665
▁하스	-11.4666
조건	-11.4666
▁자바	-11.467
▁노력했다	-11.4673
▁떠나지	-11.4673
명만	-11.4674
▁신자	-11.4677
해줬다	-11.468
▁왕위	-11.4682
배로	-11.469
▁당선됐다	-11.4693
▁바람에	-11.4694
▁프로젝트에	-11.4696
▁재미있는	-11.4697
▁이용자들	-11.4701
▁esta	-11.4703
▁이스트	-11.4708
▁280	-11.4715
타다	-11.4716
▁사망했	-11.472
▁젠	-11.472
uri	-11.4722
▁설립된	-11.4722
리터	-11.4723
▁대표와	-11.4724
리트	-11.4726
▁등장하	-11.4728
▁인터넷에서	-11.4731
▁파키스탄과	-11.4734
▁완화하기	-11.4738
▁결정하기	-11.4741
▁특파원은	-11.4746
려면	-11.4748
▁갇혀있	-11.4749
▁마련해	-11.4749
▁특파원이	-11.4752
▁간부들	-11.4753
▁박스	-11.4756
▁레인	-11.4758
▁토론회에서	-11.476
실적	-11.4762
▁됐고	-11.4764
나갔다	-11.4765
길에	-11.4768
경기에	-11.4771
▁결혼했다	-11.4772
딕	-11.4777
▁국제적으로	-11.4778
▁방송이	-11.4778
▁진도	-11.4779
2008.12	-11.478
내려	-11.4781
핵	-11.4782
책임자	-11.4783
▁언론인	-11.4783
밴드	-11.4784
투쟁	-11.4784
음악	-11.4785
분쟁	-11.4789
▁폐쇄하고	-11.4789
▁소방대원	-11.4792
관광	-11.4793
▁일부분	-11.4793
▁방문하고	-11.4794
▁과일	-11.4795
▁심리학	-11.4799
모양	-11.48
▁숨지	-11.4801
부족	-11.4804
▁철학	-11.4805
▁지원에	-11.481
▁목록에	-11.4811
pi	-11.4811
하였다고	-11.4811
체계	-11.4813
▁한반도에	-11.4815
▁ira	-11.482
▁가나	-11.482
통제	-11.4821
▁자신만	-11.4821
요금	-11.4823
▁신체적	-11.483
▁결심했다	-11.4831
▁하사	-11.4832
▁다가오	-11.4833
십만	-11.4836
▁압수했다	-11.4838
▁근본	-11.4842
▁지명에	-11.4844
▁돼있다	-11.4846
▁십대	-11.4848
▁잡혀	-11.4851
▁본부장	-11.4853
▁팔리	-11.4854
io	-11.4856
▁법에	-11.4858
▁집회에서	-11.4861
▁촉구하고	-11.4863
▁잃어	-11.4864
32	-11.4867
▁경호원들	-11.4867
▁가정에서	-11.4868
▁제시할	-11.4871
▁지아	-11.4874
▁폭락했다	-11.4875
▁시점에	-11.4876
▁한국측	-11.4877
▁뒤지	-11.4878
▁창고	-11.488
▁회전	-11.4883
ling	-11.4885
하기위해	-11.4888
▁직원과	-11.489
▁이혼했다	-11.4891
▁위안	-11.4899
▁젊은이들이	-11.4899
▁실험에	-11.4908
▁베이징에	-11.4912
▁당선된	-11.4914
▁악화된	-11.4915
▁94	-11.4916
평가	-11.4917
▁사실이다	-11.4922
▁부분에	-11.4924
▁91	-11.4929
척이	-11.4933
▁격렬	-11.4933
▁치열	-11.494
▁전제	-11.4942
▁퇴원했다	-11.4942
▁나타냈	-11.4944
▁블리	-11.4948
▁고고학자	-11.4948
▁엔지니어	-11.4949
타로	-11.4955
▁레바논에서	-11.4955
▁내부에	-11.4958
▁실종됐다	-11.4958
▁구조됐다	-11.496
빠	-11.4965
▁중대	-11.4966
▁납치범	-11.497
▁빠뜨	-11.4971
▁해결에	-11.4975
▁미네소타	-11.4976
▁protest	-11.4976
케르	-11.4976
▁기관들	-11.4978
▁나사	-11.4979
끔	-11.4979
흥	-11.4983
▁그렇다	-11.4984
옹	-11.4985
셋	-11.4987
지역으로	-11.4987
▁agree	-11.4988
▁얼룩	-11.4988
벡	-11.4988
긋	-11.4988
▁200809.1	-11.4988
▁black	-11.4988
▁candidate	-11.4988
▁official	-11.4988
▁public	-11.4988
▁science	-11.4988
▁가로질러	-11.4988
▁그랜드슬램	-11.4988
▁높았다	-11.4988
▁땅콩	-11.4988
▁라스무센	-11.4988
▁레드삭스	-11.4988
▁마터호른	-11.4988
▁맞교환	-11.4988
▁매릴랜드	-11.4988
▁믿지	-11.4988
▁불필요	-11.4988
▁빈라덴	-11.4988
▁생태계	-11.4988
▁소렌스탐	-11.4988
▁스콜세지	-11.4988
▁스탤론	-11.4988
▁식이요법	-11.4988
▁신용경색	-11.4988
▁싫어하	-11.4988
▁아라파트	-11.4988
▁얼어붙	-11.4988
▁와지리스탄	-11.4988
▁유네스코	-11.4988
▁제너럴	-11.4988
▁주미대사	-11.4988
▁질렀다	-11.4988
▁코네티컷	-11.4988
▁팽팽	-11.4988
▁펌프	-11.4988
▁포틀랜드	-11.4988
▁푸에르타	-11.4988
덟	-11.4988
▁ecb	-11.4988
▁russia	-11.4988
▁국가정보원	-11.4988
▁만델라	-11.4988
▁알자지라	-11.4988
▁commission	-11.4988
▁이건희	-11.4988
▁아메드	-11.4988
▁투탕카멘	-11.4988
▁고마움	-11.4988
▁로드맵	-11.4988
▁본거지	-11.4988
▁가이트너	-11.4988
▁텔레콤	-11.4988
▁밀리밴드	-11.4988
▁남동쪽	-11.4988
▁비평가들은	-11.4988
▁핑크	-11.4988
▁아로요	-11.4988
▁파이프라인	-11.4988
▁앉아있	-11.4988
▁이뤄져야	-11.4988
▁외딴	-11.4988
▁앗아	-11.4989
▁블레이크	-11.4989
▁방안에	-11.4989
▁있느냐	-11.4989
▁납북	-11.4989
▁거세지	-11.4989
▁몬테	-11.4989
▁불러일으키	-11.4989
▁버클리	-11.499
▁투옥	-11.499
▁완승	-11.499
▁신분증	-11.4991
▁재처리	-11.4991
▁그래함	-11.4991
▁점유율	-11.4992
▁우호적	-11.4992
▁청색	-11.4992
▁로얄	-11.4992
▁음란물	-11.4992
▁생물학적	-11.4992
▁정황	-11.4992
▁위헌	-11.4992
▁함정	-11.4992
▁나이로비	-11.4992
▁위안화	-11.4993
than	-11.4993
▁러브	-11.4993
▁정확하게	-11.4993
하였으나	-11.4993
▁증권거래소	-11.4994
▁은폐	-11.4994
▁봅	-11.4994
▁잠재력	-11.4994
▁hit	-11.4995
▁철강	-11.4995
▁사촌	-11.4995
▁절단	-11.4995
▁소식통에따르면	-11.4996
▁투병	-11.4996
▁wti	-11.4996
▁바이든	-11.4996
▁첫째	-11.4996
▁계단	-11.4997
▁사절단	-11.4997
▁forces	-11.4997
▁화물선	-11.4998
▁경색	-11.4998
▁유머	-11.4998
▁버려진	-11.4999
▁사탕	-11.4999
▁진심	-11.4999
함으로서	-11.4999
▁부착	-11.4999
▁긴장감	-11.5
▁테러범이	-11.5
▁노엘	-11.5001
▁jp	-11.5001
▁유언	-11.5001
▁앞서있다	-11.5003
▁보험금	-11.5003
▁파타당	-11.5003
▁인준	-11.5004
▁분배	-11.5005
▁미얀마에서	-11.5006
▁대통령궁	-11.5007
▁판결문	-11.5007
ney	-11.5008
▁엔화	-11.5008
▁대열	-11.5008
▁알려졌	-11.5009
▁효과적으로	-11.5009
▁마샤	-11.501
▁달렸다	-11.501
▁시청률	-11.501
▁사진에	-11.501
▁육성	-11.5012
▁더미	-11.5012
▁은행은	-11.5013
▁쿠즈	-11.5014
▁시합	-11.5014
▁자체적으로	-11.5014
▁애정	-11.5014
▁상임	-11.5015
▁통역	-11.5016
▁줄리아	-11.5016
▁공공장소에서	-11.5017
▁일정에	-11.5018
판매	-11.5019
▁전념	-11.5021
▁정당화	-11.5023
매치	-11.5024
▁금융계	-11.5024
▁루즈	-11.5024
▁장애물	-11.5025
▁붙였다	-11.5025
eve	-11.5026
▁시작됐으며	-11.5026
▁계속됐다	-11.5027
▁투하	-11.5027
▁전인대	-11.5027
▁합법적으로	-11.5027
▁가졌으며	-11.5028
관리국	-11.5028
▁감수	-11.5028
▁박차	-11.5029
▁인종차별	-11.5029
▁취업	-11.503
▁항의했다	-11.503
▁만들었	-11.5033
▁교실	-11.5033
▁치료법	-11.5034
▁샬	-11.5035
▁팔아	-11.5035
▁치아	-11.5037
▁캘리포니아에서	-11.504
▁남부지역	-11.504
▁과정이	-11.5041
▁있을까	-11.5042
▁도시들	-11.5042
▁신선	-11.5047
어서	-11.5048
▁들소	-11.5048
▁감행한	-11.5048
▁합법적인	-11.5048
form	-11.505
▁오르기	-11.505
▁펜실베이니아주	-11.505
▁wh	-11.505
▁들어왔다	-11.5052
▁금주	-11.5052
▁당선자가	-11.5053
▁의존하고	-11.5057
▁금연법	-11.5059
▁못했으며	-11.5061
▁라파	-11.5061
▁문어	-11.5063
생물학	-11.5064
▁내달	-11.5066
▁대통령으로서	-11.5071
▁수영장	-11.5072
▁돌며	-11.5072
▁교착상태에	-11.5073
▁지원했다	-11.5073
▁치우	-11.5074
▁동상	-11.5076
▁예상치	-11.5076
바인	-11.508
▁양곤에서	-11.5081
▁투표소	-11.5082
▁연맹	-11.5083
▁올드	-11.5085
▁주심	-11.5087
▁목에	-11.5087
▁출판사	-11.5087
▁전용기	-11.5087
▁실질적으로	-11.5087
▁빼고	-11.509
▁들며	-11.5093
▁비티	-11.5095
▁내려가	-11.5096
▁대면	-11.5097
▁숨졌	-11.5098
▁음와	-11.5099
▁기르	-11.51
▁기업체	-11.5102
▁이행할	-11.5103
▁왕국	-11.5103
▁ev	-11.511
▁서울대	-11.511
▁우주센터	-11.5111
▁견디	-11.5114
ease	-11.5119
▁적게	-11.5121
시민	-11.5123
▁측면에서	-11.5124
▁혼인	-11.5124
▁운전자들	-11.5128
▁없었고	-11.5131
▁112	-11.5131
▁작전이	-11.5138
▁220	-11.514
▁96	-11.514
▁해법	-11.514
▁분리주의자들	-11.5142
▁집이	-11.5143
▁토레	-11.5144
▁움	-11.5145
▁영화관	-11.5146
▁홍콩에서	-11.5148
▁국가와	-11.5149
▁이슬라마바드에서	-11.515
▁가계	-11.515
▁카불에서	-11.5152
▁호주군	-11.5155
▁0.1	-11.5157
▁평방	-11.5157
▁궤도에	-11.5159
▁등정	-11.5164
▁만나고	-11.5165
▁걸리는	-11.5166
▁위반했다	-11.5167
▁중단시키	-11.5169
▁제압	-11.517
▁랩	-11.517
▁예고	-11.5172
lin	-11.5174
▁행정부에	-11.5175
▁북한군	-11.5176
▁이끌어내	-11.5176
▁자식	-11.5177
▁발효	-11.5177
▁장점	-11.518
▁손상된	-11.5182
▁모델로	-11.5189
머니	-11.5194
▁변수	-11.5195
▁조사팀	-11.5196
▁대응할	-11.5197
▁바라보	-11.5198
리드	-11.5201
어드	-11.5203
▁서명한	-11.5203
란다	-11.5204
▁충돌해	-11.5205
▁일반인	-11.521
▁시민이	-11.5213
ali	-11.5215
▁게임에	-11.522
▁확보해	-11.5224
fi	-11.5224
▁다운	-11.5225
go	-11.5225
하였고	-11.5228
▁이사장	-11.5228
훈련	-11.5231
▁매력적	-11.5234
▁등록된	-11.5236
▁제기되	-11.5238
▁착용한	-11.5243
▁경찰관이	-11.5243
▁수용소에	-11.5244
▁말고	-11.5247
ties	-11.525
닐	-11.5251
▁벨리	-11.5254
▁전사들	-11.5256
▁하우스	-11.5264
잡지	-11.5267
첸	-11.5277
재판소	-11.5277
▁선정했다	-11.5279
컬	-11.528
사무소	-11.528
▁제조업	-11.5282
앞	-11.5283
▁컨	-11.5284
▁돌아왔	-11.5285
금융	-11.5285
▁석방에	-11.5287
▁마시는	-11.5287
day	-11.5287
변화	-11.529
모델	-11.5291
▁프로그램에서	-11.5293
▁우려해	-11.5294
▁사고기	-11.5296
87	-11.5296
장애	-11.5296
▁충족	-11.5297
▁회복하고	-11.5301
▁조화	-11.5302
정치	-11.5305
버거	-11.5305
레시	-11.5305
▁과다	-11.5314
▁요구한다	-11.5315
▁교황이	-11.5317
카트	-11.5322
상품	-11.5323
▁그루	-11.5324
▁나이에	-11.5325
▁포기한	-11.5329
▁의문이	-11.533
▁민영	-11.5334
어지는	-11.5336
▁얀	-11.534
▁유전적	-11.5342
▁사나	-11.5343
▁고등	-11.5344
▁강화된	-11.5345
▁하와	-11.5345
▁제의	-11.5346
▁공산	-11.5348
겼으며	-11.535
ps	-11.5351
▁다치	-11.5356
▁살해하고	-11.5361
▁전비	-11.5368
▁구사	-11.537
▁무장세력과	-11.5379
▁임명했다	-11.538
▁트럭이	-11.5382
▁합법적	-11.5385
▁선박들	-11.5386
▁cur	-11.5392
▁유대인들	-11.5396
▁적도	-11.5398
▁중태	-11.5399
▁올림픽에	-11.54
▁조장	-11.5405
▁확보에	-11.5405
▁채로	-11.5408
▁공로	-11.5411
보관소	-11.5411
▁팀에	-11.5415
▁혐의와	-11.5415
어요	-11.5422
▁나이로	-11.5423
▁폭발물이	-11.5425
노스	-11.5427
▁여겨	-11.5429
▁심리학자	-11.5431
▁수단으로	-11.5432
▁바다에	-11.5436
▁외계	-11.5438
▁십년	-11.544
▁수준에	-11.5441
▁느끼지	-11.5441
▁관리들과	-11.5448
▁월터	-11.5448
투자	-11.5449
▁미끄러	-11.5451
컷	-11.5452
▁심리적	-11.5453
▁pe	-11.5453
▁정규	-11.5454
겠	-11.5459
메스	-11.5461
▁태어났	-11.5468
▁교회에	-11.5471
▁시달	-11.5471
▁밀집	-11.5471
▁안된다	-11.5472
▁제품들	-11.5473
▁일환	-11.5474
ful	-11.5477
르트	-11.5478
▁친척들	-11.5478
▁미주리	-11.548
획	-11.5482
렬	-11.5482
▁중앙정보	-11.5484
칙	-11.5484
▁뒤따	-11.5485
븐	-11.5485
▁작가들	-11.5486
▁올림픽에서	-11.5486
▁힌두	-11.5487
랙	-11.5487
돔	-11.5488
▁중력	-11.5488
펀	-11.5488
뮤	-11.5488
▁glob	-11.5488
▁앵커	-11.5488
랫	-11.5488
팍	-11.5488
8,000	-11.5488
▁rctv	-11.5488
▁support	-11.5488
▁uae	-11.5488
▁window	-11.5488
▁www	-11.5488
▁갖췄다	-11.5488
▁갤러리	-11.5488
▁끊어	-11.5488
▁네그로폰테	-11.5488
▁뉴욕상업거래소	-11.5488
▁뚜렷	-11.5488
▁매카트니	-11.5488
▁비아그라	-11.5488
▁빨라	-11.5488
▁쓰러져	-11.5488
▁아흐마디네자드	-11.5488
▁않았기	-11.5488
▁영유권	-11.5488
▁와이오밍	-11.5488
▁왜냐하면	-11.5488
▁자민당	-11.5488
▁즈보나레바	-11.5488
▁초콜릿	-11.5488
▁포츠머스	-11.5488
▁해안경비대	-11.5488
▁햇볕	-11.5488
▁현수막	-11.5488
▁흑자	-11.5488
뜯	-11.5488
뭉	-11.5488
푼	-11.5488
▁신생아	-11.5488
▁마리화나	-11.5488
▁딜런	-11.5488
▁센트럴	-11.5488
▁갱단	-11.5488
▁아폴로	-11.5488
▁홈구장	-11.5488
▁헝가리	-11.5488
▁몰아넣	-11.5488
▁함부르크	-11.5488
▁무자비	-11.5488
▁프리츨	-11.5488
▁해들리	-11.5488
▁하루종일	-11.5488
▁heart	-11.5488
▁아이다호	-11.5488
▁발자국	-11.5488
▁france	-11.5488
▁게놈	-11.5489
▁독특	-11.5489
▁혜성	-11.5489
▁마스리	-11.5489
▁연못	-11.5489
▁rock	-11.5489
▁다이앤	-11.5489
▁룰라	-11.5489
▁휴이트	-11.5489
▁가르시아	-11.5489
▁봉착	-11.5489
▁에어웨이	-11.5489
▁cru	-11.5489
▁오스만	-11.5489
▁눈보라	-11.5489
▁출항	-11.5489
▁food	-11.5489
▁경찰관들	-11.5489
▁park	-11.549
▁게시판	-11.549
▁틀림	-11.549
▁척추	-11.549
▁도미니카	-11.549
▁육박	-11.549
▁2.13	-11.549
▁웰스	-11.549
▁창업자	-11.549
▁순결	-11.549
▁라싸	-11.549
▁혼잡	-11.549
▁잠비아	-11.549
▁참의원	-11.549
▁무하마	-11.5491
▁피해여성	-11.5491
▁잡혔다	-11.5491
▁떨어졌습니다	-11.5491
▁매도프	-11.5491
▁막으려	-11.5491
▁돌풍	-11.5492
▁지방법원	-11.5492
▁거슬러	-11.5492
▁솔직하	-11.5492
▁low	-11.5492
▁test	-11.5492
▁faa	-11.5493
▁스몰	-11.5493
▁제이슨	-11.5493
▁묻혀	-11.5493
▁파이프	-11.5493
▁야외	-11.5494
▁7.9	-11.5494
▁인질극	-11.5494
▁기원전	-11.5494
▁없었으며	-11.5495
▁메모리	-11.5495
▁훔쳐	-11.5495
▁1945	-11.5495
▁단언	-11.5496
▁내놓았다	-11.5496
▁버려	-11.5497
▁법령	-11.5497
▁인텔	-11.5497
▁선고받았다	-11.5498
▁고리	-11.5498
▁초드리	-11.5498
▁독립국가	-11.5498
▁재앙	-11.5498
▁조사결과	-11.5498
▁도착하자	-11.5498
▁승진	-11.5499
▁악마	-11.5499
▁슈퍼대의원	-11.55
대상	-11.55
▁해리슨	-11.5501
▁사라질	-11.5502
▁조립	-11.5502
▁복사	-11.5502
▁카이로	-11.5502
▁정박	-11.5503
▁그곳	-11.5503
▁green	-11.5503
▁조율	-11.5503
▁실감	-11.5504
▁예정이지만	-11.5504
▁소행이라	-11.5505
▁숨어	-11.5505
명씩	-11.5505
▁동거	-11.5505
▁캐나다에서	-11.5505
▁남긴	-11.5507
▁뒤이어	-11.5507
▁투여	-11.5508
▁촉발된	-11.5508
▁만연	-11.5509
▁살리기	-11.5511
▁구두	-11.5513
▁점심	-11.5513
▁부양	-11.5513
▁임상	-11.5514
▁크로스	-11.5515
▁케이스	-11.5515
▁인수위원회	-11.5516
▁체포됐으며	-11.5517
▁평론가들은	-11.5518
▁힐러리경	-11.5519
▁측에서는	-11.5519
▁조세	-11.5519
▁잠수	-11.5519
▁걸음	-11.5519
▁다행	-11.552
▁스티	-11.5521
▁무거	-11.5522
▁가져왔다	-11.5522
▁실었다	-11.5523
▁아이오와주	-11.5524
▁제기됐다	-11.5525
▁만회	-11.5525
▁그래픽	-11.5527
▁따내	-11.5527
▁부재	-11.5529
▁목성	-11.5532
능력	-11.5532
▁도피	-11.5532
▁구성원	-11.5533
파크	-11.5535
▁티나	-11.5536
▁레이드	-11.5537
▁기록됐다	-11.5538
▁따라잡	-11.5541
▁배역	-11.5541
▁토드	-11.5542
▁몰리	-11.5543
▁발견해	-11.5544
▁노출되	-11.5545
▁손길	-11.5545
▁추종자들	-11.5546
▁리우	-11.5546
▁os	-11.5547
▁관광객들에게	-11.5547
▁버드	-11.5547
▁하위	-11.5548
▁번개	-11.5549
▁동력	-11.5549
▁3.5	-11.5549
▁연구하는	-11.5549
▁자파	-11.555
▁포크	-11.555
▁카디	-11.555
▁사무국장	-11.5551
▁포즈	-11.5551
▁마루	-11.5553
▁ser	-11.5554
▁mp	-11.5555
▁발표되지	-11.5556
▁참석하는	-11.5557
▁태세	-11.5557
▁멍	-11.5558
▁띠	-11.5559
▁head	-11.5559
▁움직	-11.556
▁중립	-11.556
▁해역	-11.5561
▁서구	-11.5563
▁예산안	-11.5564
▁격돌한	-11.5567
▁끌어내	-11.557
ill	-11.557
▁막았다	-11.5572
▁말했으나	-11.5572
▁기용	-11.5573
▁여왕이	-11.5577
▁집어	-11.558
▁상승하며	-11.558
▁이전에는	-11.5581
▁이제까지	-11.5581
▁혈	-11.5583
▁사우	-11.5584
▁본인	-11.5584
▁공개될	-11.5585
▁만지	-11.5589
▁공격해	-11.5596
▁경찰에게	-11.5601
▁추락해	-11.5603
시간만	-11.5604
▁근본적	-11.5604
ition	-11.5604
▁ump	-11.5606
▁해안가	-11.5609
▁기각했다	-11.5609
▁버린	-11.5613
▁방문했	-11.5617
▁가야	-11.5619
▁시위대에	-11.5623
▁지지했다	-11.5624
▁mid	-11.5624
▁1.2	-11.5627
하느냐	-11.5629
▁북해	-11.563
water	-11.5631
▁날에	-11.5632
▁길게	-11.5633
▁편집장	-11.5633
▁본회의	-11.5637
▁나타난다	-11.5641
비안	-11.5643
▁두번째로	-11.5646
▁노인들	-11.5648
▁정해진	-11.5648
▁지나간	-11.5651
▁신뢰할	-11.5652
▁지켜보고	-11.5655
▁빌라	-11.5656
▁위험하다	-11.5657
▁잘라	-11.5658
▁차이나	-11.566
▁벌여왔	-11.5665
▁효율	-11.5674
▁몰아내	-11.5676
▁쓰인	-11.5679
만대	-11.5684
▁농부들	-11.5687
▁노린	-11.5698
▁보내지	-11.57
▁연행됐다	-11.5703
여년	-11.5705
▁가져가	-11.5709
▁낙관	-11.5709
▁주시하	-11.5713
▁조심	-11.5713
▁포기하고	-11.5713
▁84	-11.5716
▁페트	-11.5718
데릭	-11.5722
▁않았다면	-11.5725
▁결정하지	-11.5725
▁광장에서	-11.5728
▁죽였다	-11.5735
▁처했다	-11.5738
▁하루만	-11.5739
▁경기장에서	-11.5739
▁북한측	-11.5741
▁조사관	-11.5742
상태에	-11.5743
▁무대에	-11.5744
▁노던	-11.5744
ord	-11.5745
▁높이기	-11.5751
cal	-11.5752
▁개들	-11.5758
▁센터에서	-11.5763
▁주최한	-11.5768
여건	-11.5774
▁팔레스타인인들	-11.578
▁션	-11.5783
▁임무에	-11.5783
985	-11.5783
▁외곽에	-11.5789
▁위원회에	-11.5791
접	-11.5793
▁운항이	-11.5793
▁걸렸	-11.5794
▁주전	-11.5798
▁대상자	-11.5799
▁하나다	-11.5802
▁128	-11.5804
물리학	-11.5806
시리즈	-11.5809
뒤	-11.581
앨	-11.581
워스	-11.5814
▁이라크인들	-11.5816
▁위협받	-11.5816
▁아파	-11.582
아시아	-11.5823
▁주석이	-11.5826
에너지	-11.5828
월말	-11.5831
▁타지	-11.5833
연방	-11.5835
uni	-11.5836
▁농부	-11.584
여행	-11.5845
▁135	-11.5847
▁별개	-11.5849
▁아서	-11.5849
▁동물원에서	-11.5851
유지	-11.5851
mar	-11.5853
▁재계	-11.586
▁커플은	-11.5866
▁정신병	-11.587
▁191	-11.5879
봤다	-11.5882
신원	-11.5885
▁샌프란시스코에서	-11.5885
▁업무에	-11.589
▁sen	-11.5891
▁개정된	-11.5894
철도	-11.5895
▁하드	-11.5895
▁부분에서	-11.5896
▁집중적	-11.5897
리프	-11.5899
밀리에	-11.5899
▁시청자	-11.5905
▁주관	-11.5909
▁이집트에서	-11.591
▁아사	-11.5918
비드	-11.592
▁파악하	-11.5922
▁절반이	-11.5924
아주	-11.5925
▁모가디슈	-11.5926
52	-11.5926
▁회피	-11.5928
▁월스트리트에서	-11.5932
살된	-11.5935
mas	-11.5935
▁밀리	-11.5953
▁호전	-11.5957
▁동의한다	-11.5958
94	-11.5961
▁마드리드에서	-11.5962
▁고속도로에서	-11.5962
▁조사하는	-11.5963
우며	-11.597
▁생산된	-11.5972
벨라	-11.5975
▁측근들	-11.5975
모리	-11.5977
▁구속됐다	-11.5977
▁일년	-11.5979
▁금요일에	-11.5982
단지	-11.5984
▁방문한다	-11.5994
ical	-11.5994
▁서기	-11.6003
▁right	-11.6004
tter	-11.6005
ham	-11.6006
▁꼬리	-11.6006
▁감염되	-11.6008
▁해외로	-11.601
듬	-11.6012
깃	-11.6013
▁이용했다	-11.6013
▁meet	-11.6013
▁첨단	-11.6014
▁economy	-11.6014
▁hostage	-11.6014
▁strike	-11.6014
▁travel	-11.6014
▁가솔린	-11.6014
▁꿀벌	-11.6014
▁낳았다	-11.6014
▁니스텔로이	-11.6014
▁동성결혼	-11.6014
▁디스플레이	-11.6014
▁르완다	-11.6014
▁리트비넨코	-11.6014
▁메르세데스	-11.6014
▁미항공우주국	-11.6014
▁밀라노	-11.6014
▁바랍니다	-11.6014
▁박정희	-11.6014
▁방코델타아시아	-11.6014
▁버틀러	-11.6014
▁베를루스코니	-11.6014
▁북대서양	-11.6014
▁불매운동	-11.6014
▁성매매	-11.6014
▁심장질환	-11.6014
▁아제르바이잔	-11.6014
▁앙카라	-11.6014
▁애틀랜티스호	-11.6014
▁옥스포드	-11.6014
▁요하네스버그	-11.6014
▁정권인수팀	-11.6014
▁좋겠다	-11.6014
▁즐거움	-11.6014
▁찍힌	-11.6014
▁칠면조	-11.6014
▁토튼햄	-11.6014
▁핸드폰	-11.6014
늄	-11.6014
늬	-11.6014
옌	-11.6014
콥	-11.6014
펙	-11.6014
▁power	-11.6015
▁노워크	-11.6015
▁니제르	-11.6015
▁영사관	-11.6015
▁인공위성	-11.6015
▁재규어	-11.6015
▁합법화	-11.6015
▁usgs	-11.6015
▁순이익	-11.6015
▁스즈키	-11.6015
employ	-11.6015
▁조선일보	-11.6015
▁urge	-11.6015
▁나뉘어	-11.6015
▁오사카	-11.6015
▁원자재	-11.6015
▁카펠로	-11.6015
▁로날드	-11.6015
▁예정이었으나	-11.6015
▁1983	-11.6015
▁사직서	-11.6015
▁비너스	-11.6015
▁선거유세	-11.6015
▁핀란드	-11.6015
▁징조	-11.6015
▁셰퍼드	-11.6015
▁대운하	-11.6015
▁막바지	-11.6015
▁사형선고	-11.6015
▁관절염	-11.6015
▁나이트클럽	-11.6015
▁그려진	-11.6015
▁페라로	-11.6015
▁강원도	-11.6015
▁블랙워터	-11.6015
▁프라이스	-11.6015
▁묵념	-11.6015
▁번화가	-11.6015
▁참혹	-11.6015
▁반짝이	-11.6015
▁그리핀	-11.6015
▁몸싸움	-11.6015
▁노숙자	-11.6015
▁아이튠	-11.6015
▁체첸	-11.6015
▁하이킹	-11.6015
▁액션	-11.6015
▁드라이브	-11.6015
▁키드먼	-11.6015
▁파란색	-11.6015
▁빠져나가	-11.6015
▁bill	-11.6015
▁역전승	-11.6016
▁와일드	-11.6016
▁휘말	-11.6016
point	-11.6016
▁인내심	-11.6016
▁재건축	-11.6016
▁쉽다	-11.6016
▁바오로	-11.6016
▁군복무	-11.6016
▁그린존	-11.6016
▁잠수함	-11.6016
▁부드러	-11.6016
▁크리스틴	-11.6017
▁관례	-11.6017
▁형벌	-11.6017
▁휴먼	-11.6017
▁부유층	-11.6017
▁넘겼다	-11.6017
▁쏟아져	-11.6017
▁정회장	-11.6018
▁오닐	-11.6018
▁파라오	-11.6018
▁soldiers	-11.6018
▁불빛	-11.6018
▁좌우	-11.6018
▁가정집	-11.6018
aut	-11.6019
▁소방차	-11.6019
▁요구사항	-11.6019
▁연봉	-11.602
▁생물체	-11.602
▁꾸미	-11.602
▁터져	-11.602
▁환급	-11.602
▁표범	-11.6021
▁어디서	-11.6021
▁직무	-11.6021
▁괴물	-11.6021
▁난항	-11.6021
▁부국장	-11.6022
▁라이더	-11.6022
▁숨져	-11.6022
▁저격	-11.6022
▁아흐메드	-11.6023
▁그레이스	-11.6023
▁deal	-11.6023
▁놓인	-11.6023
▁마스크	-11.6023
▁샤리아	-11.6024
▁푸미	-11.6024
▁들렸다	-11.6024
▁미주리주	-11.6024
▁곤경에	-11.6025
▁기준에	-11.6025
▁접종	-11.6025
▁명절	-11.6025
▁카누	-11.6025
▁사귀	-11.6025
▁기다렸다	-11.6026
▁가져오	-11.6026
▁아비	-11.6026
▁티모	-11.6026
▁개체	-11.6026
ness	-11.6026
▁난처	-11.6027
계약	-11.6027
▁만들어졌다	-11.6027
▁속출	-11.6028
▁반란군	-11.6028
▁aft	-11.6028
▁드러나	-11.6029
▁허브	-11.6029
▁사과문	-11.6029
▁경감	-11.6029
▁비틀	-11.6029
▁미시건주	-11.6029
▁보였으며	-11.6029
▁며칠간	-11.603
▁굽	-11.6032
▁카렌	-11.6032
▁각료회의	-11.6033
▁지켜봤다	-11.6033
클라	-11.6034
▁표정	-11.6034
▁사립	-11.6034
▁루이지애나주	-11.6035
▁570	-11.6035
our	-11.6035
▁공작	-11.6036
▁제약회사	-11.6037
▁테디	-11.6037
▁유타주	-11.6038
▁그런데	-11.6038
▁구제금융안	-11.6039
▁통과된	-11.6039
▁매설	-11.604
있지	-11.6041
▁벤치	-11.6041
▁생길	-11.6041
▁해커	-11.6044
▁이르다	-11.6044
▁형량	-11.6044
▁소송에서	-11.6044
▁반세기	-11.6045
▁째	-11.6046
왔으며	-11.6048
▁치타	-11.6049
▁예상한	-11.605
▁주장했었다	-11.6051
▁로열	-11.6052
▁360	-11.6052
▁들어있다	-11.6052
▁펜실베니아주	-11.6053
▁외신	-11.6053
▁국가들에	-11.6055
▁불행한	-11.6056
▁거행	-11.6056
▁중장	-11.6056
▁히스	-11.6059
그램	-11.6059
▁친분	-11.6061
▁돌진	-11.6061
▁구직	-11.6063
신고서	-11.6063
▁정보원	-11.6064
▁의약	-11.6064
▁블루스	-11.6065
▁총력	-11.6066
▁날려	-11.6067
▁페어	-11.6068
▁압도적으로	-11.6069
▁연관성	-11.6069
▁은신	-11.6069
▁판매되	-11.607
▁set	-11.6071
▁카카	-11.6071
▁반경	-11.6073
▁회복세	-11.6074
▁루트	-11.6074
▁미션	-11.6075
▁쉴	-11.6075
▁끝나기	-11.6075
▁인내	-11.6076
▁찔	-11.6078
▁기조	-11.6079
▁플로리다에	-11.608
▁자질	-11.608
▁소령은	-11.608
▁과거사	-11.608
▁최다	-11.6081
▁민족주의	-11.6082
전화	-11.6085
스프링스	-11.6086
▁입원해	-11.6086
▁질병에	-11.6087
▁의거	-11.6089
▁퓨	-11.6089
▁가담한	-11.6091
▁수송기	-11.6091
▁저하	-11.6092
▁분주	-11.6094
▁밝혔고	-11.6096
▁위원회에서	-11.6096
타카	-11.6098
▁보잉사	-11.6098
▁천국	-11.6098
▁우수	-11.6099
▁산책로	-11.6099
▁97	-11.6102
▁관여하	-11.6103
▁2.4	-11.6105
▁무너지고	-11.6106
▁나포	-11.6106
▁구속력	-11.6107
되도록	-11.6107
▁벌인다	-11.6108
▁나간	-11.611
▁스트리트	-11.6112
▁comp	-11.6113
▁연합통신	-11.6114
▁상징으로	-11.6114
we	-11.6114
men	-11.6114
▁되었	-11.6115
▁건스	-11.6115
했거나	-11.6118
▁주행	-11.6119
▁나노	-11.6119
▁한창	-11.612
▁cut	-11.6123
▁타개	-11.6125
▁복도	-11.6125
▁라드	-11.6126
▁총회에서	-11.6128
▁소원	-11.6129
▁우표	-11.6133
▁국경지역에서	-11.6136
▁모색하고	-11.6139
▁했는지	-11.6144
▁크루	-11.6145
▁촬영된	-11.6146
▁보이지만	-11.6149
▁교류	-11.6153
▁정서	-11.6153
▁설립했다	-11.6154
▁책상	-11.6157
▁국가적	-11.6157
▁석유회사	-11.6158
▁인사들과	-11.6158
▁다닐	-11.6162
▁교사들	-11.6164
▁통신에	-11.6165
▁주제로	-11.6169
▁놓치	-11.617
요원들	-11.6174
였음	-11.6176
dition	-11.6182
▁법규	-11.6182
메이어	-11.6183
▁이겼다	-11.6184
▁들어있	-11.619
▁얼굴에	-11.6191
▁수사관들	-11.6191
▁건물들	-11.6191
▁내부에서	-11.6195
가렛	-11.62
▁들어왔	-11.6202
카니	-11.6203
▁증상이	-11.6204
▁인종적	-11.6206
▁진압하기	-11.6208
▁매춘부	-11.621
▁얻었	-11.6211
▁프린	-11.6211
arly	-11.6213
▁지시한	-11.6214
▁클레이	-11.6214
▁추방된	-11.6218
▁설명하지	-11.6221
▁바에따르면	-11.6221
▁남쪽에	-11.6222
▁부각	-11.6222
▁결혼한	-11.6224
▁롭	-11.6229
상자	-11.623
▁원주민들	-11.6231
▁컬	-11.6236
▁청문회에서	-11.624
듯이	-11.6247
▁들려	-11.625
▁비난해	-11.6251
명이었다	-11.6251
▁행복한	-11.6254
▁기독교인	-11.6255
▁조심스럽	-11.6256
▁다르지	-11.6257
▁일했다	-11.6257
▁환경에서	-11.6257
▁매도	-11.6258
문제에	-11.6258
▁미안	-11.6259
▁여당이	-11.6264
▁인질들은	-11.6266
▁대장	-11.6267
▁심리에서	-11.6269
▁회사에서	-11.627
제작	-11.6271
이어서	-11.6273
▁보니	-11.6273
▁참여하고	-11.6273
▁따르지	-11.6277
▁영향으로	-11.6278
▁실직자	-11.6279
▁사령관이	-11.6282
▁콜로	-11.6288
자키	-11.6289
▁때보다	-11.629
▁sea	-11.6292
▁top	-11.6293
▁210	-11.6294
▁통과했다	-11.6302
▁고독	-11.6304
▁배우자	-11.6304
▁독자적	-11.6306
▁거부할	-11.6307
▁주어진	-11.6308
▁드리	-11.6312
▁그녀에게	-11.6313
▁통신원	-11.6313
▁poll	-11.6317
ler	-11.632
▁북쪽에	-11.6327
바락	-11.6328
▁시드니에서	-11.6329
대통령	-11.6331
ens	-11.6339
▁목적지	-11.6341
▁존재하지	-11.6344
밤	-11.6345
▁권했다	-11.6349
▁희생됐다	-11.635
▁싶어하	-11.635
활	-11.635
▁정상회담에	-11.6351
▁번호	-11.6353
▁기기	-11.6354
▁도발적	-11.6357
▁죽고	-11.6358
▁추측이	-11.636
랩	-11.6361
open	-11.6362
붙	-11.6363
턱	-11.6363
▁상반	-11.6365
클럽	-11.6366
최초	-11.6366
▁져야	-11.6367
▁이어져	-11.6367
지휘	-11.6371
▁가시	-11.6376
진압	-11.6377
▁국무장관과	-11.638
ue	-11.6382
▁자원봉사자들	-11.6383
▁바라지	-11.6391
▁거부하는	-11.6407
▁고통스러	-11.6414
▁중앙일보는	-11.6415
▁어기	-11.642
마트	-11.642
▁미미	-11.6423
▁1,2	-11.6426
▁현대적	-11.6432
천여	-11.6433
▁관람객	-11.6437
▁보스	-11.6438
▁중위	-11.644
할지도	-11.644
▁구속했다	-11.6445
73	-11.6447
▁변호사와	-11.6447
▁지었다	-11.6448
▁벌이다	-11.6449
979	-11.6451
▁차량과	-11.6456
▁힘들었	-11.6462
할때	-11.6467
▁여론조사에	-11.6471
▁126	-11.6471
▁2.2	-11.6477
▁롱	-11.6477
▁만들어지	-11.6478
▁ko	-11.6481
▁훔	-11.6485
▁호스	-11.649
▁죽음이	-11.6492
ound	-11.6492
▁동원됐다	-11.6494
저널	-11.6498
▁방에서	-11.65
▁달했다	-11.6508
▁제국	-11.6509
▁임원들	-11.6512
▁소방서	-11.6513
pt	-11.6514
▁노출된	-11.6514
▁제작했다	-11.6517
▁corp	-11.6532
▁시행되	-11.6533
▁사원에	-11.6534
illi	-11.654
▁정교	-11.6542
▁극단주의	-11.6544
▁사진기자	-11.6545
▁권장	-11.6548
▁유학	-11.655
▁재확인	-11.6551
심리	-11.6551
▁다해	-11.6552
▁바람직	-11.6552
▁계열	-11.6553
▁파예드는	-11.6554
▁마티	-11.6557
▁service	-11.6558
▁역설	-11.6559
▁말하	-11.6561
▁반대해	-11.6563
홉	-11.6566
▁무효	-11.6568
▁kill	-11.6569
궐	-11.657
▁살모넬라	-11.657
▁헌법에	-11.657
톡	-11.657
▁grow	-11.657
▁200809.0	-11.657
▁business	-11.657
▁california	-11.657
▁committee	-11.657
▁dead	-11.657
▁epl	-11.657
▁isaf	-11.657
▁nhc	-11.657
▁paris	-11.657
▁return	-11.657
▁개성공단	-11.657
▁걸림돌	-11.657
▁경기후퇴	-11.657
▁국제올림픽위원회	-11.657
▁금강산	-11.657
▁긱스	-11.657
▁깁슨	-11.657
▁남우주연상	-11.657
▁뉴잉글랜드	-11.657
▁늦추	-11.657
▁대니얼	-11.657
▁독극물	-11.657
▁라크시미	-11.657
▁상임이사국	-11.657
▁새크라멘토	-11.657
▁샌안토니오	-11.657
▁서둘러	-11.657
▁선거기부금	-11.657
▁세골렌	-11.657
▁신행정수도	-11.657
▁아프카니스탄	-11.657
▁악천후	-11.657
▁애슐리	-11.657
▁옮겼다	-11.657
▁유엔사무총장	-11.657
▁이바노비치	-11.657
▁이어갔다	-11.657
▁자르카위	-11.657
▁재결합	-11.657
▁지켰다	-11.657
▁췌장암	-11.657
▁컸다	-11.657
▁쿠즈넷소바	-11.657
▁키티호크	-11.657
▁하드웨어	-11.657
▁헐리우드	-11.657
▁히스패닉	-11.657
습니까	-11.657
시켰으며	-11.657
쯔	-11.657
캇	-11.657
▁대법관	-11.657
▁제퍼슨	-11.657
▁즐거운	-11.657
▁화성탐사	-11.657
sweek	-11.657
▁나타날	-11.657
▁불공정	-11.657
▁석유수출	-11.657
▁추기경	-11.657
▁회교도	-11.657
▁유동성	-11.657
▁승부차기	-11.657
▁루카스	-11.657
▁개구리	-11.657
▁백과사전	-11.657
▁하니야	-11.657
▁big	-11.657
▁깁스	-11.657
▁산체스	-11.657
▁다둘라	-11.657
▁어쩔	-11.657
▁즐겁	-11.657
▁million	-11.657
▁music	-11.657
▁어렸을	-11.657
▁바시르	-11.657
▁희귀	-11.657
▁캐롤라인	-11.657
▁진짜	-11.657
▁진상조사	-11.657
▁그만두	-11.6571
▁시달리	-11.6571
▁탈퇴	-11.6571
▁익숙	-11.6571
▁적혀있	-11.6571
▁욕구	-11.6571
▁게이머	-11.6571
으므로	-11.6571
▁바레인	-11.6571
▁글로리아	-11.6571
▁부모님	-11.6571
▁음향	-11.6571
▁항구도시	-11.6571
▁즐겨	-11.6571
▁four	-11.6571
▁기념행사	-11.6571
▁스프레이	-11.6572
▁잠자리	-11.6572
▁쿠마르	-11.6572
▁출현	-11.6572
▁밀매	-11.6572
action	-11.6572
▁핵연료	-11.6572
▁run	-11.6572
▁벌어질	-11.6572
▁잠겨	-11.6572
▁오래전부터	-11.6572
height	-11.6572
▁uci	-11.6573
▁플루	-11.6573
▁호황	-11.6573
▁case	-11.6573
▁어워드	-11.6573
▁양육	-11.6573
▁액체	-11.6574
▁표결에	-11.6574
▁디젤	-11.6574
▁들어올	-11.6574
▁어윈	-11.6574
▁평화협정	-11.6574
▁빙산	-11.6574
▁컬럼비아호	-11.6574
▁오디오	-11.6574
▁실망감	-11.6575
▁옮겨졌다	-11.6575
▁찰리	-11.6575
▁루머	-11.6576
▁국제축구연맹	-11.6577
▁버리고	-11.6577
▁카타르	-11.6577
▁기네스	-11.6578
▁attacks	-11.6578
▁에밀리	-11.6578
▁무척	-11.6578
▁중동평화회의	-11.6578
▁오리건주	-11.6578
▁모여들었다	-11.6579
▁표본	-11.6579
화씨	-11.6579
▁강철	-11.658
▁의논	-11.658
▁집결	-11.6581
▁누출	-11.6581
▁충성	-11.6581
▁빅토	-11.6582
▁교도통신	-11.6582
▁꺼내	-11.6583
▁현저	-11.6583
▁770	-11.6584
▁자국민	-11.6585
▁탈선	-11.6585
nois	-11.6585
▁궁극적으로	-11.6585
▁기대감	-11.6586
▁ces	-11.6586
▁진동	-11.6587
▁제왕	-11.6588
▁밝혀질	-11.6588
ood	-11.6589
▁삼바	-11.6589
브리지	-11.6589
▁출산율	-11.659
▁별장	-11.659
▁소유즈	-11.659
▁어류	-11.6591
▁king	-11.6591
▁종사하	-11.6591
▁눈으로	-11.6592
▁다름	-11.6592
▁과속	-11.6592
▁통제권	-11.6592
▁1930	-11.6593
▁won	-11.6593
▁로렌스	-11.6594
▁확정된	-11.6594
▁수익금	-11.6594
973	-11.6594
▁bid	-11.6595
▁비스타	-11.6595
▁과감	-11.6595
▁않을까	-11.6595
▁불량	-11.6596
▁로렌	-11.6596
▁토티	-11.6597
976	-11.6598
▁점유	-11.6598
▁적법	-11.6599
▁코란	-11.6599
▁진척	-11.6599
▁정복	-11.66
▁지지해	-11.66
▁애리조나주	-11.6601
▁가져야	-11.6601
▁센터에	-11.6601
red	-11.6601
▁감당	-11.6602
▁변호인단	-11.6602
▁지하실	-11.6604
eic	-11.6604
▁망치	-11.6604
▁친미	-11.6605
▁촉진시키	-11.6605
▁알아야	-11.6607
▁싶다면	-11.6608
▁사료	-11.661
▁여러차례	-11.661
▁원형	-11.6612
▁썩	-11.6613
▁파이낸셜	-11.6613
▁자동차업체	-11.6614
▁성실	-11.6614
▁항공편	-11.6615
▁돌파구	-11.6615
▁난관	-11.6615
▁수사팀	-11.6616
▁세상에	-11.6617
▁북극해	-11.6617
▁아담스	-11.6619
▁거울	-11.662
▁부의장	-11.6621
▁소비자들에게	-11.6622
▁되자	-11.6623
▁준결승전에서	-11.6624
▁벗어나기	-11.6625
04	-11.6626
az	-11.6626
▁4500	-11.6627
▁바탕으로	-11.6628
▁부패혐의	-11.663
▁원내	-11.6631
▁사용하여	-11.6632
▁선교	-11.6633
dy	-11.6634
▁리마	-11.664
▁병장	-11.664
▁안았다	-11.6641
▁정부측	-11.6642
▁발명	-11.6643
▁레비	-11.6643
▁분개	-11.6644
▁지냈다	-11.6645
▁변하지	-11.6646
▁장군이	-11.6646
▁1300	-11.6649
호선	-11.6649
▁새우	-11.6651
▁지질학	-11.6652
▁수십만	-11.6653
▁자백	-11.6653
▁come	-11.6656
▁군용	-11.6657
▁대미	-11.666
▁체스	-11.6662
▁bet	-11.6662
▁쿠폰	-11.6664
▁스티븐스	-11.6664
▁클라인	-11.6665
▁계약서	-11.6665
ift	-11.6668
대학교	-11.6679
▁주말까지	-11.6679
▁한국어	-11.6681
▁확정됐다	-11.6682
▁선서	-11.6683
세대	-11.6684
▁중심부에서	-11.6684
▁플로리다에서	-11.6689
▁허용했다	-11.6689
▁말레이시아에서	-11.6691
ast	-11.6692
▁공약으로	-11.6694
ana	-11.6696
▁이해하고	-11.6698
▁운동화	-11.6698
군요	-11.67
▁트럭에	-11.6701
▁카라치에서	-11.6702
▁조사관들	-11.6703
▁육지	-11.6703
▁축하하기	-11.6706
▁바꾸기	-11.6709
▁살아있	-11.6711
▁물건들	-11.6712
▁거주자	-11.672
▁나빠	-11.6728
▁통제하는	-11.6728
우리	-11.6732
▁떠나기	-11.6734
▁그외	-11.6736
▁철회할	-11.6746
▁사령부	-11.6746
▁생사	-11.6754
▁음식점	-11.6754
▁농장에서	-11.6757
▁가루	-11.676
▁신뢰도	-11.6765
▁이재민들	-11.6767
▁뒷받침	-11.6768
탈루	-11.6769
▁승인한	-11.677
▁청와대에서	-11.6771
하다며	-11.6773
▁다양성	-11.6787
▁블로거	-11.6788
루드	-11.6791
▁중심부에	-11.6794
타스	-11.6796
▁누구에게	-11.6797
롤라	-11.6804
▁베니스	-11.6804
▁중단해야	-11.6804
▁장애인	-11.6805
▁사용된다	-11.6805
해왔으며	-11.6806
rate	-11.6807
▁생산성	-11.6808
▁대위	-11.6814
▁깨고	-11.6815
▁연구자들	-11.6816
▁개별	-11.6817
▁폭도	-11.6823
▁사라져	-11.6828
▁취하는	-11.6828
▁부위에	-11.6833
▁농구	-11.6838
▁320	-11.6838
▁적었다	-11.6844
▁이해하는	-11.6847
▁살아있다	-11.6861
드미	-11.6872
▁오르고	-11.6881
▁컴	-11.6883
▁way	-11.6889
▁우승했다	-11.6891
▁웬	-11.6892
▁주식시장에서	-11.6895
▁주어지	-11.6898
▁cas	-11.6903
▁전차	-11.6904
▁협력해	-11.6907
▁타계했다	-11.6907
▁넘었다	-11.6909
▁물자	-11.691
ok	-11.691
▁채워	-11.6913
▁관중들	-11.6914
▁환자에게	-11.692
ama	-11.6922
▁예루살렘에서	-11.6923
▁생명에	-11.6928
▁파티에	-11.6929
▁정상들이	-11.693
1974	-11.6935
죽	-11.6937
▁합류했다	-11.6938
▁상점들	-11.6938
▁마련하고	-11.6941
▁다나	-11.6942
▁오르지	-11.6945
▁생겼	-11.6945
▁집권한	-11.6947
축구	-11.6951
페이스	-11.6951
▁우주국	-11.6952
쥐	-11.6952
랭킹	-11.6954
잘	-11.6954
▁출연할	-11.6955
▁흥분한	-11.6956
보험	-11.6956
혁	-11.6958
▁흔적이	-11.696
▁지배하	-11.6964
▁사회에서	-11.6964
▁살기	-11.6964
업무	-11.6965
▁분리된	-11.6968
▁감소하고	-11.697
집단	-11.6975
▁무장세력들	-11.698
▁체포됐	-11.6982
신청	-11.6983
▁되는데	-11.6987
▁갖지	-11.6988
바오	-11.699
▁경우에는	-11.6994
▁텐	-11.6996
▁270	-11.7014
▁시작된다	-11.7016
▁전화기	-11.7016
▁같지	-11.7016
▁혁신적	-11.7017
▁회의적	-11.7022
▁금지했다	-11.7023
▁자동차회사	-11.7023
시절	-11.7024
▁기존에	-11.7024
시키다	-11.7025
▁제한된	-11.7026
▁내역	-11.7037
▁냈	-11.705
중단	-11.7054
▁거점	-11.7056
▁해변에	-11.7062
▁nation	-11.7067
라프	-11.7076
▁대부	-11.7076
공원	-11.7077
▁대항하는	-11.7079
▁당사자들	-11.7083
▁자백했다	-11.7088
▁소실	-11.7089
▁취하기	-11.7099
▁분리주의	-11.71
운영	-11.7101
▁이슬람교도	-11.7104
▁프레이	-11.7105
효	-11.7109
▁요청으로	-11.711
▁아프간군	-11.7111
▁국민과	-11.7115
나요	-11.712
▁죽어	-11.7122
▁결정하는	-11.7124
▁메디컬	-11.7129
▁전해진	-11.7134
▁라만	-11.7137
▁보라	-11.7139
▁일축	-11.714
▁미시건	-11.7142
▁act	-11.7144
▁희	-11.7144
주일간	-11.7145
▁브랜	-11.7145
▁준결승	-11.7148
▁주차장	-11.7152
랍	-11.7152
org	-11.7153
셉	-11.7155
둬	-11.7155
륜	-11.7156
왓	-11.7156
놔	-11.7158
툰	-11.7158
팽	-11.7158
▁church	-11.7158
▁earth	-11.7158
▁iwc	-11.7158
▁organization	-11.7158
▁program	-11.7158
▁unhcr	-11.7158
▁검정색	-11.7158
▁고르바초프	-11.7158
▁공상과학	-11.7158
▁굉장히	-11.7158
▁구소련	-11.7158
▁국영언론	-11.7158
▁뇌졸중	-11.7158
▁더글라스	-11.7158
▁듣게	-11.7158
▁리우데자네이루	-11.7158
▁먹어	-11.7158
▁메릴린치	-11.7158
▁몰랐다	-11.7158
▁미확인	-11.7158
▁민주노동당	-11.7158
▁바나프샤	-11.7158
▁볼티모어	-11.7158
▁블래터	-11.7158
▁빈민층	-11.7158
▁샀다	-11.7158
▁스필버그	-11.7158
▁시에라리온	-11.7158
▁식품의약국	-11.7158
▁신시내티	-11.7158
▁아디다스	-11.7158
▁않았었다	-11.7158
▁암스테르담	-11.7158
▁에스트라다	-11.7158
▁여중생	-11.7158
▁예방접종	-11.7158
▁위태롭게	-11.7158
▁인신매매	-11.7158
▁자페타	-11.7158
▁조류독감	-11.7158
▁좁혀	-11.7158
▁준이치로	-11.7158
▁찍어	-11.7158
▁타이타닉	-11.7158
▁트러스트	-11.7158
▁트리폴리	-11.7158
▁포유류	-11.7158
▁햇빛	-11.7158
▁확립	-11.7158
▁흩어져	-11.7158
뚝	-11.7158
띤	-11.7158
샨	-11.7158
퐁	-11.7158
▁demand	-11.7158
▁eads	-11.7158
▁gdp	-11.7158
▁마스터즈	-11.7158
▁솔직히	-11.7158
▁언젠가	-11.7158
▁영업이익	-11.7158
▁정찰위성	-11.7158
▁항공모함	-11.7158
▁헤드폰	-11.7158
▁kbs	-11.7158
▁thai	-11.7158
▁정보통신부	-11.7158
▁존엄성	-11.7158
▁쿼터백	-11.7158
▁irna	-11.7158
▁다이어트	-11.7158
▁사이언스	-11.7158
▁메이도프	-11.7158
▁상무부	-11.7158
▁타디치	-11.7158
▁하토야	-11.7158
▁대성당	-11.7158
▁흥정	-11.7158
▁버나드	-11.7158
▁카펫	-11.7158
▁치뤄	-11.7158
▁놀이공원	-11.7158
▁스틸러스	-11.7158
▁강대국	-11.7158
▁버크헤드	-11.7158
▁고등학생	-11.7159
▁경수로	-11.7159
▁씨앗	-11.7159
▁사진작가	-11.7159
▁특혜	-11.7159
▁패트로스	-11.7159
▁senate	-11.7159
▁통합민주당	-11.7159
▁journal	-11.7159
▁슬픈	-11.7159
▁북아일랜드	-11.7159
▁트랙	-11.7159
▁정착촌	-11.7159
▁질병통제	-11.7159
▁작가조합	-11.7159
▁당뇨병	-11.7159
▁낭독	-11.7159
▁침착하	-11.7159
▁도망쳤다	-11.7159
▁현대자동차	-11.7159
▁출혈	-11.7159
▁휴전협정	-11.7159
▁블랙홀	-11.7159
▁체험	-11.7159
▁클릭	-11.7159
▁고아원	-11.7159
▁mtv	-11.716
▁크랜	-11.716
▁볼드윈	-11.716
▁상기	-11.716
▁헬렌	-11.716
▁식별	-11.716
▁총파업	-11.716
▁항의시위	-11.716
▁007	-11.7161
▁tsa	-11.7161
▁신흥	-11.7161
▁force	-11.7161
▁유대교	-11.7161
▁리옹	-11.7161
▁십자가	-11.7161
▁출처	-11.7161
▁키팅	-11.7161
▁내륙	-11.7162
▁조세프	-11.7162
▁다저스	-11.7162
▁절망	-11.7162
▁계승	-11.7162
▁부활절	-11.7162
▁탄원서	-11.7163
▁몰락	-11.7163
▁단원	-11.7163
▁무장조직	-11.7163
▁무효화	-11.7163
▁연립	-11.7164
▁살인사건	-11.7164
▁통신망	-11.7164
▁용감	-11.7165
▁프린트	-11.7165
▁완구	-11.7165
▁제휴	-11.7165
▁올라왔다	-11.7165
▁흠	-11.7166
▁머무르	-11.7166
▁최신작	-11.7166
▁엔론	-11.7166
▁ask	-11.7166
▁운용	-11.7166
▁검역	-11.7166
▁야망	-11.7166
▁종목	-11.7166
▁환경단체	-11.7167
▁돌렸다	-11.7167
▁평화롭	-11.7167
▁로리언	-11.7167
▁축복	-11.7167
▁나토군이	-11.7167
▁즉석	-11.7167
▁피켓	-11.7168
▁경찰국장	-11.7169
▁청산	-11.7169
▁켄트	-11.7169
▁최장	-11.7169
▁물리학자	-11.717
▁오델	-11.717
▁1967	-11.7171
▁열광	-11.7171
▁상환	-11.7171
▁근방	-11.7171
▁소년병	-11.7171
▁폴락	-11.7171
▁넘긴	-11.7172
▁할렘	-11.7172
▁야채	-11.7173
▁최적	-11.7173
▁inc	-11.7174
▁견제	-11.7174
▁aids	-11.7174
▁강탈	-11.7174
▁2015	-11.7175
▁years	-11.7175
▁보내졌다	-11.7176
▁worker	-11.7176
▁귀중	-11.7177
▁오찬	-11.7177
▁화면에	-11.7177
▁국무회의	-11.7178
▁흔들며	-11.7178
▁737	-11.7179
▁절정	-11.718
▁관제	-11.718
▁악수	-11.7181
▁의장직	-11.7182
▁발령했다	-11.7183
▁타워	-11.7183
▁휴전선	-11.7183
▁황소	-11.7184
▁단계로	-11.7186
▁참석자들	-11.7187
▁밀크	-11.7187
▁배출량	-11.719
▁배아줄기세포	-11.7191
▁격전	-11.7191
▁파란	-11.7192
▁공동체	-11.7192
▁주의보	-11.7193
▁결선	-11.7193
▁소포	-11.7193
짐에따라	-11.7194
▁자재	-11.7195
▁정문	-11.7195
▁진술서	-11.7195
펠드	-11.7196
▁중요하게	-11.7197
먼트	-11.7197
▁기자실	-11.7198
▁지상군	-11.72
▁바다위	-11.7201
▁체력	-11.7204
▁메모리얼	-11.7204
▁생물학자	-11.7205
▁개통	-11.7206
▁평양에	-11.7206
▁틸리	-11.7206
▁어조	-11.7208
▁세울	-11.7208
▁관용	-11.7208
▁루스	-11.7208
▁부친	-11.7209
cle	-11.7209
▁실업자	-11.7211
▁영하	-11.7213
▁찾아야	-11.7214
▁총리실	-11.7214
▁희생된	-11.7215
▁고객들에게	-11.7216
▁허가했다	-11.7216
▁내외	-11.7216
▁뻔	-11.7217
▁캐시	-11.7218
▁압력에	-11.7222
군사훈련	-11.7222
▁개제	-11.7224
▁건물들이	-11.7225
▁처사	-11.7225
▁아마드	-11.7226
▁쇼에서	-11.7227
▁시급	-11.7229
▁노동조합	-11.723
▁공석	-11.723
▁사업체	-11.7232
저스	-11.7233
▁145	-11.7233
▁불법적으로	-11.7234
▁기본적으로	-11.7235
▁크리	-11.7236
▁당사자	-11.7236
▁헌법상	-11.7237
투성이	-11.7239
됐음	-11.7239
▁지휘자	-11.7241
▁마신	-11.7242
▁보건장관	-11.7242
▁손잡	-11.7243
▁유지될	-11.7244
▁통과시키	-11.7245
스럽다	-11.7245
학술	-11.7248
▁마오	-11.7252
▁정찰기	-11.7252
▁반대파	-11.7253
▁장르	-11.7254
▁소치	-11.7254
▁딱	-11.7255
▁스토	-11.7256
▁매진	-11.7259
bra	-11.7262
▁해왔	-11.7262
▁왔었다	-11.7263
▁구조물	-11.7263
▁보이기	-11.7264
▁7.1	-11.7265
▁발사됐다	-11.7265
▁부탁했다	-11.7266
▁장군과	-11.7266
▁위력	-11.7267
▁태워	-11.7268
▁놈	-11.7269
▁보내며	-11.7271
▁패했다	-11.7274
▁확산되는	-11.7274
▁0.7	-11.7274
▁자진	-11.7275
▁집행위원	-11.7275
받지	-11.7277
▁꼬	-11.7279
▁이슬람교도들	-11.728
▁문화원	-11.7281
▁미렌	-11.7281
▁숨어있	-11.7282
▁원석	-11.7288
▁영화계	-11.729
▁집계됐다	-11.7294
▁셈	-11.7295
헌재	-11.7295
▁급락했다	-11.7295
▁천장	-11.7295
well	-11.7299
▁승리해야	-11.7299
▁조니	-11.7299
▁수염	-11.7304
하드	-11.7304
▁기술자들	-11.7305
▁차이점	-11.7307
▁보석으로	-11.7307
▁깨어	-11.7308
▁에너지부	-11.7308
▁지도자들에게	-11.7309
렉스	-11.7317
▁지역구	-11.7324
▁양식	-11.7325
나단	-11.7326
▁해안지역	-11.7326
▁gra	-11.7332
▁촬영했다	-11.7332
▁수출국	-11.7334
▁맞이했다	-11.7343
▁신중한	-11.7344
▁없다면	-11.7345
▁자카르타에서	-11.7347
▁대구	-11.7349
▁이민자	-11.7354
▁벌이며	-11.7356
▁묵인	-11.7356
▁사망률	-11.7359
▁뷰	-11.736
▁225	-11.736
▁일으키고	-11.7361
▁한동안	-11.7361
담당자	-11.7363
▁다가오는	-11.7365
▁107	-11.7368
▁워싱턴주	-11.7373
▁jon	-11.7374
▁관점	-11.7379
▁피지	-11.7379
▁대응하기	-11.7384
▁2.7	-11.7384
행해진	-11.7387
tan	-11.7392
▁작위	-11.7393
▁의미한다고	-11.7395
▁대행	-11.7396
베르트	-11.7399
▁후회	-11.7402
사르	-11.7402
▁지도부와	-11.7402
▁비슷하다	-11.7403
▁목장	-11.7412
건설	-11.7414
▁기지에서	-11.7414
▁잠들	-11.7421
▁되도록	-11.7421
▁죽음으로	-11.7423
봤	-11.743
▁장착한	-11.7433
▁회사측	-11.7433
▁전후	-11.7439
▁모아이	-11.7442
인민당	-11.7449
▁라마	-11.7454
▁수니파와	-11.7455
▁다량	-11.7458
▁타계	-11.7458
▁도드	-11.7462
▁향상시키	-11.7466
▁흥미로	-11.7467
▁별도	-11.7472
▁패배한	-11.7472
▁터지	-11.7478
키스	-11.748
▁1.8	-11.7481
▁대사와	-11.7482
▁불명	-11.7482
▁아들에게	-11.7486
▁하늘에서	-11.7486
노동자당	-11.749
▁인용했다	-11.7493
▁회원국들은	-11.7496
▁신자들	-11.7497
▁정했다	-11.7498
time	-11.7498
▁기자와	-11.7499
▁경매에서	-11.7505
리얼	-11.7507
▁art	-11.7509
워졌다	-11.7512
▁신청했다	-11.7513
▁올라와	-11.7516
▁타마	-11.752
▁조직위	-11.7523
가족	-11.7523
▁교장	-11.7524
▁소녀들	-11.7529
▁bp	-11.7538
늘	-11.7538
일쯤	-11.754
최	-11.7542
pri	-11.7543
▁보자	-11.7554
바라크	-11.7554
▁마카	-11.7555
혹	-11.7559
꾸	-11.7568
▁실시하고	-11.7572
틸	-11.7572
뷰	-11.7573
눈	-11.7574
프로그램	-11.7575
큐	-11.7575
▁사르	-11.7579
드립니다	-11.758
평방	-11.758
▁사자	-11.758
반응	-11.758
테니스	-11.7581
▁보안군이	-11.7583
스러워	-11.7586
프랑스	-11.7587
외교	-11.7589
등록	-11.759
득점	-11.7591
▁유튜브에	-11.7593
▁단계에서	-11.7594
예산	-11.7597
공연	-11.76
▁베니	-11.7602
조각	-11.7602
▁유가족들	-11.7609
▁정보통	-11.7613
재정	-11.7613
처분	-11.7615
▁토론회에	-11.7616
금치	-11.7617
▁라벨	-11.7617
자녀	-11.7625
▁3.3	-11.7629
아래	-11.7632
보안	-11.7634
▁브라질에서	-11.7642
▁교수와	-11.7652
had	-11.7654
▁운영되	-11.7656
백만명	-11.7657
▁cont	-11.7663
▁도와주	-11.7668
ek	-11.7668
▁약속했다고	-11.7672
▁부문에	-11.7674
그너	-11.7683
▁임명됐다	-11.7684
97	-11.7685
▁기여한	-11.7686
ism	-11.7689
▁파장	-11.7695
▁소매업	-11.7701
▁빠졌	-11.7701
▁불확실	-11.7706
▁생중계	-11.7707
▁사람이다	-11.7708
▁바커	-11.771
▁경쟁자들	-11.771
▁천문학	-11.7717
스텔	-11.7721
▁스타디움	-11.7725
▁베트남전	-11.7729
▁폭도들	-11.7731
▁달링	-11.7734
▁유명인사들	-11.7742
▁거뒀	-11.7746
▁자리잡	-11.7746
▁조각들	-11.7747
▁반사	-11.7756
▁알렉산드	-11.7756
ient	-11.7758
▁op	-11.776
시안	-11.7771
▁사유	-11.7773
ally	-11.7774
▁그래미	-11.7774
▁면역	-11.7775
▁창립	-11.778
▁숙박	-11.7781
▁장례	-11.7782
▁불러일으	-11.7782
▁수마트라	-11.7783
▁냉각	-11.7783
▁academy	-11.7783
▁africa	-11.7783
▁capital	-11.7783
▁christ	-11.7783
▁conference	-11.7783
▁country	-11.7783
▁institute	-11.7783
▁job	-11.7783
▁second	-11.7783
▁watch	-11.7783
▁건강검진	-11.7783
▁걷기	-11.7783
▁국가평의회	-11.7783
▁깨달았다	-11.7783
▁나폴리타노	-11.7783
▁남동생	-11.7783
▁대검찰청	-11.7783
▁디카프리오	-11.7783
▁떠올랐다	-11.7783
▁래드클리프	-11.7783
▁리투아니아	-11.7783
▁멜버른	-11.7783
▁멤피스	-11.7783
▁모레스모	-11.7783
▁물러났다	-11.7783
▁바랐다	-11.7783
▁밸리	-11.7783
▁부총재	-11.7783
▁불균형	-11.7783
▁불러일으켰다	-11.7783
▁블록버스터	-11.7783
▁사이언톨로지	-11.7783
▁알츠하이머	-11.7783
▁알카티리	-11.7783
▁옵션	-11.7783
▁찾으려	-11.7783
▁츠방기라이	-11.7783
▁퀘벡	-11.7783
▁프랑크푸르트	-11.7783
▁플레이스테이션	-11.7783
▁혹등고래	-11.7783
▁휠체어	-11.7783
▁흡입	-11.7783
뚜	-11.7783
쑤	-11.7783
윅	-11.7783
팡	-11.7783
▁abn	-11.7783
▁기울여야	-11.7783
▁나미비아	-11.7783
▁남겨두고	-11.7783
▁내보냈다	-11.7783
▁매몰된	-11.7783
▁배트맨	-11.7783
▁부동층	-11.7783
▁카르발라	-11.7783
랏	-11.7783
▁sex	-11.7783
▁섭씨	-11.7783
▁트레일러	-11.7783
▁구속영장	-11.7783
▁전자메일	-11.7783
▁헬만드	-11.7783
하였는데	-11.7783
▁리브니	-11.7783
▁인수제안	-11.7783
▁레코드	-11.7783
▁사로잡	-11.7783
▁wall	-11.7783
▁스콜스	-11.7783
▁원동력	-11.7783
▁사무차장	-11.7783
▁중질유	-11.7783
▁메케인	-11.7783
▁로드아일랜드	-11.7783
▁산악지대	-11.7783
▁bomb	-11.7783
▁불가사의	-11.7783
▁산시성	-11.7783
▁수수료	-11.7783
▁자위대	-11.7784
▁때때로	-11.7784
▁올림피	-11.7784
▁train	-11.7784
▁이스마일	-11.7784
▁있으므로	-11.7784
▁엘리엇	-11.7784
▁화학물질	-11.7784
▁some	-11.7784
▁벗겨	-11.7784
▁압델	-11.7784
ague	-11.7784
▁철폐	-11.7784
▁메인주	-11.7784
▁1,500	-11.7784
▁trial	-11.7785
▁노던록	-11.7785
▁국가안보회의	-11.7785
▁주변국들	-11.7785
▁당첨	-11.7785
▁동아시아	-11.7785
▁교훈	-11.7785
▁로빈슨	-11.7785
▁레빈슨	-11.7785
▁trans	-11.7785
▁봉투	-11.7785
▁헤엄	-11.7785
▁east	-11.7785
▁list	-11.7785
▁도둑	-11.7786
▁놀라움	-11.7786
▁불륜	-11.7786
▁killed	-11.7786
▁별칭	-11.7786
▁입후보	-11.7786
▁슬림	-11.7786
▁마피아	-11.7786
▁있냐	-11.7786
▁대슐	-11.7786
▁우주여행	-11.7786
▁멜론	-11.7786
▁희미	-11.7786
▁스튜	-11.7786
▁그레그	-11.7786
▁차량폭탄	-11.7786
첸코	-11.7787
▁생애	-11.7787
▁정몽	-11.7787
▁예상됩니다	-11.7787
▁대리모	-11.7787
▁축구선수	-11.7787
▁필름	-11.7787
▁파키스탄인민당	-11.7788
▁집값	-11.7788
▁찾아냈다	-11.7788
▁나눈	-11.7788
▁있었는데	-11.7788
▁벤처	-11.7788
▁xp	-11.7789
▁청원서	-11.7789
▁오웬	-11.7789
▁누구인지	-11.7789
▁stop	-11.7789
▁신기록	-11.7789
▁공헌	-11.779
▁범죄행위	-11.779
▁출입국	-11.779
▁제국주의	-11.779
▁태생	-11.779
▁붐비	-11.779
▁흔들었다	-11.779
▁알라위	-11.779
▁조롱	-11.7791
▁법무상	-11.7791
▁홀더	-11.7791
▁팻	-11.7791
▁생생	-11.7791
▁프로스트	-11.7791
▁단결	-11.7791
▁절실	-11.7792
▁증파	-11.7792
▁레빈	-11.7792
▁불법행위	-11.7792
ju	-11.7792
▁강타했다	-11.7792
▁자폭	-11.7793
▁공공연	-11.7793
▁자동차산업	-11.7793
▁관통	-11.7793
▁코웰	-11.7794
▁centr	-11.7794
▁지방정부	-11.7794
▁언니	-11.7795
▁게시물	-11.7795
▁아스	-11.7795
▁단편	-11.7795
▁이맘	-11.7796
▁지명되기	-11.7796
▁우편물	-11.7796
▁골절	-11.7796
949	-11.7796
▁학계	-11.7797
▁아델	-11.7797
▁바꾼	-11.7797
▁정치인들이	-11.7797
▁신랑	-11.7798
▁생체	-11.7799
▁생계	-11.78
▁군사정부	-11.78
▁왕관	-11.78
▁포탄	-11.7802
▁팬더	-11.7802
▁풀려나	-11.7802
▁우려했다	-11.7803
▁threaten	-11.7803
▁놓여있다	-11.7805
▁꾸며	-11.7805
▁마술	-11.7805
▁루터	-11.7805
▁찾아온	-11.7805
다시피	-11.7806
▁무력화	-11.7807
▁비축	-11.7807
▁건축물	-11.7809
▁브라이언트	-11.781
▁증대	-11.7811
▁강조하며	-11.7811
▁보였	-11.7811
▁거액	-11.7812
▁발판	-11.7816
▁부분적으로	-11.7816
▁times	-11.7817
▁경미	-11.7817
▁교수들	-11.7817
▁테크	-11.7817
▁부주의	-11.7817
▁청년들	-11.7817
▁딸들	-11.7817
▁2030	-11.7818
▁인권문제	-11.7818
▁states	-11.7819
▁랜디	-11.7819
▁도출	-11.7819
▁위함	-11.7819
프레드	-11.7819
▁유실	-11.7821
▁해골	-11.7823
▁우정	-11.7825
▁모방	-11.7827
▁there	-11.783
▁과오	-11.7831
머신	-11.7831
▁살레	-11.7832
▁부장은	-11.7832
▁인터내셔널	-11.7832
▁특성	-11.7832
수익	-11.7832
▁상속	-11.7834
▁종업원	-11.7834
▁추억	-11.7835
▁합의에따라	-11.7835
▁벗기	-11.7836
▁주연상	-11.7836
▁깨진	-11.7837
▁서두르	-11.7837
▁궁전	-11.7839
▁5500	-11.7839
rm	-11.7839
▁유로화	-11.784
키마	-11.7843
▁0.8	-11.7846
▁대피시켰다	-11.7847
▁주범	-11.7847
방위	-11.7848
▁생산업체	-11.7849
▁당내	-11.7849
side	-11.7849
▁통상적	-11.7849
▁연상	-11.785
여성	-11.7851
▁붕괴되	-11.7852
▁설명할	-11.7853
ring	-11.7853
▁순교자	-11.7858
▁박탈당	-11.7858
dom	-11.7858
▁유지해	-11.7858
▁구매자	-11.7859
▁모국	-11.7859
▁당파	-11.786
▁외국인들이	-11.786
▁여명	-11.786
▁맺어	-11.7862
▁동점	-11.7865
▁궁지에	-11.7866
▁계획이었다	-11.7867
데라	-11.7867
▁들지	-11.7871
▁등장한다	-11.7873
▁경찰서로	-11.7873
▁늘었다	-11.7873
▁요리사	-11.7874
▁호건	-11.7874
▁적어	-11.7874
▁국회의장	-11.7876
▁편리	-11.7876
로프트	-11.7876
▁베드	-11.7878
▁유발할	-11.7878
▁신차	-11.7878
▁친부	-11.7887
▁캘	-11.7887
▁선보이	-11.7888
었음	-11.7889
▁동의안	-11.789
▁합쳐	-11.7894
▁좋아지	-11.7895
▁태우	-11.7896
▁부대변인	-11.7899
▁감사원	-11.7899
정지	-11.79
▁계기로	-11.7902
▁대금	-11.7903
▁테러리스트들이	-11.7906
▁emi	-11.7911
▁정면	-11.7911
▁밝혀져	-11.7912
공학	-11.7912
▁개막식에	-11.7914
▁죽어가	-11.7914
▁경시	-11.7915
▁주장했으며	-11.7917
▁가속	-11.7918
▁받아들이기	-11.7919
▁중단시켰다	-11.7921
▁반대하며	-11.7925
국적	-11.7933
▁낭	-11.7935
▁섬에서	-11.7935
▁관람객들	-11.7937
▁적들	-11.7938
▁연구실	-11.7938
▁입소	-11.7939
▁직원들에게	-11.7941
▁장갑	-11.7942
▁작동되	-11.7942
▁흙	-11.7943
▁0.4	-11.7943
▁비판하는	-11.7945
▁도와주는	-11.7949
▁의사회	-11.7949
▁지원자들	-11.7956
▁소식으로	-11.7968
▁코드	-11.7968
었었다	-11.797
▁영국으로부터	-11.7974
▁안면	-11.7974
▁킴	-11.798
▁올랐고	-11.7981
▁남북간	-11.7982
▁목록에서	-11.7985
브론	-11.7992
▁케냐에서	-11.7993
▁남동부에서	-11.7996
공유	-11.7998
▁전락	-11.7999
bel	-11.8
▁초까지	-11.8003
▁일보	-11.8007
▁하나였다	-11.8008
▁해당한다	-11.8011
▁펼쳐지	-11.8011
▁정세	-11.8012
▁rate	-11.8014
▁결승에	-11.802
▁애플사	-11.8023
▁축구팬	-11.8024
▁축출된	-11.8033
▁키트	-11.8037
▁에드로	-11.8039
nel	-11.8049
▁그들과	-11.8052
▁발표되었다	-11.8055
▁언론사	-11.8056
▁급증했다	-11.8056
▁탐험가	-11.806
▁실망했다	-11.8061
▁소방대원들	-11.8062
▁인부	-11.8069
였기	-11.8078
nts	-11.8078
▁지나면	-11.8079
학자들	-11.8089
교사	-11.8091
▁노르	-11.8094
▁돌아가고	-11.8096
▁죽인	-11.8096
▁1.4	-11.8097
▁케인	-11.8098
우트	-11.8114
키야	-11.8116
▁성대	-11.8116
글판	-11.8117
칭하며	-11.8118
▁대체로	-11.812
▁켜	-11.8123
▁베티	-11.8129
▁대비하고	-11.8134
▁유사하다	-11.8141
▁카바	-11.8141
▁선호하	-11.8149
▁주도했다	-11.8153
▁회복할	-11.8154
▁아타	-11.8158
투르크	-11.8161
▁하락하고	-11.8172
▁남성에게	-11.8173
▁파라	-11.818
▁묘사한	-11.8181
▁대개	-11.8184
레이즈	-11.8185
있게	-11.8185
끈	-11.8189
▁지불했다	-11.819
▁연결하	-11.8191
▁신씨	-11.8192
자본	-11.8196
▁대중들	-11.8199
▁축구팬들	-11.82
uck	-11.8204
▁hel	-11.8205
▁싶어하지	-11.8208
▁dai	-11.8216
▁삼아	-11.823
매장	-11.8237
봐	-11.8241
사령부	-11.8241
티브	-11.8241
콩	-11.8242
칩	-11.8242
엠	-11.8242
점이다	-11.8243
킴	-11.8243
잠	-11.8244
이슬람	-11.8246
▁감정적	-11.8249
nn	-11.8251
▁반기	-11.8255
2009.01	-11.8258
▁추진해	-11.826
▁od	-11.8261
▁압박했다	-11.8263
조합	-11.8264
쿠르	-11.8264
워터	-11.8267
▁딸에게	-11.8268
▁인도주의	-11.8288
▁휘트	-11.8292
▁폐쇄됐다	-11.8294
▁원정	-11.8298
▁변했다	-11.8299
▁165	-11.83
퍼트	-11.83
▁mon	-11.8304
▁확산됐다	-11.8304
행진	-11.8314
기동대	-11.8314
▁월드컵에서	-11.8314
기남	-11.832
트너	-11.8326
▁경신	-11.8326
▁참석한다	-11.8336
▁슬로	-11.834
▁추산되	-11.8342
▁시신들	-11.8349
ino	-11.835
▁저질렀	-11.836
den	-11.8365
러진	-11.837
▁존재한다	-11.8375
▁순례	-11.8376
회사들	-11.8377
▁인류학	-11.8378
있어	-11.838
▁연결된	-11.8383
▁제출된	-11.8386
▁같아	-11.8389
노선	-11.839
연금	-11.839
▁vote	-11.8391
보라	-11.8391
쳤습니다	-11.8395
▁표하고	-11.8396
명중	-11.8397
▁적합	-11.8398
▁환경부	-11.8398
▁수감돼	-11.8402
▁104	-11.8403
bb	-11.8404
저리	-11.8405
▁팀장	-11.8406
▁알려왔	-11.8406
▁싶었	-11.8414
▁원장	-11.8416
▁지장	-11.8417
화학	-11.8419
nsc	-11.8419
▁입찰	-11.8425
쉽	-11.843
셸	-11.8435
▁다짐	-11.8438
▁480	-11.8441
캣	-11.8442
▁마텔	-11.8443
얄	-11.8444
▁디스커버리	-11.8446
▁콜롬	-11.8447
▁도미니	-11.8448
콕	-11.8448
▁thre	-11.845
▁오피니언	-11.845
▁hyun	-11.845
▁politic	-11.845
긍	-11.845
6,000	-11.845
▁alliance	-11.845
▁federal	-11.845
▁iucn	-11.845
▁joint	-11.845
▁major	-11.845
▁problem	-11.845
▁냉장고	-11.845
▁다비덴코	-11.845
▁댓글	-11.845
▁루고보이	-11.845
▁만토바니	-11.845
▁미식축구	-11.845
▁발렌시아	-11.845
▁벗어났다	-11.845
▁변함없	-11.845
▁비정상적	-11.845
▁서유럽	-11.845
▁세컨드라이프	-11.845
▁슈퍼마켓	-11.845
▁아르메니아	-11.845
▁안타깝게	-11.845
▁어소시에이션	-11.845
▁유투브	-11.845
▁잉그리드	-11.845
▁출퇴근	-11.845
▁칼데론	-11.845
▁캠브리지	-11.845
▁키프로스	-11.845
▁타임스퀘어	-11.845
▁테러리즘	-11.845
▁티크리트	-11.845
▁패터슨	-11.845
▁프랑수아	-11.845
▁하르툼	-11.845
▁해밀턴	-11.845
▁홍석현	-11.845
엉	-11.845
▁buy	-11.845
▁record	-11.845
▁국제영화제	-11.845
▁대배심	-11.845
▁무기징역	-11.845
▁볼리비아	-11.845
▁서포터	-11.845
▁스타워즈	-11.845
▁시트콤	-11.845
▁애틀랜틱	-11.845
▁전두환	-11.845
▁견뎌	-11.845
▁끊겼	-11.845
▁여기저기	-11.845
▁즐긴다	-11.845
▁크라이튼	-11.845
▁파딜라	-11.845
▁핵폐기	-11.845
▁아메바	-11.845
▁은하계	-11.845
▁depart	-11.845
▁비무장지대	-11.845
▁제레미	-11.845
▁dax	-11.845
▁보너스	-11.845
▁just	-11.845
▁돌려보내	-11.845
▁재경부	-11.845
▁모으고	-11.845
▁바이에른	-11.845
▁동등한	-11.845
▁할로윈	-11.845
▁국가안보보좌관	-11.845
▁미생물	-11.845
▁금리인하	-11.845
대비	-11.845
▁말리부	-11.845
▁invest	-11.845
▁유연한	-11.845
▁전비법안	-11.845
▁georg	-11.845
▁무언가	-11.845
▁아스카리	-11.845
▁어쩌	-11.845
▁뛰어넘	-11.845
▁세르게이	-11.845
▁구제금융법안	-11.845
▁갑작스럽	-11.845
▁소비에트	-11.845
▁알라스카	-11.845
▁종지부	-11.8451
▁money	-11.8451
도날드	-11.8451
▁선거인단	-11.8451
▁어둠	-11.8451
▁산업자원부	-11.8451
▁남태평양	-11.8451
▁베이징올림픽	-11.8451
▁얼룩말	-11.8451
▁마지드	-11.8451
▁part	-11.8451
쿼터	-11.8451
▁수감생활	-11.8451
▁군사행동	-11.8451
▁겨누	-11.8451
▁작별	-11.8452
▁미뤄	-11.8452
▁peta	-11.8452
▁ahead	-11.8452
▁낫다	-11.8452
▁건강보험	-11.8452
▁슈렉	-11.8452
▁탈옥	-11.8452
▁십먼	-11.8452
▁용도로	-11.8452
▁스마트	-11.8452
▁북극광	-11.8452
▁디즈니랜드	-11.8452
▁알렉	-11.8452
▁포털	-11.8452
▁피난처	-11.8452
▁비밀요원	-11.8453
▁요한슨	-11.8453
▁날카로	-11.8453
▁홈경기	-11.8453
▁order	-11.8453
▁약물검사	-11.8453
▁드럼	-11.8453
▁도서관	-11.8453
▁give	-11.8453
▁콜롬보	-11.8453
▁부정행위	-11.8453
▁간접	-11.8453
▁meeting	-11.8453
▁싸워	-11.8453
▁우발적	-11.8453
▁압류	-11.8453
▁업종	-11.8454
▁강렬	-11.8454
▁비웃	-11.8454
▁일기장	-11.8454
▁봉급	-11.8454
▁페드로	-11.8454
▁머독	-11.8454
▁푸른	-11.8454
▁스노우	-11.8455
▁축구스타	-11.8455
▁cac	-11.8455
▁필사적	-11.8455
▁케이티	-11.8455
▁만평	-11.8455
▁기관총	-11.8455
층짜리	-11.8456
▁편견	-11.8456
▁교각	-11.8456
▁루시디	-11.8456
▁근절	-11.8456
▁자치권	-11.8456
▁결말	-11.8456
▁해산시키기	-11.8456
▁사망원인	-11.8456
▁today	-11.8456
▁iraqi	-11.8456
▁투명성	-11.8457
▁아프리카연합	-11.8457
▁대국민	-11.8457
▁하렐	-11.8457
▁1972	-11.8457
▁선례	-11.8457
▁암살사건	-11.8457
▁애견	-11.8457
▁에베레스트산	-11.8457
▁계급	-11.8457
▁짐작	-11.8457
▁폭발사고	-11.8458
▁합작	-11.8458
▁애완용	-11.8458
▁듀크	-11.8458
▁spe	-11.8458
▁가디언	-11.8458
▁종말	-11.8458
▁빈센트	-11.8458
▁경합	-11.8459
▁소도시	-11.8459
▁상향	-11.846
▁무례	-11.846
▁주택시장	-11.846
▁부시대통령	-11.846
▁번복	-11.8461
▁연합정부	-11.8461
▁설전	-11.8462
▁난입	-11.8462
▁1977	-11.8462
▁보스톤	-11.8462
▁평온	-11.8463
▁2018	-11.8463
▁발머	-11.8464
▁투자은행	-11.8464
▁위독	-11.8464
▁반테러	-11.8464
▁들어설	-11.8465
▁설비	-11.8466
▁로지스	-11.8466
▁무레이	-11.8466
▁은둔	-11.8467
▁플래시	-11.8467
▁결단	-11.8467
▁잠재	-11.8468
▁야유	-11.8468
▁조엘	-11.8468
▁이외에	-11.8468
▁버몬트주	-11.8469
▁놀란	-11.8469
▁담요	-11.8469
▁음료수	-11.8469
▁상업용	-11.8469
▁속해	-11.847
▁폐쇄하기	-11.847
▁용납하지	-11.8472
▁입건	-11.8472
▁불확실성	-11.8472
▁종교단체	-11.8472
▁헝	-11.8472
▁역설했다	-11.8473
▁가장자리	-11.8473
▁폭력배	-11.8474
▁김양	-11.8474
▁매료	-11.8474
▁소방당국	-11.8474
▁실천	-11.8474
▁왕조	-11.8475
▁속력	-11.8477
▁시립	-11.8478
▁분단	-11.8478
▁당부	-11.8479
▁토미	-11.848
▁형편	-11.848
▁메모	-11.848
▁부르며	-11.848
▁아샤	-11.8481
▁난방	-11.8481
▁호스트	-11.8482
▁동부지역	-11.8482
▁흉내	-11.8485
▁검찰청	-11.8485
▁유영	-11.8486
▁매복	-11.8486
▁싶었다	-11.8486
▁로빈	-11.8487
▁요구했었다	-11.8487
▁커뮤니케이션	-11.8487
스쿨	-11.8487
사미	-11.8487
▁요크	-11.849
▁왕비	-11.8492
▁가능해	-11.8493
▁매리	-11.8493
▁엄청나	-11.8495
▁거품	-11.8495
▁용량	-11.8496
▁거주민	-11.8496
▁근본주의자들	-11.8497
투스	-11.8497
▁리츠	-11.8497
만파운드	-11.8498
▁소모	-11.8498
▁경계선	-11.8499
▁매직	-11.8502
▁페니	-11.8503
▁토레스	-11.8504
▁착륙했다	-11.8504
▁자랑하는	-11.8506
▁정치국	-11.8507
▁골드만	-11.8507
▁군사위원회	-11.8507
▁심각성	-11.8507
▁끝내기	-11.8508
▁등장했다	-11.8508
▁펼쳐진	-11.8511
▁속편	-11.8511
정규직	-11.8512
▁입안	-11.8513
▁국어	-11.8513
▁공금	-11.8514
▁asia	-11.8514
▁보험회사	-11.8516
▁뉴햄프셔주	-11.8517
▁간직	-11.8518
▁설사	-11.8519
▁기울이지	-11.8519
▁공적	-11.852
▁성범죄자	-11.8522
▁해역에서	-11.8525
▁서점	-11.8525
▁나누어	-11.8526
▁0.6	-11.8528
▁나오기	-11.8528
▁생각되는	-11.8529
▁국세청장	-11.853
▁웨스	-11.8531
▁전반전	-11.8532
▁초고속	-11.8532
▁인정한다	-11.8532
▁꺼리	-11.8534
▁이윤	-11.8535
bur	-11.8536
▁기자단	-11.8538
▁기미	-11.854
▁1700	-11.8541
▁330	-11.8541
▁지형	-11.8546
▁알바로	-11.8549
▁봉인	-11.8549
▁주의회	-11.8552
▁2200	-11.8554
▁koreans	-11.8557
▁이루기	-11.8557
▁헤리	-11.8558
▁무엇보다도	-11.8558
▁1100	-11.8562
▁소실됐다	-11.8562
▁불안해	-11.8564
▁교리	-11.8565
▁제출해야	-11.8572
▁거래되	-11.8573
▁채용	-11.8574
▁야스	-11.8576
▁과학기술	-11.8578
드먼	-11.8579
▁저서	-11.858
▁것인데	-11.8582
▁휴회	-11.8584
▁투표자	-11.859
▁민주당원	-11.8591
▁주거지	-11.8593
▁자비	-11.8595
▁수혈	-11.8596
▁피난민	-11.8599
▁지원국	-11.8602
▁부모에게	-11.8602
▁안정성	-11.861
▁구성원들	-11.8612
▁주마	-11.8613
▁등반	-11.8614
▁던졌	-11.8614
블라	-11.8615
▁보수주의	-11.8615
▁거머쥐었	-11.8618
▁크레인	-11.8619
해준다	-11.8622
▁앞서서	-11.8623
▁외화	-11.8624
▁가문	-11.8627
▁안정화	-11.8629
▁다크	-11.8634
▁보물	-11.8637
▁오바	-11.8638
▁sup	-11.8638
ble	-11.8639
▁키니	-11.8645
▁도하	-11.8645
▁선수들에게	-11.8646
▁기숙사에서	-11.8647
▁발표했으며	-11.865
person	-11.8658
▁0.3	-11.8659
▁2008.12.1	-11.8662
06	-11.8666
▁분자	-11.8666
▁제시하지	-11.867
▁시차	-11.867
▁구리	-11.8671
▁활동가들	-11.868
▁접어	-11.8681
▁끝나면	-11.8683
▁부르고	-11.8686
▁상하이에서	-11.8689
▁환경적	-11.8689
▁간주되	-11.8694
▁명상	-11.8696
▁초소	-11.8696
▁적용할	-11.8697
▁용지	-11.8701
▁고심하	-11.8702
셰르	-11.8704
▁무시했다	-11.8708
▁건강상	-11.8709
▁115	-11.871
▁뒤진	-11.8712
▁여자친구와	-11.8714
▁유나이티드와	-11.8717
▁6.8	-11.8721
▁유서	-11.8722
겠는가	-11.8724
란드	-11.8725
▁통제하고	-11.8725
▁납세자들	-11.8738
▁발견됐	-11.874
▁출전했다	-11.8742
▁볼트	-11.8745
▁부패와	-11.8748
▁표현할	-11.875
▁경제팀	-11.8757
▁레스토랑에서	-11.8764
▁취소하	-11.8764
▁550	-11.8767
▁일이며	-11.8771
▁mc	-11.8773
▁공직자	-11.8778
▁청장	-11.8779
▁변명	-11.878
▁제조업체들	-11.8783
해주기	-11.8784
▁도발	-11.8784
▁개회	-11.8786
▁가파	-11.8787
▁탈북자들	-11.8795
타그	-11.8798
▁pd	-11.8801
uit	-11.8807
▁제공되	-11.8808
▁상대적	-11.8809
▁her	-11.8811
1191	-11.8815
환자	-11.8828
▁선출됐다	-11.8829
▁tea	-11.883
▁행해	-11.8833
▁거기에	-11.8834
▁1.7	-11.884
▁경쟁사	-11.884
▁무능	-11.8843
▁팔린	-11.8845
▁sur	-11.8846
▁사망하기	-11.8852
▁사육사들	-11.8852
▁india	-11.8861
▁그러면	-11.8868
▁미대사	-11.8882
▁유출된	-11.8883
▁방영되	-11.8885
▁비서	-11.8886
▁벗어나지	-11.8886
▁표지	-11.8888
▁상징인	-11.8892
▁제소	-11.8892
▁안전성	-11.8893
무차관	-11.8898
▁메카	-11.8898
▁발전기	-11.8904
▁신청자	-11.8905
▁나쁘	-11.8908
▁비난한다	-11.8914
▁경찰들은	-11.8917
▁출발했다	-11.8918
▁2.0	-11.8919
▁돌아보	-11.8929
▁각료들	-11.893
53	-11.8937
▁게르	-11.8944
흘	-11.895
싸	-11.895
춤	-11.8955
졸	-11.8956
주민들	-11.8957
민주당	-11.8958
잇	-11.8958
월드컵	-11.8959
미사일	-11.8961
큰	-11.8961
랜스	-11.8969
▁패트	-11.897
러시아	-11.8972
▁개최국	-11.8975
소득	-11.8979
▁전사자	-11.8991
▁인도적	-11.8991
제조	-11.8993
▁당혹	-11.8997
▁요인들	-11.9
▁연주자	-11.9
▁무차별	-11.9001
▁프로그램들	-11.9003
▁약화시키	-11.9005
▁노력해야	-11.9005
대결	-11.9017
집회	-11.9019
▁확보하고	-11.9021
▁우려된다	-11.9028
▁전장에	-11.9032
▁장악했다	-11.9039
▁피랍됐	-11.904
▁나타낸	-11.9043
▁말해주	-11.9047
▁정하지	-11.9047
▁한국전	-11.9048
토프	-11.9049
국제	-11.9051
▁자행한	-11.9055
소니	-11.906
▁우위	-11.9061
▁강조하는	-11.9061
▁모기	-11.9066
쳐야	-11.9072
▁성교	-11.9072
ray	-11.9074
부총리	-11.9075
▁lead	-11.9075
▁미성년	-11.9078
▁계획안	-11.9081
▁제조업자	-11.9082
▁힘들어	-11.9087
▁배우들	-11.9087
모건	-11.9093
▁참여하기	-11.9098
▁막지	-11.9101
▁재기	-11.9102
▁사무국	-11.9103
쿨	-11.9116
▁주최하	-11.913
그리	-11.9137
▁관장	-11.914
▁계절	-11.9144
▁참모총장	-11.9152
거래소에서	-11.9154
둑	-11.9159
mg	-11.9159
슐	-11.9161
▁프란시스	-11.9162
슬라브	-11.9162
▁경기부양	-11.9164
▁솔로몬	-11.9164
식품	-11.9164
▁campaign	-11.9164
▁council	-11.9164
▁europe	-11.9164
▁missile	-11.9164
▁stock	-11.9164
▁독립선언	-11.9164
▁뒷좌석	-11.9164
▁발렌타인	-11.9164
▁사우스다코타	-11.9164
▁아쿠아리움	-11.9164
▁엔터프라이즈	-11.9164
▁카메룬	-11.9164
껴	-11.9164
뚱	-11.9164
륭	-11.9164
텀	-11.9164
rry	-11.9164
through	-11.9164
▁crisis	-11.9164
▁envoy	-11.9164
▁great	-11.9164
▁illegal	-11.9164
▁john	-11.9164
▁kkk	-11.9164
▁microsoft	-11.9164
▁number	-11.9164
▁rbs	-11.9164
▁safe	-11.9164
▁sncf	-11.9164
▁unveil	-11.9164
▁withdraw	-11.9164
▁고혈압	-11.9164
▁굉장한	-11.9164
▁나스랄라	-11.9164
▁네브라스카	-11.9164
▁뉴욕타임즈	-11.9164
▁다녔다	-11.9164
▁다빈치	-11.9164
▁대기오염	-11.9164
▁대선예비후보	-11.9164
▁델라웨어	-11.9164
▁듀프레	-11.9164
▁드림라이너	-11.9164
▁따돌렸다	-11.9164
▁레오나르도	-11.9164
▁머물렀다	-11.9164
▁먹었다	-11.9164
▁메탄가스	-11.9164
▁믿어지	-11.9164
▁바예스테로스	-11.9164
▁박스오피스	-11.9164
▁분리독립	-11.9164
▁비디오테이프	-11.9164
▁스머프	-11.9164
▁스테로이드	-11.9164
▁스프린트	-11.9164
▁시니오라	-11.9164
▁시베리아	-11.9164
▁아름답	-11.9164
▁아리조나	-11.9164
▁애국전선	-11.9164
▁에메랄드	-11.9164
▁오마이뉴스	-11.9164
▁옥수수	-11.9164
▁와코비아	-11.9164
▁외할머니	-11.9164
▁울프위츠	-11.9164
▁자와히리	-11.9164
▁조기총선	-11.9164
▁최연소	-11.9164
▁카스파로프	-11.9164
▁컨소시엄	-11.9164
▁클랩튼	-11.9164
▁펠릭스	-11.9164
▁폴란스키	-11.9164
▁홀로코스트	-11.9164
▁히말라야	-11.9164
멕	-11.9164
프로농구	-11.9164
ready	-11.9164
▁극단적인	-11.9164
▁라말라	-11.9164
▁마르세유	-11.9164
▁모토로라	-11.9164
▁스릴러	-11.9164
▁알레르기	-11.9164
▁워싱턴포스트	-11.9164
▁인공심장	-11.9164
▁클리닉	-11.9164
▁공청회	-11.9164
▁목걸이	-11.9164
▁산티아고	-11.9164
▁에버튼	-11.9164
▁카제미	-11.9164
▁현기증	-11.9164
▁현충일	-11.9164
어느때보다	-11.9164
▁공동기자회견에	-11.9164
▁부끄러	-11.9164
▁분화구	-11.9164
▁omx	-11.9164
▁아세안	-11.9164
▁알메이다	-11.9164
▁우체국	-11.9164
▁propos	-11.9164
▁허덕이	-11.9164
▁엘비스	-11.9164
▁임상실험	-11.9164
▁트레이드	-11.9164
▁불도저	-11.9164
▁세비르	-11.9164
▁삼성전자	-11.9164
▁오피스	-11.9164
▁direct	-11.9164
▁아침식사	-11.9164
▁스프링스틴	-11.9164
▁떠다니	-11.9164
▁민주변화	-11.9164
▁손가락	-11.9164
▁etc	-11.9164
▁월경작전	-11.9164
▁트레이시	-11.9165
▁행정명령	-11.9165
▁니가타	-11.9165
▁부녀자	-11.9165
▁맛봤다	-11.9165
▁결론지었다	-11.9165
▁추도식	-11.9165
▁민주변화운동	-11.9165
▁버핏	-11.9165
▁탐지기	-11.9165
▁쓰러진	-11.9165
▁가오리	-11.9165
▁종합병원	-11.9165
▁히트곡	-11.9165
▁불상사	-11.9165
▁크로포드	-11.9165
▁디아즈	-11.9165
▁슬램	-11.9165
▁헐값	-11.9165
▁히잡	-11.9165
▁재가동	-11.9165
▁슬럼	-11.9165
▁적임자	-11.9165
▁메세지	-11.9165
▁천수이	-11.9165
▁김일성	-11.9165
▁골드버그	-11.9165
▁빠져나갔다	-11.9165
▁홍보담당자	-11.9165
▁구급차	-11.9165
▁출몰	-11.9165
▁빛나는	-11.9165
▁옐로	-11.9165
▁블랙베리	-11.9165
▁쥐스틴	-11.9165
▁constitutional	-11.9165
▁마샬	-11.9165
▁아름다움	-11.9165
▁평의회	-11.9166
▁데이비스컵	-11.9166
▁퇴근	-11.9166
▁강제진압	-11.9166
했었지만	-11.9166
▁겸손	-11.9166
▁완패	-11.9166
▁놀이기구	-11.9166
▁enter	-11.9166
▁올라간다	-11.9166
▁사기꾼	-11.9166
▁국가대표팀	-11.9166
▁army	-11.9166
▁선거운동본부	-11.9166
▁감기약	-11.9166
▁용암	-11.9166
했어야	-11.9166
▁스페이스	-11.9166
▁목욕	-11.9166
▁퇴출	-11.9166
▁출근	-11.9167
▁패션쇼	-11.9167
▁폭염	-11.9167
▁night	-11.9167
▁비겁	-11.9167
▁청취	-11.9167
▁갈망하	-11.9167
▁fight	-11.9167
▁베풀	-11.9168
▁동북	-11.9168
▁달려있다	-11.9168
▁사형제도	-11.9168
▁금전적	-11.9168
▁주모자	-11.9168
▁리프트	-11.9168
▁검은색	-11.9168
▁남아시아	-11.9168
▁육류	-11.9168
▁가져온	-11.9169
▁검시	-11.9169
▁노골적	-11.9169
▁완강	-11.9169
phone	-11.9169
▁입혔다	-11.9169
▁회생	-11.9169
▁숙박비	-11.9169
▁베이커	-11.9169
▁유니티	-11.917
▁어부들	-11.917
▁뉴먼	-11.917
▁잃었으며	-11.917
▁에릭슨	-11.917
▁만들어낸	-11.917
▁채굴	-11.917
▁올리버	-11.917
▁실용적	-11.917
▁환경운동	-11.917
▁자궁	-11.917
▁잠입	-11.917
▁구매자들	-11.9171
▁축구협회	-11.9171
▁girls	-11.9172
▁유명해졌다	-11.9172
▁석권	-11.9172
▁아이콘	-11.9172
▁월급	-11.9172
▁터졌다	-11.9172
▁성폭행범	-11.9172
▁처방전	-11.9173
▁sola	-11.9173
▁mac	-11.9173
▁tam	-11.9174
▁화산재	-11.9174
▁임시정부	-11.9174
▁떨어지면서	-11.9174
▁털어	-11.9174
▁담합	-11.9175
reme	-11.9175
▁열악	-11.9175
▁auto	-11.9175
▁스토리	-11.9176
▁불행	-11.9176
▁라디오뉴스	-11.9176
▁특권	-11.9176
▁west	-11.9176
▁신랄	-11.9176
▁하향	-11.9176
▁떼어	-11.9177
▁모스크	-11.9177
▁구슬	-11.9177
▁잠복	-11.9178
▁wta	-11.9178
디언	-11.9178
▁표출	-11.9178
▁정치활동	-11.9178
▁독려	-11.9178
▁nations	-11.9179
여채	-11.9179
▁축적	-11.9179
▁양빈	-11.9179
▁수상작	-11.9179
▁어두	-11.918
▁과열	-11.918
▁교신	-11.918
▁통치권	-11.9181
▁사죄	-11.9182
▁진학	-11.9182
▁자율	-11.9182
▁응급실	-11.9182
프로축구	-11.9182
▁성취	-11.9183
▁감형	-11.9183
▁그라이브	-11.9183
▁행보	-11.9184
▁거칠	-11.9184
▁버리는	-11.9185
▁모빌	-11.9185
▁변종	-11.9186
▁의향	-11.9186
less	-11.9187
▁친지들	-11.9187
▁응용	-11.9188
▁간격	-11.9188
▁벵	-11.9188
▁혼자서	-11.9189
▁친교	-11.9189
▁도매	-11.919
▁칼리드	-11.919
▁경고문	-11.9191
▁달아나	-11.9191
▁시에나	-11.9192
▁없어질	-11.9192
▁파탄	-11.9192
▁돌발	-11.9192
▁카나리	-11.9194
▁청원	-11.9194
자격	-11.9194
▁usb	-11.9195
▁카본	-11.9195
▁아예	-11.9196
▁극우	-11.9197
▁인도양	-11.9198
▁상류	-11.9201
▁나빠지	-11.9202
▁증명서	-11.9202
툴라	-11.9202
▁인출	-11.9203
▁여론조사에따르면	-11.9203
▁담았다	-11.9204
▁의문사	-11.9205
▁아래서	-11.9205
▁소득세	-11.9205
▁분산	-11.9205
▁억지	-11.9205
▁모친	-11.9206
▁재연	-11.9206
▁동조	-11.9207
▁건전	-11.9207
▁폰다	-11.9209
▁저조	-11.9209
art	-11.9209
▁쓰러졌다	-11.9209
▁상무위원	-11.921
▁천원	-11.921
▁유형	-11.921
▁초보	-11.9211
▁영국항공	-11.9211
▁공단	-11.9211
▁위스콘신주	-11.9211
▁시작하자	-11.9211
▁소중	-11.9211
▁보수주의자들	-11.9213
▁atp	-11.9213
▁사본	-11.9214
▁배신	-11.9215
▁개종	-11.9217
▁출동했다	-11.9219
▁피력	-11.9219
요리	-11.922
▁농성	-11.922
▁쥬	-11.922
▁맘	-11.922
▁동화	-11.9221
▁언급하면서	-11.9222
▁얻어야	-11.9222
▁도슨	-11.9227
▁아론	-11.9228
▁상태이며	-11.923
퍼드	-11.9231
▁월터스	-11.9232
▁연비	-11.9232
▁페러	-11.9233
▁촉구하며	-11.9233
▁기념하	-11.9235
▁이민국	-11.9236
▁중학교	-11.9236
▁일생	-11.9237
▁기법	-11.9238
▁말하지만	-11.9238
▁장시간	-11.9238
▁정교한	-11.9238
▁도와준	-11.9239
▁강행할	-11.9241
▁원정경기에서	-11.9241
▁로케	-11.9246
▁그렇지만	-11.9249
▁푸드	-11.9249
극적으로	-11.9252
▁최소화	-11.9254
▁받아들여지	-11.9254
▁국정원장	-11.9254
▁3200	-11.9255
▁선진	-11.9255
▁제마	-11.9255
물라	-11.9257
▁오노	-11.9258
▁불타	-11.926
▁일원으로	-11.926
▁맞서기	-11.9262
▁하락했으며	-11.9264
▁소비량	-11.9266
▁3500	-11.9268
▁피랍됐다	-11.9269
▁분파	-11.9269
▁대권	-11.927
▁동부지역에서	-11.9274
▁부인하며	-11.9275
▁안된다고	-11.9276
▁보장받	-11.9277
▁입성	-11.928
▁만족할	-11.9283
▁마시지	-11.9283
술라	-11.9284
▁상승했으며	-11.9285
[...]
